#version: 0.2
Ġ d
Ġ e
Ġ a
Ġ p
r a
o s
Ġd e
Ġ c
n t
r e
Ġ s
a s
e r
Ã £
q u
e s
Ġ m
Ã£ o
Ġc o
i s
a d
Ġ n
o r
Ġ o
a r
Ã §
i n
Ġ t
a l
Ġ qu
e nt
i c
i a
Ġ f
r o
i d
Ġqu e
n d
u m
Ã ¡
e m
Ã ©
i t
Ġco m
s t
Ġ v
Ã§ Ã£o
Ġd o
a m
e l
i m
a ra
i o
Ġ um
e n
Ġe m
Ġ re
Ġd a
Ġs e
Ã Ń
i l
Ġ C
a n
Ġ A
Ġ l
Ġp ara
re s
i v
Ġ P
t a
Ġ b
t o
Ġn o
o l
ad o
nd o
Ġ S
u l
e i
Ã ³
n c
Ġ E
s o
ent e
Ġe st
Ã ª
e c
o d
a is
Ġ Ã©
a Ã§Ã£o
Ġ g
h o
Ġ M
â Ģ
Ġp ro
Ġ in
a t
u t
id ad
r i
Ġum a
Ġp or
g u
o n
i z
o c
o m
ent o
Ġa s
u s
Ġe s
Ġn a
Ġ D
d o
Ġ (
t e
Ã µ
Ġ os
i r
Ġco n
s e
Ãµ es
h a
nt e
ic a
Ġs u
Ġn Ã£o
ad a
idad e
is t
o u
l e
Ġ Ã
it o
Ġ 1
Ġ R
Ġ 2
Ġ B
Ġ O
Ġ T
ra s
Ġ j
Ġ F
Ġa l
a c
Ġe x
e ra
Ġa p
io n
Ġs er
i g
a nt
Ġ N
e d
e t
Ġm ais
Ã§ Ãµes
u n
a ndo
u ra
. .
Ġde s
Ġa t
m a
Ġp el
Ġa c
Ġ I
p o
v e
ad os
Ġd os
a b
Ã º
Ġp r
Ġ âĢ
Ġcom o
a g
Ġf o
Ġt ra
Ġ L
Ġm u
d a
Ġo u
ic o
Ġco nt
nc ia
Ġt em
Ã© m
a i
r io
id o
i f
o nt
Ġ G
u r
Ġa o
Ã§ a
Ġa n
r ia
Ġp re
d e
i p
o b
Ġp er
id a
Ġ h
s a
m o
o g
Ġ i
Ġp od
e g
r os
es t
Ġ J
Ġn os
v a
ĠÃ ł
i al
d u
Ġ2 0
Ġcom p
en s
Ġ V
ar t
es so
Ġe nt
ra m
i as
Ãª ncia
Ġ im
c e
Ġd as
a z
ei ra
Ġ -
v el
nd e
Ġre s
Ġm e
Ġf or
ei ro
Ġt od
l a
am ento
Ġes p
Ġt er
c o
Ġs em
Ġsu a
âĢ Ŀ
m ente
er n
im ento
b l
oc Ãª
n s
r u
Ġd is
p or
am ente
Ġfo i
e re
f or
Ġp os
Ġm as
Ġse u
p res
ad as
qu e
p l
g o
Ġo ut
es s
Ġ U
ĠâĢ ľ
a p
am b
Ġs ob
Ġa m
Ġa r
ent os
in ha
e z
Ġ ho
o v
Ġ H
Ã¡ rio
ÃŃ c
Ġm es
Ã ¢
Ã§ o
Ġe n
Ġc h
Ġf az
o t
Ġv ocÃª
e nd
Ġse gu
Ġi nt
p re
in a
al iz
Ġ20 1
Ġc as
Ġpel o
a re
Ġe le
i os
Ġs Ã£o
amb Ã©m
b al
Ġsob re
i re
er s
it a
is ta
j a
Ġes c
.. .
u d
Ġg ra
p os
ion al
i b
ic as
ra r
ri os
iv o
Ġo b
Ġmu ito
Ġqu al
0 0
ras il
i Ã§Ã£o
m e
Ġ 3
ul t
am os
Ġent re
Ġa b
Ġpel a
nt es
Ġt ambÃ©m
Ġas s
Ġp as
h e
c a
Ġest Ã¡
ad e
p er
it u
Ġre c
if ic
ent es
ĠE st
Ġp esso
Ġcon s
Ġco r
Ġp art
ic os
a v
g ra
Ġd ia
ant o
Ġ is
it e
Ġpod e
it os
Ġc l
ad or
idad es
) ,
in da
Ġj Ã¡
ĠC om
Ã³ s
Ġe l
v er
iv a
Ġde st
Ã ´
j e
os t
o ra
in h
Ġ "
ar ia
id os
Ġtra bal
ĠâĢ ĵ
Ġv er
ul o
Ġe u
Ġ or
Ġe nc
Ġat Ã©
Ġ Ã¡
Ġl e
u do
Ġp ar
u st
v ol
Ġc ar
em b
Q u
v i
Ġp res
Ġa d
es te
Ã¡ t
Ġt e
) .
en c
im a
is s
in g
a nd
or n
ÃŃ t
Ġp ra
Ġa qu
Ġno v
Ġan os
Ġm el
ĠD e
t u
er c
Ġn as
h ec
ÃŃ s
Ġre g
Ġb em
Ġmes mo
i ra
Ġpr im
Ġpos s
m os
ĠA l
c is
ÃŃ vel
ĠP ro
m in
Ġd ire
an h
f e
Ã¡ rios
p e
Ġpro c
Ġv ez
t os
t er
Ġis so
ag em
Ġest e
Ġp o
Ġa inda
Ãª s
in c
ĠP or
ra n
il h
Ġf u
i x
il iz
Ġin c
ĠE s
Ġm ar
Ġ us
h or
e b
Ġqu ando
Ġf al
on s
Ġm od
ai x
Ġre l
id as
Ġse us
Ã§ as
Ġtod os
al mente
a to
Ġc am
l o
Ġ r
er t
Ġ 4
ĠB rasil
era l
iv ers
nt o
Ġpr Ã³
Ġco nc
Ġtem po
Ġest a
ĠA s
in do
ara m
ĠS e
in o
ve is
Ġfaz er
Ġem pres
Ġpas s
Ãº bl
an a
Ġesp ec
u b
g a
Ġo f
Ġa os
u p
en as
ĠÃ º
em a
ic ip
Ġ ro
Ġ 5
Ã© c
im o
Ġf in
in ho
Ġpro f
Ġco l
Â º
qu er
Ġpesso as
ĠI n
il idade
Ġp l
Ġs a
Ã© d
g um
Ġ Qu
ri as
Ġfor ma
ia is
Ġs ab
Ġs Ã³
Ġ ra
as e
ri b
Ã§ os
for m
an c
Ġcont ra
ent a
Ġ1 9
re m
s os
Ġv ida
es ta
Ã¡ vel
Ġpod er
ia n
i u
el a
Ġl u
ra Ã§Ã£o
iv os
âĢĿ ,
Ã¡ s
Ġdes c
Ġc r
ig o
0 1
ado res
Ġin d
em os
f er
Ġd if
d os
Ġp ol
Ġm en
Ġ id
Ġp a
i Ã£o
Ġv is
Ġs oc
Ġv al
Ġre aliz
st itu
Ġtra ns
Ġan o
er o
ÃŃ n
nd a
Ã³ ria
Ġo p
ce b
Ġi nte
du Ã§Ã£o
i or
Ġf il
ĠE m
Ġc ap
ĠC o
Ã ĥ
l u
- -
Ġt r
Ġa g
Ġenc ont
ĠT ra
el e
u al
ei ros
Ġcon hec
ĠP a
ai or
Ġ W
or d
t ar
Ġ ir
Ġv ai
Ġl oc
ul a
Ġs ol
ĠÃł s
ul ar
Ġpre cis
Ġal gum
it as
Ġh Ã¡
Ã© s
ĠU n
Ġsu as
Ġm aior
el o
an o
Ġo nde
Ġim por
i ente
Ġc ria
Ġsem pre
Ġ ut
Ġesc ol
Ġe v
Ġm an
ent ar
Ġd iz
Ġ un
Ġj og
or re
nc ias
ec ess
j et
Ġc er
Ġs im
Ġc ada
ist as
Ġv ol
po is
it ar
Ġf ic
en h
u to
e u
Ġmel hor
Ġe qu
Ġc a
ut os
Ġap res
Ġ ha
ant es
Ġt udo
ĠS Ã£o
er v
is a
Ġpr inc
en vol
Ġcon f
Ġtrabal ho
emb ro
Ġa f
is mo
ĠN o
e ndo
E S
Ġar t
g ar
Ġe la
Ġut iliz
Ġout ros
Ã¡ ria
Ġn ecess
Ġf e
se gu
Ġde ix
i ar
Ġl iv
for ma
Ġin v
Ġe ra
ÃŃ l
i nt
ĠÃ ī
Ġp e
Ġs al
Ġa v
ĠR e
Ġser Ã¡
Ġm in
Ãª m
ra t
Ġgra nde
Ġap enas
Ġser vi
ĠM ar
ri g
ĠP ara
ra do
Ġpar te
ig n
ur so
ern o
Ã´ n
z a
Ġ 6
im entos
Ã³ r
ra v
Ġmu ndo
Ġp ou
p a
i Ãªncia
ia m
Ġest Ã£o
t as
f ic
ĠO s
ol og
d ade
Ġp Ãºbl
so n
en ho
ion ais
Ġass im
ĠC on
Ġa nt
iz aÃ§Ã£o
ta nte
R A
Ġpor que
ura nte
Ġp es
Ġse ja
Ãª ncias
Ġdif ere
i Ã§Ãµes
Ġh ist
Ġfo ram
p ec
Ġal gu
it al
Ġes se
Ġo c
n e
j u
Ġm a
l ic
Ġp ed
Ġque m
Ġin f
Ġ K
Ġch eg
Ġm at
u ro
u nc
Ġfor m
ar Ã¡
Ġ 0
or m
l t
Ġ20 0
Ġp ont
Ġco nd
Ġqual quer
ac ional
t or
o f
Ġs ent
ut or
Ġre ceb
ĠÃ¡ re
Ġtod o
en Ã§Ã£o
g em
Ġdis p
am entos
l og
Ġespec ial
in u
in e
Ġdes envol
h os
Ġcom e
o a
Ġcon st
Ġb rasil
Ġm il
g an
Ġprinc ip
Ġde v
Ġn um
Ġm inha
âĢ ¦
a Ã§Ãµes
Ã© r
ÃŃc io
d as
ĠD E
ĠM as
Ġm ed
s as
ra l
Ġcon v
Ġde ve
u bl
Ġaqu i
h er
Ġdo is
Ġes sa
Ġde c
Ġle v
id ente
n o
un ic
Ġin s
c er
2 01
Ġequ ip
Ġpa ÃŃs
c on
Ġt orn
Ġn eg
Ġsu b
go ra
Ġper m
Ġd ias
Ġme u
Ġ 7
era Ã§Ã£o
Ġd iv
Ġho m
Ġap ro
or te
l us
ent aÃ§Ã£o
c om
Ã¢ ncia
ra da
Ġd u
Ġj u
Ġcas a
en a
ĠprÃ³ p
in as
ĠN Ã£o
iv as
as s
ĠA r
gu a
Ġde f
du c
Ġt i
ar d
Ġcas o
an Ã§
rib u
Ġpod em
Ġpart icip
ei ras
Ġm om
Ġam b
Ġpro du
er g
Ġm ul
Ġde m
je to
Ġin st
Ġse ndo
Ġ 8
Ġde pois
Ġempres a
ra nc
est Ã£o
Ġ1 0
ĠE x
era m
Ã© t
Ġex c
im os
Ġex t
ĠC ar
i entes
Ġcon segu
por t
Ġme io
Ã³ rio
Ġs ist
es se
Ã¢ m
Ġ 9
h ar
Ã¡ c
ĠÃº lt
f eira
Ġf am
Ġp al
u c
Ã³ g
ÃŃ p
Ġpo is
Ġc idade
âĢĿ .
i e
t al
Ã¡ l
ĠPa ulo
Ġat u
u nd
ed ade
ia Ã§Ã£o
Ãº de
re d
is c
Ġv e
ont ec
p ara
n Ã§a
Ġc u
Ġf re
olog ia
ĠA m
pl o
Ġc ab
Ġnos so
Ġtod as
n a
Ġel es
C om
Ġpro bl
Ã£ este
ta Ã§Ã£o
ag ens
E N
nd er
Ġho je
at ura
el ec
ran Ã§a
ĠD es
Ã©c n
Ġint ern
Ġpro d
ult ura
Ã¡t ica
j o
Ġprof iss
Ġat rav
Ġout ras
or ia
Ġp ag
Ġint er
! !
Ġac ontec
re i
Ġsu per
r ut
Ġd urante
s Ã£o
Ã¡ rias
Ġdis c
or do
Ġf ac
Ġprim eiro
Ġv ia
Ġp are
al idade
as t
Ġre f
forma Ã§Ãµes
an ha
Ġs om
Ġout ro
Ġmen os
ÃŃ st
Ġg ov
id era
Ġqu er
u Ã§Ã£o
Ġal Ã©m
Ġnos sa
Ġcomp le
" ,
ar o
at e
ÃŃl ia
Ġm Ã©d
Ã ĩ
em as
O S
Ġres p
i ent
Ġalgu ns
ÃŃ veis
ĠS u
Ġh um
Ġpol ÃŃt
ubl ic
Ġch am
v is
Ġa uto
u so
Ġm ost
el ho
ul os
r ic
ÃŃ d
g ram
v ia
iv er
Ġo l
Ġex per
Ġe d
Ġinte res
ĠDe us
es a
Ġfu nc
Ġim p
ĠE le
Ãĥ O
Ġcont a
Ġdesenvol v
ig os
Ġat iv
ur sos
Ġm erc
ĠprÃ³ x
Ġb om
Ġn em
Ġ #
Ġin ic
en ha
Ãº m
Ġinv est
Ġnov o
Ġesta va
Ġatrav Ã©s
r im
ir m
Ġdis se
Ġprim eira
g e
Ġor gan
d ic
iv e
Ġg ru
Ġse x
Ġd ivers
E st
Ġvez es
a nte
Ġdest a
Ġd ist
re t
is as
r it
c h
Ġval or
os to
Ãº s
Ġpou co
ĠI nt
Ġob jet
il o
ĠÃ¡re a
Ġres ult
an e
Ġc ri
Ġde nt
s es
ro u
l es
Ġl on
Ġa gora
Ġdes de
in al
Ġdu as
Ġt om
Ġ ,
Ġa ntes
Ġmel ho
ed eral
Ġin form
c ional
Ġproc esso
Ġin formaÃ§Ãµes
E m
ĠP re
os a
ec n
min ist
t ura
Ã´ m
Ġpart ir
Ġno me
ol a
Ġc al
i edade
Ġmom ento
Ġpel os
Ġex em
Ġtod a
end a
Ġof ere
Ġpro p
I A
S e
Ã¡ g
inh as
Ġg ara
Ġa j
Ġest ar
gra ma
Ġl eg
i gu
ĠS ant
E R
ĠA n
Ġap Ã³s
Ġ1 2
Ã© rio
âĢ ľ
Ġre p
Ġl im
T A
oc a
Ġ1 5
O s
Ġa te
Ġs ite
ĠAs s
Ġfin al
Ġre t
c io
ĠC am
Ġtr Ãªs
Ġ |
b r
fe ito
duc aÃ§Ã£o
er ra
iss Ã£o
Ġp ens
i ado
Ġac ab
Ġcont inu
Ġ /
Ã³ d
Ġposs u
Ġc ent
at ro
ĠC h
A s
Ġap lic
Ġ w
ĠC ont
Ġac ordo
nte Ãº
Ġsist ema
Ġb as
Ġcome Ã§
Ġex pl
Ġc ara
Ġb us
Ġd i
Ġt Ã£o
ul aÃ§Ã£o
Ġa utor
ĠC l
Ġt al
Ġap re
ĠR io
ĠA p
Ġa um
Ġl o
Ġpes qu
Ã£ os
em ente
Ġ [
Ġcor re
Ġg u
I C
Ġpe qu
Ġsegu ndo
Ġpro v
o p
im e
b a
Ġresp ons
Ġprod utos
od o
r ito
Ġdo c
Ġhist Ã³ria
en e
o k
Ġent Ã£o
Ġs itu
a f
is e
Ġ uso
Ġmu d
an os
Ã ī
Ġem pre
Ġca us
n Ã§as
ac ion
Ġn ada
Ġfunc ion
Ġn Ã³s
O R
Ġre pres
Ġdest e
Ġsim pl
om p
Ġt Ã©cn
ĠEst ado
r Ã¡
Ġpo p
Ġqual idade
Ġl Ã¡
a va
c ar
Ġe con
Ġposs ÃŃvel
d es
Ġb ase
an eiro
ilh Ãµes
en Ã§a
unc a
ĠA c
Ġsu r
er to
Ġ1 8
Ġs of
o res
-- --
Ġt inha
a Ã§o
aix o
ĠN a
Ġm ant
t es
Ġd ar
N o
h as
Ġservi Ã§os
Ġf ica
ĠE n
l as
is te
Ġ Â
so c
Ġpro jeto
Ġti po
Ġcor po
Ã¡ veis
Ġmerc ado
Ġm ot
Ġ .
Ġm o
at os
Ġno va
Ġre st
Ġex ist
P ara
Ġconst ru
Ġl ado
I S
u re
ĠA d
Ġcol oc
Ġpesso a
ific aÃ§Ã£o
Ġlu gar
Ġ Ã³
l os
res c
Ġdent ro
ĠL e
Ġt ot
Ġf im
Ġdisp on
Ġd ados
Ġimpor tante
ĠUn ivers
z o
qu anto
Ġm et
Ġf ut
Ġmod o
t iva
Ġalgum as
un idade
Ġloc al
le g
ic amente
Ġexem plo
Ġg ost
Ġid e
Ġp ublic
Ġfu nd
at iva
i que
Ġn Ãºm
Ġt Ãªm
ÃŃc ia
nteÃº do
ĠG u
to res
if ica
Ġde ver
ÃŃ de
do res
to u
Ãª n
ÃŃ f
Ġf er
I N
ab ilidade
Ġcont ro
Ġrel aÃ§Ã£o
Ġout ra
Ġap are
du z
ĠF ederal
Ġliv ro
inh os
in gu
Ġsimpl es
Ġmu itas
ĠÃ¡ gua
ĠÃº n
O N
Ġn este
Â ª
ib ilidade
Ġempres as
pos ta
ĠC ons
p era
d ad
Ġm Ãºs
aliz aÃ§Ã£o
Ġde p
Ġsoc ial
o i
io res
ul g
Ġe t
ĠE u
Ġe nte
ĠE nt
ĠpÃºbl ico
Ġ X
Ġde se
ig a
ĠJ o
Ġqu anto
um a
Ġ201 8
Ġt re
T O
Ġmu itos
is co
Ġco isas
e x
Ġpro mo
D e
Ġco isa
Ġ ru
Ġm Ã¡
Ã¢ n
Ġsab er
Ġe ns
Ġc in
Ġn esta
Ġesp era
Ġsa Ãºde
t amente
Ġcons idera
ĠG ra
Ġaj ud
id e
un icip
Ġgru po
os ta
Ġdis so
ab ora
ĠL u
Ġdire ito
Ġn unca
A S
Ġm al
r is
ri r
i qu
Ġest ud
Ã¡t ico
Ġid ent
Ġdoc um
ĠU m
Ġgara nt
Ġho ras
Ãĩ ÃĥO
Ġcom b
Ġl anÃ§
Ġ3 0
Ġde ter
he res
ĠR eg
Ġ1 1
Ġsem ana
Ġper ÃŃ
Ġt anto
A R
Ġ Z
A N
Ġc an
ro m
ĠM in
Ġper son
og o
d or
" .
am ent
c os
an ho
il ha
Ġgov erno
ĠM a
ĠI s
Ġc ur
ĠA t
Ġpres idente
ĠP ol
ĠSe gu
Ġapres ent
ĠN acional
Ġpro te
Ġe r
l am
Ġtra t
Ġservi Ã§o
Ġv o
Ġac omp
ĠD ire
gra f
ĠEs c
Ġmes ma
R O
Ġte x
Ġc at
ado ra
c ion
c as
Ġg ente
ĠC as
Ġal go
i nte
Ġt ecn
Ġnos sos
c ri
Ġinc lu
ĠS a
tu gu
Ġsu c
os o
Ġ k
unic ÃŃp
nd es
ĠC ent
ĠS er
Ġf ato
ic ial
Ġreg ist
âĢ Ļ
v o
i Ã§a
Ġs ido
Ġb oa
Ġcons um
on hec
u a
fer Ãªncia
Ġor ig
Ġsegu ranÃ§a
ĠA g
gu e
il a
ĠR ec
ÃŃ m
Ġfam ÃŃlia
Ġdesenvolv imento
Ġn enh
or t
Ġsegu nda
Ġc ust
Ġf ez
Ġs ign
Ġpre v
Ġfic ar
Ġt ro
aix a
enc ial
ez a
Ġt enho
Ġproc ura
ĠUnivers idade
Ġreg iÃ£o
Ġdiz er
io l
Ġl ib
j am
er ic
Ġ1 3
Ġal un
n os
Ġ1 4
Ġin g
Ġcon for
in ar
er ta
Ġp ap
en o
Ġc el
l ine
iz ar
it aÃ§Ã£o
m as
A L
Ã³ rios
Ġco b
Ġdef in
E s
rut ura
Ġb r
Ġt ur
1 0
el es
ic e
Ġm ilhÃµes
Ġp ac
ol Ã³g
Ġap o
Ã© g
ĠnÃºm ero
Ġrel acion
Ġb ar
Ġjog o
es sa
Ġprodu to
Ġam or
Ġtra z
Ã¡ b
ul ho
ro n
inh eiro
Ġg eral
it ura
ĠCom o
ĠB ar
ĠM u
Ġser Ã£o
an Ã§a
Ã© ri
ra Ã§Ãµes
Ġc ert
Ġn atura
Ġb a
Ġm ov
Ġesp aÃ§o
b o
Ġpro duÃ§Ã£o
ov o
pos iÃ§Ã£o
Ġs on
ĠR es
Ġav al
at ivo
Ġpal av
Ġmat er
Ġde z
ĠperÃŃ odo
Ġqu ar
Ġ1 6
ĠTra duÃ§Ã£o
Ġde cis
Ġvol ta
Ġen quanto
Ġobjet ivo
Ġpro grama
ic ar
Ġprecis a
Ġhom em
Ġqu ase
Ġnum a
Ġem b
Ġfo ra
Ġen vol
1 9
el iz
and a
x o
ĠP ar
Ġj ov
Ġno t
Ġequip e
Ġco le
orn al
ĠC ol
S T
Ġc ultura
Ã¡ p
Ġcomp et
Ġres pe
Ġpel as
ens Ã£o
por te
Ġfe ito
Ġho ra
ad r
Ġv em
nt a
Ġa nd
Ġmul heres
Ġin stitu
ĠI m
Ġf un
Ġmes es
Ġcria nÃ§as
Ġfin anc
ra ndo
Ġtrabal h
Ġc and
unicip al
Ġan im
Ġpas so
Ġl ig
Ġev ento
Ġn orm
Ġt o
Ġe f
A D
it es
ab elec
P or
Ġo n
Ġm Ãªs
Ġ201 7
N a
i ados
Ġqu ais
Ġgra ndes
Ġj ust
ĠO r
ist Ã©rio
Ġf av
on a
ĠV ocÃª
Ġb ol
Ġver dade
Ġc ir
r ica
Ġmelho res
d io
nd imento
ĠP r
Ġte ve
ĠS oc
Ġser v
Ġbrasil eiro
Ġpont o
os p
Ġ1 7
ta nto
Ġpro gram
Ġpre st
Ġb ene
Ġv i
1 1
Ġv ir
or r
el as
g as
g re
.. ..
Ġse c
u ta
Ġinte gra
R E
iv amente
ĠÃ ģ
Ġl he
Ġac esso
Ġdifere ntes
Ġper d
in os
Ġpr iv
g al
Ġ il
N Ã£o
el os
Ġd Ã¡
Ġmul her
Ġex ec
Ġad minist
Ġpont os
Ġprobl ema
m es
Ġno ite
on e
Ġres ol
ĠU ma
Ġv ÃŃde
ere m
Ġa do
ĠJ os
Ã³ l
Ġser ia
Ġman eira
Ġc art
Ġha b
ĠP l
Ã£ e
Ġinst al
a x
ÃŃc ios
Ġativ idades
Ġv end
u ras
Ġp en
ĠTra bal
ul as
es ar
om ia
in s
Ġprobl emas
Ã³ p
v io
Ġm im
Ġtem os
Ġ z
Ġfre nte
Ġc urso
iv idade
. âĢľ
Ġv Ã¡rios
Ġfo to
Ġin ÃŃcio
qu i
Ġpres ente
un ho
Ġen erg
Ġ Y
le x
h es
Ġt enha
re ve
Ġch e
Ġest ado
Ġg era
Ġf iz
ĠA nt
Ġm ens
Ġ201 6
Ġexper iÃªncia
ĠS al
Ġ2 5
Ã©ri e
Ġo port
Ġdeter min
ific ar
Ġest abelec
A l
ian o
Ġcap ac
Ġfil me
Ġd inheiro
Ġdev em
Ġb log
ĠL ei
in aÃ§Ã£o
Ġest ou
ic ion
Ġt ar
Ġus ar
c ter
it or
Ġb o
at al
Ġm ora
Ã§ Ã£este
ce u
ĠV al
v ida
00 0
i ram
ec er
Ġre un
Ġsab e
av am
u x
Ġs ou
Ġpossu i
. "
um p
re ira
Ġp Ã¡g
3 0
Ġob s
ĠEst e
ub ro
on st
Ġcont ribu
Ġqu atro
anh Ã£
Ġop era
Ġcon ju
ĠprÃ³p ria
an ce
Ġa gra
Ġperm it
w w
Ġaf irm
ĠprÃ³p rio
Ġpoder Ã¡
Ġus u
T E
Ġneg Ã³
e ito
Ġen f
ĠInt ern
ist Ãªncia
es c
Ġfal ar
Ġamb iente
t r
Ġ ...
Ġoc orre
ĠS en
Ġac red
iz ado
Ġs i
ĠAl Ã©m
Ġpass ado
Ġper gu
Ġv Ã£o
Ġqu ant
ĠE d
Ġl emb
ĠJ aneiro
b ra
Ġ2 4
in d
ĠE l
Ġ201 5
ido res
c ia
Ġb an
ĠP Ãºbl
Ġmu ita
Ġrel at
Ġa ju
Ġv ar
Ġprofiss ional
v ista
ĠM o
Ġencont rar
Ġj ur
Ġsitu aÃ§Ã£o
Ġt ele
Ġalgum a
a y
Ġlon go
u ais
ri z
Ġf ÃŃs
Ġob rig
Ġbas tante
Ġprodu z
2 0
ĠCom p
Ġproc ess
Ġpar c
i ada
qu es
rÃ¡ f
im as
Ġim pl
Ġs en
Ġcl ientes
Ġsoc iais
Ġprofiss ionais
rei ro
ĠS ec
int a
Ġdesc ob
Ġnov os
Ġdes se
Ġex erc
Ġencont ra
Ġv iv
Ġmar ca
ĠEs p
A p
Ġrec ursos
Ġprincip ais
id Ãªncia
as se
ip l
Ġsoc iedade
i Ãªncias
Ġcom unic
Ġm unicÃŃp
ĠO l
an g
Ġmin utos
Ġv Ã¡rias
ĠS il
Ġar qu
Ġcom erc
Ġcer ca
ĠE ducaÃ§Ã£o
Ġd ig
Ġre ce
ĠprÃ³x imo
I I
Ġdes sa
Ġdeix ar
v es
ĠN e
ÃŃt ulo
ian a
ĠS em
ĠS ul
ĠpolÃŃt ica
Ġrec onhec
Ġv ers
Ġfal ta
Ġde le
ĠM aria
c ios
Ġ x
Ã© l
a Ã§a
i es
re g
Ġa Ã§Ã£o
Ġpre para
ent emente
Ġfor n
Ġfav or
Ġqu est
Ġv ag
Ġ19 9
Ġf ra
Ġ201 4
Ã¡c il
Ġpl ane
ec t
Ġcond iÃ§Ãµes
Ġtot al
Ġnecess Ã¡rio
Ġn Âº
Ġpesqu isa
ac h
Ġal te
g res
Ġart igo
Ġresult ado
Ġind ic
p t
l ob
ac a
_ _
v al
at er
ess or
Ġmar c
Ġacomp anh
Ġb eb
Ġn ÃŃvel
ento u
Ġpra t
ilh os
Ġcont ato
ĠJos Ã©
Ġl ei
Ġpro jet
Ġcara cter
Ġc resc
ĠT em
ĠV er
p end
ĠP er
Ġha via
ÃŃ do
es us
art amento
tu gal
Ġa Ã§Ãµes
Ġter c
ub e
ed or
Ġcom un
Ġpap el
Ġreceb er
1 2
ec e
Ġes ses
A M
Ġmaior ia
ific ado
j as
Ġdem ais
ant as
Ġant er
ĠP ed
Ġind iv
Ġan al
Ġpro va
ica Ã§Ãµes
Ġt iv
i Ãµes
Ġf ec
ĠmÃºs ica
Ġprincip al
I D
Ġalun os
ĠO ut
Ġimpor t
Ġimpor ta
Ġf os
Ġfic ou
Ġm ont
Ġfaz endo
Ġre de
re c
Ġs us
Ġre la
Ġass u
Ġnov as
ĠC or
Ġp ot
Ġna cional
Ġcam p
Ġnatura l
ĠJ ust
Ġs ai
il l
ÃŃ da
an as
ei x
Ġre al
Ġes qu
Ġaju da
Ġmod elo
iz ada
ÃŃn io
Ġbus ca
Ġal ta
Ġresult ados
Ġv ou
Ġ ur
Ġsuc esso
Ġf Ã¡cil
ĠÃ¡re as
Ġd Ãº
Ġcri ar
Ġpas sa
Ġinform aÃ§Ã£o
Ġam igos
Ġs ens
Ġi gu
Ġac ess
Ġest udo
Ġcas os
Ġg ol
iv il
Ġpass ar
S P
Ġcab e
um e
Ġr Ã¡p
Ġprecis o
ĠQu ando
z inha
Ġor d
Ġem p
Ġm or
Ġter Ã¡
Ġus ando
Ġad v
Ã¡ st
Ġm us
Ġel as
to n
Ġpro por
en se
ĠJ esus
Ġs Ã©rie
Ġescol a
ĠP od
ĠM unicipal
Ġex ig
Ġqu estÃ£o
f o
Ġtex to
ĠF ac
Ġco nteÃºdo
ĠJo Ã£o
ĠSa Ãºde
ru z
am e
Ġmin ist
Ġcom ent
Ġapo io
rat Ã©g
i k
Ġal im
Ã ģ
Ġp ais
Ã¢m ara
Ġac e
Ġprincip almente
ĠPro f
Ġ1 00
Ġas soc
Ġper ceb
Ġprop ri
Ã¡l ise
Ġconhec imento
ĠD o
Ġm Ã£e
Ġsent ido
Ġde r
Ġhom ens
Ġapro v
Ġsom ente
Ġajud ar
Ġd ific
Ġde tal
Ġv ista
Ġpos t
Ġtar de
Ġob ra
Ġg anh
ĠÃ© p
Ġcaus a
R I
Ġ2 1
k et
Ġg estÃ£o
Ãº st
nt os
Ġl ogo
ula res
Ġes sas
aliz ado
it ado
ĠO b
Ġpor tugu
E u
x im
od os
Ġent anto
ĠA nd
Ġexc el
ĠB a
Ġdo m
Ġpr Ã¡tica
Ġj ornal
ĠF ranc
Ġat enÃ§Ã£o
Ġre almente
Ġenerg ia
ad eira
Ġinc lus
pres s
U m
M A
er os
ĠCo nc
ĠPor tugal
ĠI N
Ġ201 3
Ġ :
Ġh or
Ġpra zo
Ġdo min
Ġpop ulaÃ§Ã£o
Ġfil ho
Ġv it
Ġpre Ã§o
ĠN os
Ġex iste
in k
Ġet c
Ã³ n
ĠMin istÃ©rio
Ġd im
O L
ĠvocÃª s
Ã³ rias
Ġmant er
Ġintern et
Ġab aixo
Ġv el
pres sÃ£o
Ġs o
Ġe ducaÃ§Ã£o
Ġver dad
Ġexc lus
Ġre vel
t t
ĠTrabal ho
Ġm on
Ġex p
Ġju nto
Ġt est
Ġa de
Ġt ent
Ġtrat amento
Ġdiv ulg
vis Ã£o
Ġed iÃ§Ã£o
ant a
id or
rib un
Ġ5 0
ra dos
Ġqu ad
Ġcam inho
are m
Ġest rutura
Ġcontro le
v am
Ġpre oc
Ġdivers os
em p
ta ndo
Ġdec l
eb ol
w s
p Ã§Ã£o
Ġgov ern
at ure
Ġrespe ito
ĠpaÃŃs es
2 00
ma z
Ġl inha
g os
is so
Ġde u
Ġa ta
Ġgra v
Ġ201 2
Ġn esse
g enh
ĠC ap
Ġc ost
Ġdire itos
Ġpor Ã©m
Ġde n
Ã¡t icas
Ġdivers as
ĠJ Ã¡
ĠP art
in ado
Ġalgu Ã©m
era is
Ġproc ed
Ġda ta
Ġpare ce
ul dade
ve z
ĠP res
Ġdecis Ã£o
ĠCent ro
om e
Ġse i
Ġcin co
Ġofere ce
ĠGra nde
Ġme us
ĠIn stitu
ma il
ĠÃºlt ima
Ġs an
Ġcomp rar
Ġte ndo
Ġve ÃŃc
et ro
pos to
Ã³ veis
E L
m ent
Ġv iol
p ira
O M
Ġis to
Ġperm an
v idas
Ġcam po
ĠJust iÃ§a
Ġres po
ĠÃºlt imo
ĠIs so
Â Ń
z e
ord en
Ġse t
Ġcon stitu
em in
i Ã¡rio
Ġpag amento
av al
ĠF il
Ġen vi
cri Ã§Ã£o
Ġinic ia
ĠÃ³ t
ĠP al
---- ----
t ro
p ro
Ġde les
Ġ2 2
ĠÃ©p oca
Ġcheg ar
E M
ÃŃst ica
end er
E I
Ġg en
Ġconstru Ã§Ã£o
Ġpreoc up
ature za
Ġest re
Ġtrans form
Ġtem a
le o
Ġcat eg
ĠâĢ ĺ
ĠE uro
Ġs in
ed ia
Ġc ump
Ġval ores
Ġapres enta
ĠT e
ĠL o
ĠSu per
iv al
Ġrealiz ar
Ġpesso al
ĠPro gram
Ġp ovo
Ġens ino
Ġal c
ĠSant a
ĠM an
Ġnecess idade
Ġform aÃ§Ã£o
u v
id ar
E C
Ġfund ament
Ġir m
Ġpr Ã©
Ġfor Ã§a
Ġdec id
Ġcer to
Ġnenh um
ĠvÃŃde o
Ġconhec er
is l
fe itos
ĠEst ados
Ġcir c
t ec
Ġfo tos
P ro
Ġtecn ologia
5 0
Ġcomp ra
p ar
r um
ĠA o
Ġcar ro
Ġim agem
Ġobs erv
I L
Ġper f
ĠA b
Ġprojet os
ingu Ã©m
ĠpÃºbl ica
Ġm anhÃ£
Ġin de
ei as
io u
Ġab s
ÃŃst icas
Ġc re
Ġjog os
Ġfaz em
g ens
Ġp at
Ġl it
Ġrepres ent
Ġapro ve
Ġra z
Ġtra n
est re
am a
el l
Ġcl ass
Ġinvest ig
Ġest amos
ĠD O
Ġsal a
ac k
Ġnos sas
Ġmost ra
Ġcomp anh
is Ã£o
I V
Ġp ai
ad amente
Ġfac il
Ġpoder ia
Com o
Ġcomp re
Q U
Ġef et
m an
Ġou v
Ġf Ã©
Ġv ont
Ġest ratÃ©g
Ġac ho
Ġir Ã¡
Ġse tor
Ġat ual
an Ã§as
Ġcom um
Ġpres enÃ§a
Ġide ia
Ġt ax
Ġm and
i el
Ġcent ro
h ia
ĠE la
Ġimport Ã¢ncia
Ġfe ita
Ġt am
Ġdist ribu
Ġma iores
Ġliv ros
Ġativ idade
it ando
Ġbrasil eira
e ta
Ġparticip aÃ§Ã£o
ĠF o
Ġa ÃŃ
Ġac ima
Ġdes af
Ġter ra
Ġcl aro
ĠC al
Ġmater ial
ert ura
l or
Ġrest a
Ġprof esso
Ġda qu
Est e
U ma
ĠmÃ¡ x
ra p
Ġbene f
Ġs ac
ĠC at
ĠSec ret
t ivas
ra f
Ġf ilhos
re st
Ġd ura
Ġh osp
te za
Ġon line
ar m
Ġagra d
Ġdifere nte
Ġg as
Ġauto m
Ġcap ital
Ġpel e
ei os
Ġm ÃŃn
Ġp s
ĠÃºn ico
Ġvont ade
Ġlu z
Ġm orte
c ol
Ġal i
Ġ +
m et
Ġat ing
oc o
o je
g er
Ġco raÃ§Ã£o
Ġlev ar
/ /
Ġutiliz ando
ĠC Ã¢mara
Ġfor te
Ġs ho
Ġ '
Ġs Ã¡b
U L
ĠP o
ve reiro
Ġcapac idade
Ġcon qu
Ġ201 1
u gu
Ġm Ã£o
ess Ã£o
Ġl ista
ip e
il iar
ĠI nd
ĠR od
Ġsuper ior
Ġof icial
Ġpalav ras
Ġ it
Ġf eliz
ÃŃc il
ÃŃc ias
Ġrespons Ã¡vel
ou r
en os
at ivas
or o
ĠâĢ Ķ
du aÃ§Ã£o
Ġrec om
Ġ2 3
Ġqu is
Ġde la
Ġest ran
. âĢĿ
ĠCo nteÃºdo
ec imento
ĠPro c
Ġra p
Ġv amos
r il
ir ma
Â »
Ġpod emos
Ġout ubro
ĠT V
ribun al
Ġele v
Ġcl iente
Ġecon Ã´m
Ġes s
m it
Ġcria Ã§Ã£o
s u
m ento
Ġa leg
1 5
as c
ĠPor to
Ġse rem
Ġass ist
Ġse jam
ed e
Ġtrabal har
Ġele ito
Ġre duz
Ġorgan iz
Ġde b
pos tas
ei Ã§Ã£o
Ġconsegu ir
ĠD a
nde u
Ã© ria
m ar
Ġe ram
ĠB ol
it ivo
Ġsu st
Ġnov embro
r Ã¡s
Ġsol ic
le t
j ar
Ġoport unidade
ĠP ra
ĠÃºn ica
Ġm ult
j os
Ġn e
Ġdif ÃŃcil
Ġaqu ele
Ġn atureza
Ã¡s s
ĠpÃ¡g ina
Ġter mos
Ġliv re
g n
ket ing
Ġre alidade
Ã³d igo
Ġ idade
Ġp la
Ġal to
ĠSil va
Ġexec ut
ĠF ern
Ġs at
Ġinteres s
Ġsex ta
tt p
Ġperm ite
Ġre n
Ġdev ido
Ġp ena
Ġr isco
Ġm ag
ad ual
Ġsex o
Ġb anc
Ġb al
Ġade qu
Ġal t
Ġro m
Ġfos se
Ġate ndimento
re mos
Ġc ha
ĠI gre
Ġsegu ir
Ġfer ram
ĠCon f
ĠÃºlt imos
Ġpasso u
re to
id Ã£o
Ġent rar
Ġob ras
E D
el ha
Ġcresc imento
Ã³ vel
Ġfun Ã§Ã£o
id ado
Ġim ag
Ġb on
ð Ł
Ġ Ã³r
1 8
Ġ ÃŃ
Ġ4 0
Ġm ara
Ġfut uro
201 8
C on
Ġaum ento
ĠM ais
Ġespecial mente
Ġc ho
Ã£ es
Ġvia gem
: //
Ġespec ÃŃf
Ġest im
gres so
Ġanter ior
Ġ201 0
tu al
A C
fic iente
Ġassu nto
ĠS im
ĠAss im
Ġcer teza
ĠNo va
p as
t ado
Ġ â
Ã© is
ĠD ia
ific ada
Ãµ e
ar do
Ã¢ ne
Ġan Ã¡lise
Ġcomunic aÃ§Ã£o
Ġcabe Ã§a
Ġre des
Ġpergu nt
o ok
Ġsegu inte
Ġj aneiro
r imento
Ġpar cer
Ġb ranc
Ġter min
Ġj unho
Ġdez embro
Ġcr im
Ġcap az
Ġv enda
ant ar
ĠG o
Ġdes ign
Ġsa ud
D es
Ġa ud
Ġquar ta
ĠmunicÃŃp io
res s
Ġam pl
Ġop Ã§Ã£o
Ġp adr
ĠG ov
ĠQu e
Ġcand id
Ġset embro
ÃŃs s
Ã©d io
Ġl er
i ro
b ol
Ġg r
ib il
M as
es qu
Ġm ist
ad es
Ġtele f
Ġm ol
nde ndo
ip os
ĠAr t
ris to
at ivos
ĠC r
Ġcom unidade
Se gu
Ġv est
Ġsa ir
Ġpre te
Ġp eg
Ġcomerc ial
Ġs Ã©c
qu ia
Ġcomp rom
Ġg osto
Ġde co
Ġcomp art
Ġrel ig
Ġdesc ont
Ġman if
Ġim agens
Ġel em
Ġorgan izaÃ§Ã£o
Ġ &
Ġc ient
ĠF or
ĠM e
ĠF oi
Ġdocum entos
u z
Ġj ulho
ir ro
Ġacontec e
ern a
Ġf ase
ra das
Ġt or
Ġpro posta
Ġped ido
Ġcheg ou
Ġf esta
v imento
il ia
ĠcomeÃ§ ou
Ġma io
Ġho t
us a
Ġconfor me
Ġinteres se
ÃŃ du
ac ionais
ent al
Ã į
Ġjov ens
ĠSer vi
1 3
Ġref ere
re ver
ob re
ĠCar los
Ġrealiz ado
Ġaqu eles
ĠEst a
ĠM ed
ĠSen hor
t ivo
Ġpos sa
fe itura
c ionais
s al
Ġt ais
Ã©t ica
Ġdes emp
Ġconju nto
ÃŃt ica
Ġoc up
ĠAd minist
Ġest ilo
V ocÃª
c el
ram ento
is p
Ġf ab
m b
Ġapre nd
Ġgra tu
Ġinf lu
ĠSoc ial
ĠIgre ja
Ġcoloc ar
Qu ando
Ġdest ac
ĠEnt re
ĠProgram Ã¡tico
Ġdever Ã¡
Ġol hos
Ġper c
ĠEnt Ã£o
ilh as
ur os
ic h
vol uÃ§Ã£o
Ġposs ibilidade
re a
Ġf ol
ĠmÃ©d ia
ĠRe p
ĠÃ³r g
Ġtre in
k e
Ġco nte
Ġn inguÃ©m
g on
u Ã§Ãµes
ÃŃ rito
ĠInstitu to
tr Ã´n
Ġest es
idad os
Ġpl ano
Ġcria nÃ§a
Ġfre qu
en so
id amente
ĠSant os
Ġmed ida
Ġpens ar
c ul
j amento
Ġcr it
I n
Ġext ra
ĠS ist
Ġpropor cion
U A
Ġb el
Ġprocess os
Ġfut ebol
ĠUn idos
Ġmom entos
ĠA v
Ġtrabal ha
Ã´n io
Ġop in
Ġdem onst
w are
ĠÂ «
Ġt ÃŃtulo
ion ar
Ġper to
1 6
Ġ ros
ic iais
u da
1 4
Ġun ivers
v ido
Ġloc ais
Ġqu inta
Ġ2 8
ic idade
h am
Ġt end
Ġent rada
!! !
I M
um o
ĠCas a
Ġcon ver
Ġapro xim
Ġdep ut
el ig
ĠS ol
Ġf isc
Ġimporta ntes
Ġprof essor
en sa
Ġlo ja
ut enÃ§Ã£o
Ġafirm ou
ĠH ist
Ġag osto
Ġrealiz ada
Ġvers Ã£o
Ġa ux
Ġ19 8
Ã§ ar
Ġesp Ã©c
ur g
r ita
Ġper t
ĠC ON
ĠAs soc
) ;
ĠC urso
er va
iz a
en Ã¡rio
Ġhist Ã³r
ĠC a
Ġb aix
Ġsof re
Ġconf irm
Ġdecl ara
f a
Ġcons c
Ġdomin go
ĠM at
Ġquant idade
t ra
Ġmen or
Ġe p
ĠC risto
U N
ĠE ST
Ġho u
P S
ĠL iv
Ġt ime
Ġjov em
ert as
Ġb Ã¡s
et er
Ġro up
Ġn essa
rit Ã³rio
l Ãªs
Ġre m
Ġcome Ã§a
ĠsÃ¡b ado
or k
Ġcont r
Ġv ig
A r
Ġinclus ive
Ġdire tor
Ġcomp ro
Ġro t
Ġencont ro
ib iliz
ĠcomeÃ§ ar
ĠDe pois
Ġl ar
orn o
ĠL a
Ġt ec
Ġmu nd
ot os
ĠM il
genh aria
Ġre v
Ġ2 7
re n
Ġcamp anha
Ġecon omia
ĠprÃ³x ima
ĠA inda
Ġsign ifica
Ġm ac
aliz ar
Ġtra dic
R e
Ġde l
Ġcomp ara
Ġenf re
ia nte
ĠCons elho
Ġc res
Ġprinc ÃŃp
ĠN ov
ient al
k k
u de
Ġlib er
Ġvis ita
Ã©r ica
Ġmov imento
Ġtom ar
Ġpart ic
az er
Ġha ver
Ġmar Ã§o
Ã´n ia
ac to
ios o
ÃŃ g
ĠSecret aria
Ã© u
Ġdi rig
Ġ2 6
Ġm Ã£os
Ġe feito
Â §
Ġc ul
Ġdes p
ter ior
ian Ã§a
c k
Ġres posta
Ġc idades
ida to
Ġd Ã©c
Ġquar to
am p
Ġescol ha
un a
Ġco zinha
ic al
ob il
Ã© to
Ġrealiz aÃ§Ã£o
Ġas pec
âĢ¦ ]
Ġc idad
E x
r Ã©
ĠAm b
it am
Ġpor ta
Ġb aixo
ĠÃ ¢
ĠV e
Ġh ip
ĠT ribunal
ei Ã§Ãµes
Ġre fer
Ġter ia
Ġd orm
1 7
Ġposs ibil
to ra
Ġinde pend
at Ã³rio
Ġar te
ĠPro grama
ĠSegu ndo
Ã ¼
ul ta
Ġde dic
Ġju nt
is o
Ġpre Ã§os
on ato
Ġrepres enta
E nt
Ġsat is
Ġat rÃ¡s
Ġtrabal hos
Ã©d ito
Ġapres entar
Ġaplic aÃ§Ã£o
is b
Ġc ima
enc ia
enh am
s em
ĠDire ito
Ġse is
Ġnenh uma
Ġf l
Ġconv ers
Ã³ t
Ġop Ã§Ãµes
Ġev entos
ĠR ob
Ġpe Ã§as
dad es
r ÃŃc
ĠIn f
ĠTra ns
Ġa ut
Ġofere c
Ġexcel ente
Ġim edia
ĠD A
orre r
Ġform as
ĠB ra
Ġqu ero
gu es
Ġcon se
Ġente nder
Ġco res
Ġrespons abilidade
Ġt he
Ġanim ais
Ġm em
ei r
graf ia
lus Ã£o
ĠC ultura
nd ia
ĠT er
Ġtra ta
Ġrec up
ĠPol ÃŃcia
Ġab ril
re l
u ito
ĠG eral
Ġpes o
D O
Ġ q
ve ndo
Ġdis pos
Ġv iver
ĠE nc
Ġg ar
IC A
ĠT he
Ġdef esa
or ias
om a
Ġf est
Ġmed ic
Ġparcer ia
ĠIn st
ĠR o
ĠS t
Ġ6 0
Ġl ic
Ġc ursos
et as
Ġparticip ar
Ġun s
ĠD ec
ĠP e
Ġint erv
Ġap esar
ĠPÃºbl ico
Ġaf irma
Ġat ra
i adas
Ġmara v
Ġgarant ir
Ġt ab
Ġv enc
Ġindiv id
Ġest avam
Ġh ttp
Ġperd er
ac e
Ġc ant
Ġbrasil eiros
f f
Segu ndo
Ġap ont
Ġim pos
pec ial
Ã©r cio
Ġs elec
ios a
Ãºst ria
Ġcol abora
Ġt ipos
Ġraz Ã£o
ar da
ele Ã§Ã£o
ĠtÃ©cn ica
ora Ã§Ã£o
aliz ada
l Ã¡
Ġdes f
vel mente
Ġob t
ĠDes envol
Ġd or
Ġinteres sa
¿ ½
ĠnegÃ³ cio
Ġtot almente
ĠH Ã¡
ï ¿½
el h
fic iÃªncia
Ġ200 9
h t
ĠPed ro
Ġfal a
i ntes
Ġde lic
d ia
Ġintern acional
Ġter Ã§a
Ġcateg oria
Ġcr ist
Ġl a
Ġcomp ut
Ġf emin
Ġle va
al l
ol esc
Ġ ult
Ġc ic
am es
nde re
Ġempre g
Ġa gu
S O
it ada
Ġsur g
Ġd icas
Ġpequ eno
Ġquest Ãµes
ĠT ur
Ġdim inu
Ġcom em
Ġpos iÃ§Ã£o
Ġev itar
ara n
Ġam igo
Ġcomp ort
iqu ei
b io
Ġgru pos
Ġmud anÃ§a
Ã ĵ
E T
Ġmost rar
Ġjur ÃŃd
Ġord em
Ġin ov
Ãºbl ica
Ġt entar
Ġaval iaÃ§Ã£o
ĠF er
isb oa
Ġfu ndo
ĠmÃ¡ qu
ific ados
ĠS anto
Ġf amos
Ġacontec eu
ĠF re
Ġe duc
Ġe ta
u nt
Ġentre ga
Ġfu i
Ġsub stitu
Ġ[ âĢ¦]
ĠS P
Ġcons ult
Ġf lo
Ġfundament al
Ġemb ora
Ġsol uÃ§Ã£o
Ġdifere nÃ§a
al a
Ġdia nte
en ce
ĠnegÃ³ cios
ĠB r
Ġinter ior
ab o
log ia
Ġdispon ÃŃvel
Ġcel ular
Ġdes ses
Ġmot or
emb ros
om os
Ġvol tar
era r
Ġan unc
Ġb anh
ĠF und
Ġes for
p p
? ?
Ġacontec er
Ġca f
Ġl ink
Ġexist em
P R
Ġsent ir
Ġ =
est es
w n
Ġpalav ra
Ġval e
ĠEs sa
ĠE v
eb ook
Ġor i
u ndo
Ġw eb
ri ga
Ġaqu ela
ĠC an
Ġvis to
Ġleg al
Ġa ma
2 5
nd as
l oc
Ġv ÃŃt
Ġdo enÃ§a
ig re
c ho
Ġtorn ar
Ġcomple ta
ĠB ras
Ġequip amentos
Ġam eric
Ġcont ar
en Ã§as
l he
ĠEs se
ĠB o
Ġfec h
Ġdeix a
Ġman utenÃ§Ã£o
ĠDe p
Ġneg oc
Ġre qu
it antes
Ġide al
Ġ2 9
Ġass um
ram os
ro duÃ§Ã£o
Ġapres entaÃ§Ã£o
. ;
ĠS Ã³
Ġtem pos
Ġab ord
Ġel Ã©t
Ġc adas
. -
i nto
ĠA f
ent as
b e
Ġv aria
Ġn orte
Ġsec ret
Ġcontr Ã¡rio
ĠU S
ĠFranc isco
Ã£ s
Ġvag as
Ġestud os
Ġper de
pe onato
Ġescol her
ro p
Ġigu al
Ġprim eiros
Ġdire Ã§Ã£o
Ã¡ r
ĠE ns
it ivos
Ġco orden
Ġmater iais
Ġme do
ap a
Ġalc anÃ§
ĠP A
Ġutiliz aÃ§Ã£o
Ġa da
Ġh id
Al Ã©m
Ġalt ern
Ġf ix
Ġtorn a
Ġconsum o
ĠT ecn
Ġes co
Ġol har
ĠtÃ©cn ico
ant il
Ġg osta
ro nt
Ġreg ul
c ha
Ġnas c
ĠEsc ola
G ra
Ġba irro
ĠA gora
ĠS et
ag o
ĠI I
Ġpesqu is
Ġse para
Ġusu Ã¡rios
Ġanal is
i po
Ġcas amento
ard im
ĠGov erno
Ġprofesso res
ĠCam p
Ġpag ar
Ġda ndo
Ġsist emas
Ġpra z
Ġinc r
ĠP RO
ĠsÃ©c ulo
eg o
et ros
Ġescol h
Ġcust o
iam ento
Ġquer ia
T U
z es
C A
Ġexpl ic
Ġm Ã©to
Ġnov amente
Ġorig em
ĠL uc
2 2
ĠT ambÃ©m
Ã³ st
Ġnecess idades
Ġcompart ilh
Ġcel eb
v ar
ĠO u
ĠN ot
ĠC ivil
Ġenfre nt
it ou
le ta
Ġob ter
st o
Ġtrans porte
Ġpou cos
Ġac ad
Ġprote Ã§Ã£o
Ġconhec ido
an s
Ġfil mes
est ra
Ġcontra to
ĠpÃºbl icos
Ġtal vez
Ġdesemp enho
Ġb at
ĠmÃ©d ico
U S
Ġpor t
Ġpequ ena
Ġpos so
Ġdetal hes
ĠL isboa
Ġal imentos
J Ã¡
ĠT Ã©cn
Ġleg isl
u g
od a
Ġru a
ram ente
Ġqu art
Ġe feitos
Ġg ere
Ġl idera
t il
it ais
Ġmud ar
Ġre ferÃªncia
ĠP esso
ru po
Ġconc lu
ÃŃ r
ĠN orte
Ġsegu ida
Ġinclu indo
Ġest as
Ġl at
log o
ic ro
es e
Ġpla ta
ag e
2 4
ĠS ou
ĠB an
I O
Ġna qu
Ġmud anÃ§as
ĠRep Ãºblica
il ar
à ¸
ĠPart icip
Ġ 01
Ġj ulg
ĠIntern acional
o ut
Ġcham ado
ĠJ u
Ġofere cer
Ġm inhas
ĠT r
ed a
Ġrecom end
Ġhum ano
Ġle itura
A o
Ġap l
e a
ĠmÃ¡x imo
ĠT odos
ĠF in
et es
Ġconc e
Ġdispon ÃŃveis
Ġfe vereiro
Ġcand idato
Ġinst rum
Ã¡l ia
Ġcar reira
Ġp ec
or me
Ġ igre
Ġm embros
Ġ200 8
Ġcaracter ÃŃsticas
Ġminist ro
z ul
Ġinic ial
Ġcontinu ar
Ġn Ã£este
ĠBras ÃŃlia
Ġres pec
Ġcab elo
ĠAssoc iaÃ§Ã£o
Ġcomple to
Ġres erv
Ġganh ar
ar c
Ġdire tamente
Ġun idade
Ġper s
Ġbus c
ura l
es as
Ġv os
Ġv c
N os
Ġre le
Ġtem pera
Ġv Ãª
Ġinter pre
âĢ ĵ
l y
Ġal tura
Ġele trÃ´n
ĠC ert
Ġlu ta
Ġm ec
id ez
Ġdisc ut
es es
at or
Ġper fe
ĠPor tugu
Ġcam inh
Ġins pira
Ġs int
Ġvis Ã£o
nt em
Ġ3 1
i er
Ġpres entes
Ġl av
Ġe ndere
ĠrÃ¡p ido
n Ã£o
pres a
it Ã¡rio
6 0
it y
Ġliber dade
ĠDesenvol vimento
Ġt ri
Ġpas se
ÃŃ qu
Ġmod elos
ĠmÃ©d io
enc iais
ĠEns ino
ĠI ta
Ġmed idas
Ġbo as
Ġre mo
olÃ³g ico
in Ã¡rio
Ġpor tanto
Ġinstitu iÃ§Ãµes
Ġvol t
itu de
Ġl ou
Ġescol ar
Ġg al
Ġsust ent
res po
ĠO ri
Ġdig ital
Ġpre feito
Ġmelho rar
Ã¡ dio
Ġf lu
ĠG estÃ£o
Ġaum entar
Ġpart es
og le
Ġp Ã©
ĠH um
Ġlo jas
Ġconse qu
ĠfÃŃs ica
ĠÃ¡ l
Ġ y
it iva
z inho
Ġcont em
Ġexerc ÃŃcio
Ġb ot
ĠdÃº vida
Ġde ma
Ġcheg a
tu ras
ĠBrasil eira
Ġf ranc
Ġass in
Ġv ant
iz ados
ĠC ur
Ġn ut
Ġp et
Ġps ic
ĠBrasil eiro
Ġpra ia
ĠMu ito
ul dades
Ġpart ida
il e
ĠA N
rat iva
aria mente
EN TO
C IA
Ġsu g
Ġad olesc
Ġescol as
Ġapre nder
ĠEST ES
Ġdem oc
Ġac us
Ġim pre
Ġoc as
Ġdocum ento
Ã©t ico
ĠmÃŃn imo
Ã³d io
Ġconc ent
Ġtempo rada
d iÃ§Ã£o
t h
ĠP S
Ġhot el
Ġg lob
Ġb io
Ġprogram as
Ġpre m
Ġor g
Ġcont as
D B
ir Ã¡
O ut
Ġop eraÃ§Ã£o
Â °
Ġvend as
Ġsom os
t ware
ĠD om
ĠâĢ ¦
Ġconsegu e
Ġre ais
Ġse de
Ġcons id
ĠSu a
do ra
Ġex ib
por ta
A P
Ġf igu
ĠQu em
Ġsegu intes
ĠE les
Ġexpl ica
Ġpartic ular
er ia
r y
oc ar
Ġ19 7
Ġadv og
Ġdispon ibiliz
Ġmot ivo
us sÃ£o
ĠD an
Ġhum anos
Ġho n
Ġus ado
ul ado
r ida
Ġbenef ÃŃcios
Ġcontro l
ĠA ra
Ġs orte
Ġdiv id
Ġpop ular
c r
Ġcr ime
Ġsimples mente
ĠAdminist raÃ§Ã£o
Ġopin iÃ£o
Ġelem entos
Ġtam anho
p la
Ġutiliz ar
g io
ĠG e
Ġcent ral
Ġno ta
Ġb anda
Ġmet ros
om b
Ġtax a
Ġre duÃ§Ã£o
Ã¡t is
ĠUn iÃ£o
Ġti rar
Ġel abora
olog ias
ĠpolÃŃt icas
ec ut
ĠI t
ĠSist ema
Ġt are
ĠP at
ga res
Ġmund ial
Ġur b
Ġpoder Ã£o
Ġinteressa nte
ĠAm Ã©rica
ĠL eg
Ġ *
Ġreceb eu
Ġsitu aÃ§Ãµes
Ġa to
t Ã³rio
ra is
Ġes quer
Ġat ribu
Ġcar go
Ġfo nte
Ġmes mos
ri que
Ġver m
Ġfil ha
Ġdeix ou
Ġcart Ã£o
a Ã§os
Ġ8 0
ĠÃ¡ r
Ġmat Ã©ria
Ġqu il
Ġb ra
r Ã³
oc idade
Ġve io
n sa
Ġar m
Ġc e
Ġf ederal
ĠEuro pa
Ġcient ÃŃf
ĠL ula
Ġdes sas
og raf
ĠPre feitura
Ġtro ca
Ġing lÃªs
Ġorig inal
Ġb ac
ĠRod ri
Ġf aÃ§a
Ġlon ge
Ġn am
Ġhou ve
Ġv ivo
du st
ĠlanÃ§ amento
Ġbene fic
Ġest iver
ĠtÃ©cn icas
ÃŃn gua
ĠP rim
nc io
Ġmens agem
ito res
Ġint elig
Ġcor respo
ĠIn form
ĠOl iv
Ġpre c
Ġreun iÃ£o
v as
Ġ >
ĠdÃº vidas
Ġcr ise
Ġcomp l
ĠI l
ĠD ist
Ġreg ras
Ġsol uÃ§Ãµes
Ãªm io
ÃŃ dos
Ġac h
n er
Ġfuncion Ã¡rios
ĠveÃŃc ulos
ĠE con
Ġestud antes
ĠI nc
Ġs il
Ġt rib
Ġcl Ã¡ss
Ġque re
Ġtran qu
is to
Ġate nder
Ġcontinu a
Ġapare l
Ġdisc ipl
Ġesc rito
Ġp int
Ġmas sa
__ __
Ġun idades
fic ial
Ġusu Ã¡rio
gu as
ĠCon stitu
4 0
ĠM us
h Ã£o
pl em
ĠCom issÃ£o
Ġdist Ã¢ncia
Ġre for
inh am
Ġn ar
ĠC ruz
ri u
Ġcr Ã©dito
Ġde las
ia Ã§Ãµes
fer ir
ĠT udo
ĠB e
Ġext rem
Ġacab a
o nte
Ġcoment Ã¡rios
ĠC osta
Ġac resc
ĠG rupo
Ġb and
ÃŃl ias
Ġna ve
ĠpolÃŃt ico
Ġoc orr
ĠCo pa
ĠDe f
Ġbel eza
Ġna o
D A
Ġentre vista
ĠT erra
Ġcaf Ã©
or da
Ġp ud
Ġf ru
on g
Ġdiv ert
2 3
Ġb lo
Ġcl ara
ĠC ria
Ġj ud
Ã© re
olÃ³g ica
ĠR a
Ġquis er
Ã© rios
Ġpot encial
i bl
Ġdesenvol ver
Ġtem as
Ġmar keting
ĠMar c
j ud
it ados
ac o
ĠH oje
Ġsegu ro
Ġfe itas
Ġse g
Ġlu gares
ÃŃ amos
Ġmanif esta
Ġbas ta
I P
Ġl et
Â £
ca o
Ġar re
ĠPa ÃŃs
ĠAp Ã³s
Ġaqu ilo
Ġmod a
Ġt enham
A B
Ġel im
. ,
ro l
es mo
as o
ĠR os
Ġdever ia
Ġz ona
Ġsu je
Ġk m
Ġcas as
Ġle ve
x to
Ġex at
Ġg eraÃ§Ã£o
erv aÃ§Ã£o
Ġac ha
Ã© ia
Ġtrabalh adores
ix o
Ġc Ã¢
v est
Ġoport un
ra gem
Ġart es
Ġacab ou
Ġrela Ã§Ãµes
in Ã¡ria
Ġcl ube
Ġpe Ã§a
Ġant ec
Ġconsegu iu
ÃŃd er
Ã¢ ncias
q Ã¼
m issÃ£o
ĠE UA
Ġex ce
ĠM el
2 8
me te
ĠÃŃ nd
Ġin dust
Ġban co
Ġempre go
ĠC iÃªncias
Ġpropri edade
Ġespec iais
Ġa ulas
Ġportugu Ãªs
Ġeste ja
ĠE M
ĠG lob
ie ta
Ġest iv
Ġem oc
Ġex pec
Ġde pe
Ġs eleÃ§Ã£o
Ġg anho
ĠLu iz
ĠPres idente
Ġm ente
Ġint ens
Ġconc urso
Ã¡t icos
Ġconc eito
a ta
Ġadminist raÃ§Ã£o
ĠpÃºbl icas
Ġmist ura
ÃŃdu os
Ġ ;
Ġnorm al
ÃŃ bl
Ġav anÃ§
Ġpac ientes
Ġl ingu
Ġs ul
Ġtorn ou
ant os
Ġjog adores
Ġab ertura
Ġ Ð
Ġpadr Ã£o
Ġv oc
Ġd ro
cri Ã§Ãµes
Ġg o
Ġtelef one
ĠD el
Ġcer ta
ri Ã§Ã£o
Ġt ive
Ġesc reve
Ġf Ã³r
em ia
Ġviol Ãªncia
ĠM art
ĠIn g
C ont
Ġinvest imento
ÃŃ b
Ġvit Ã³ria
Ġ7 0
ĠV ila
ĠveÃŃc ulo
i rar
Ġexper im
Ġperson agens
Est a
ĠC ast
ere mos
Ġa ula
Ã§ amento
ib a
Ġconf igu
Ġregist ro
id entes
Ġatu aÃ§Ã£o
Ġc ivil
ĠM ag
eg a
Ġpequ enos
or ge
Ġcond en
itu al
us Ã£o
ĠM und
Ġpre enc
ol is
ĠCon gresso
Ġc enÃ¡rio
Ġresta ura
Ġv ide
ĠÃ į
Ġmar cas
ud io
Ġbr inc
Ġdeput ado
D I
ab e
ĠAt Ã©
Ġvo z
Ġouv ir
ndo m
Ġsatis f
ed es
Ġ )
Ġprecis am
Ġc ac
em Ã¡tica
ĠM ont
ĠM inas
ĠB l
Ġfam ÃŃlias
Ã³g ica
Ġparticip antes
As s
Ġinicia tiva
ent ador
Ġab rir
Ġc ruz
ed ades
2 9
Ġme ta
2 6
Ġ9 0
Ġprogram aÃ§Ã£o
Ġm orre
at ion
Ġterc eiro
k i
Ġ200 7
ĠV ol
Ġro d
Ġde t
De pois
Ġsign ific
Ġf ar
% .
c ulo
ĠOliv eira
Ġb ilhÃµes
al o
Ġs ites
ĠD r
ĠMu ndo
ĠFac ebook
Ġlu c
ĠEn genharia
Ġre nda
Ġper da
Ġcas al
Ġexpec ta
ĠR el
ĠN atal
Ġperson agem
ĠS an
Ġn ÃŃveis
ĠPa ul
il ho
Ġres sal
Ġesp ir
Ġabs ol
Ġpr Ã¡ticas
Ġent ra
le tas
Ġposs am
Ġj eito
Ġlev ant
Ġse qu
b er
rat ivo
a il
Ġpossu em
ĠC orre
ut ar
ĠP as
Ġpart ido
2 7
Ġcandid atos
ri al
201 7
Ġp isc
Ã³l ica
ĠGo ogle
Ġexist Ãªncia
Ġvel ocidade
ibl io
Ġdo enÃ§as
ograf ia
Ġtraz er
iver so
Ġforn ec
Ġcu idado
Ġequ il
ÃŃl io
Ġpraz er
ol h
Ã¡st ico
u ar
Ġsur pre
al h
Ġsus pe
b ilidade
Ġcham ada
Ġno mes
Ġesc rever
Ġs or
Ã¢n ica
in ada
por to
Ġt ua
pl ic
e nde
v os
Ġcom er
Ġind Ãºstria
Ġempre end
2 1
ĠO n
t ica
ĠVal e
Ġc aixa
Ġpare c
Ġinc ent
ĠP esqu
Ã¢ nt
Ġsex ual
ĠEs pecial
Ġb aixa
ado ras
Ġc ai
on as
Ġdese ja
Ġalim entaÃ§Ã£o
Ġt iver
ĠFern ando
Ġest arÃ¡
Ã§ am
Ġl og
Ġutiliz ado
Ġc anto
Ġb ons
Ġinstitu iÃ§Ã£o
s ia
Ġsan gue
ĠO p
Ã³s ito
Ġrece ita
Ġate nd
ĠBa hia
ĠC P
ĠI nte
ĠPod e
Ġdest ino
Ġtradic ional
ĠC N
Ġid eias
E G
0 8
Ġpro m
Ġmes a
Ġse te
est rutura
A c
nd os
ab il
Ġprod ut
b ora
Ġimp ed
Ġd ado
ĠS am
Ġpres sÃ£o
iv el
al e
Ġab ando
0 9
Ġep is
Ġl inda
Ġreg ular
ĠN Âº
on ia
isc os
Ġcompanh ia
ĠvÃŃde os
ĠIntern et
Ġreceb e
ic ina
Ġb ater
Ġquest ion
eix e
ĠP T
ĠR ua
Ġexat amente
A t
co nc
Ã¡c io
ĠÂ »
j ec
0 5
D E
Ġre d
ĠA maz
Ġdesta que
Ġestran g
ri or
Ġh er
Ġess encial
Ġesc la
t ivos
ĠVe ja
ĠEst adual
ĠC ha
od e
in i
Ġcomport amento
or g
Ã Ĭ
Ġinstal aÃ§Ã£o
ĠÃ¢ mb
it et
ei ramente
ve u
Ġo ntem
ĠC e
Ġrec urso
Ġt ela
ĠSuper ior
Ġf oco
Ġpromo ver
Ġhom en
Ġc ult
Ġcomple tamente
g rÃ¡f
Ġendere Ã§o
Ġhum ana
ĠAn g
Ãº n
S C
u ncia
Ġexec uÃ§Ã£o
Ġimpl em
Ġsho w
ĠF e
Ġcomp os
Ġs el
ĠB as
Ġquart os
0 7
ilia res
Ġvol ume
Ġart igos
ĠT al
so u
T ra
t ion
E le
Ġar gum
u nda
Ġle ite
ĠespÃ©c ie
Ġj orn
ĠMund ial
Ġp Ã³s
Ġex posiÃ§Ã£o
Ġenvol v
ĠCr ist
ĠPro jeto
j ust
Ġhab il
us e
Ġdest ru
Ġcultura l
Ġp az
Ġenc am
Ġdific uldades
re ce
U R
ĠC OM
0 6
Ġm icro
ec a
Ġson ho
ĠSe u
Ġfuncion a
ĠÃ ´
H Ã¡
Ġrec lam
Ġm issÃ£o
Ġre vista
Ġsu ficiente
Ġil um
V A
Ġcomput ador
ĠA B
Ġfo go
Ġdese j
ĠT om
ÃŃst ico
h n
ĠEsc ol
ĠN este
Ġrep et
Ã§ ado
Ġconfor to
Ġfun Ã§Ãµes
E n
est rado
tu almente
Ġc Ã¢m
Ġb ens
ĠM erc
Ġex press
Ġen orme
Ġplata forma
Ġg e
ĠM unicÃŃp
v en
ifica Ã§Ãµes
Ġcl asse
f ere
Ġmarav ilh
Ġloc alizado
Ġesp aÃ§os
ĠH or
eliz mente
Ġsu p
Ġpesso ais
Ġpublic aÃ§Ã£o
ĠPÃºbl ica
Ġfic am
ĠR ib
ru pÃ§Ã£o
Ġsus p
Ġhor Ã¡rio
ĠmunicÃŃp ios
M S
Ġb ara
aix on
ÃŃd ia
ĠPor Ã©m
ĠP os
ĠprÃ³x imos
% ,
Ġcust os
Ġcond uz
Ġv az
graf o
Ġpr isÃ£o
Ġdifere nc
Ġigre ja
Ġf el
Ġand ar
ĠParticip aÃ§Ã£o
Ã¢ ns
ĠF az
ww w
ĠR oc
ÃŃ nc
ut as
ĠH osp
ib us
Ġs t
ig as
Ġeta pa
it Ã¡ria
Ġel eiÃ§Ãµes
Ġfuncion amento
ĠP ont
ica ndo
Ġtorn o
ĠG r
Ġgost aria
Ġw ww
Ġdese jo
Ġv ere
Ġconf ianÃ§a
Ar t
u almente
Ġad icion
Ġm ent
Ġaleg ria
ĠSegu ranÃ§a
in ados
Ġg anha
Ġselec ion
t ividade
b it
Ġcar ta
Ġsub st
0 3
Ġque rem
Ġban ca
I T
Ġamb os
Ġd in
um b
. [
Ġsen hor
Ġv ice
nc er
Ġ ðŁ
iss Ãµes
l ig
Ġque da
Ġsa ÃŃda
ĠServi Ã§os
Ġconsidera do
Ġver de
H O
le ia
ar ial
P A
C E
Ġdes per
Ġcu rios
Ġen g
Ġjog ar
it amente
ĠâĢ ¢
Ġdia gn
enho ra
Ġhist Ã³rias
ire m
Ġg Ãªn
Ġped ir
Ġren ov
unic aÃ§Ã£o
n as
iliz aÃ§Ã£o
Ġv eg
ĠN eg
ent ado
ĠU F
ĠM od
Ġar maz
Ġprov as
ĠS T
ent ando
4 5
em pre
Ġcons ol
end as
Ġcl ique
Ġpol ÃŃcia
ist ir
t i
Ã¢ns ito
st ru
Ġalte raÃ§Ãµes
-------- --------
Ġimpre nsa
Ġl ÃŃder
an ia
Ġsem anas
Ġsegu e
o que
Ġjog ador
i Ã¡ria
Ġv iu
era tura
Ġ3 5
Ġro ub
Ġatu almente
Ġgu erra
Ġav ent
P E
g ada
in ais
Ġquad ro
Ġcomp ras
Ġreg ime
Ġpequ enas
Ġsa f
Ġforma to
Ġhosp ital
S S
Ap Ã³s
Ġins er
Ġdep end
un o
Ġlim p
er Ã¡
ul s
Ġjust iÃ§a
Ġferram enta
M ais
ha res
ĠQu al
Ġfiz eram
h at
Ġap artamento
Ġcr ÃŃt
Ġp Ã©s
ÃŃt ulos
Â ²
ĠÃ¢mb ito
ĠG erais
r ico
Ġt inham
Ġm ad
m ina
Ġaf et
ul gar
son aro
c ulos
Ġexper iÃªncias
Ġo ito
Ġt ira
9 9
Ġloc alizaÃ§Ã£o
ĠA qu
ra cia
Ã¢n ico
Ġprete nde
Ġ rio
es Ã£o
at es
D U
ĠA br
Ġbranc o
ĠD iv
Ġmod ern
ĠM on
r g
ĠV i
Ġmem Ã³ria
Ġesc rit
Ġa zul
ĠI ns
Ġaspec tos
Ġper feito
p s
r s
Ġfor tal
ÃŃ das
Ġsai ba
Ġtiv eram
Ġferram entas
Ġret ira
Ġobjet ivos
Ġaj ust
ĠEsp ÃŃrito
Ġrelacion amento
ĠP en
Ġb reve
ito ra
Ġcan al
Ġamb iental
ĠfÃ© rias
Ġru as
ĠÃ´ n
Ġinf ra
am eric
Ġnatura is
ĠBan co
i i
as h
Ġimpos s
ĠL oc
Ġlemb rar
ho ne
Ġve ja
Ġsu porte
Ġdistribu iÃ§Ã£o
RA N
Ġ ?
ora do
ĠprÃ³p rios
ĠC Ã³digo
Ġda n
Ġt it
ĠA L
gu ns
Ġcond iÃ§Ã£o
os co
0 4
Ġdes enh
Ġperf il
AD E
Ġcoment Ã¡rio
ĠB el
enta res
ĠE du
Ġgr Ã¡tis
Ġada p
Ġit ens
Ġob jeto
Ġfal ando
Ġpromo Ã§Ã£o
u i
ĠCas o
Ġsab ia
t im
Ġab ra
C o
ĠnÃºm eros
Ġacomp anha
ĠN Ã³s
Ġter mo
Ġp rior
Ġconte xto
ilh Ã£o
c ont
ĠS ho
era nte
Ġconhec ida
Ġg l
pres idente
ĠNe w
ĠCent ral
Ã© st
Ġpass ando
u el
Ġ0 2
ĠF orm
Ġs inal
Ġalun o
ĠA uto
P re
Ġan Ãº
ĠD em
ĠM al
Ġpass agem
b re
) :
Ġdeix ando
Ġb ola
Ġp ior
ĠG al
Ġv iz
ĠM ac
ĠpÃ¡g inas
Ġas segu
ĠrÃ¡p ida
an al
Ã¡c ia
Ã³ m
Gra duaÃ§Ã£o
ĠHist Ã³ria
201 5
Ġoportun idades
Ġcompet iÃ§Ã£o
Ġvag a
Ġextrem amente
ĠS h
ra g
Ġm eios
Ġtr Ã¡s
Ġcu idados
ĠReg ional
Ġintern acionais
ir os
b ro
Ġap aixon
Ġcar ros
Ġc Ã³digo
Ġam ar
Ġco lo
Ġcom igo
Ġpergu nta
Ġs essÃ£o
Ġconsc iÃªncia
Ġdeco raÃ§Ã£o
u va
Ġb oca
Ġapare ce
Ġpro ib
Ġab erto
Ġhum an
Ã© rias
ĠpolÃŃt icos
ES T
Ġcri ado
com p
Ġimp acto
e p
Ġcont ou
aliz ados
Ġpl anos
ĠO ficial
I B
ĠD oc
ĠW eb
ac idade
ura ment
t udo
Ġf ran
Ġpre fer
y l
Ġpesqu isas
Ġsaud Ã¡vel
Ġre forma
es to
ĠP R
of ia
Ġ200 6
era p
Ġme ia
Ã´n ica
Ġcin ema
d em
el hos
Ġad m
Ġa us
Ġmar ido
Ġb anho
ĠTecn ologia
te is
ĠRob erto
Ġreg iÃµes
ha ndo
Ġdis posiÃ§Ã£o
Ġconf l
Ġp an
Ġc ad
Ã© n
Ġv Ã¡l
Ġpac iente
ro duz
ac ia
Ġl indo
Ġref lex
Ġconc ed
c ular
ĠNov embro
Ġre b
ist em
Ġdeix e
ĠC idade
Ġlev ou
ĠB en
Ġamb ientes
Ġserv idores
ĠprincÃŃp io
Ġcompl em
od as
A T
Ġrap idamente
ic k
ĠD i
g ent
Ġl in
Ġal ma
Ãº c
ĠNos sa
ru p
O lÃ¡
Ġres id
Ġad qu
ĠBol sonaro
re no
ĠFac uldade
Ġrespo nder
Ġte u
ĠAbr il
Ġrealiz adas
Ġum as
ĠB al
Ġex pressÃ£o
Ġf iquei
Ġ19 6
Ġroup as
anh as
x e
Ġm ob
ĠA lex
ĠJ a
ĠestratÃ©g ia
Ġvis ual
are i
H oje
la y
emb leia
Ã© ns
ĠÃ³ leo
Ġv en
to d
at Ã³ria
Ġtempera tura
ĠÃ³t ima
Ġcons igo
Ġprat icamente
ĠÃ³rg Ã£os
ĠInt er
ĠOut ubro
Ġdesaf io
ĠEnc ont
ro g
Ġcam pe
Ġdific uldade
Ġl ÃŃngua
est ar
Ġpre jud
ito ral
Ġpre vis
Ġl inhas
va nte
ios os
Ġplane jamento
Ġlegisl aÃ§Ã£o
ĠmÃ¡qu ina
Ġp ad
Ġdest es
ĠA na
Ġa Ã§
Ġdes ap
Ġc ura
om es
ĠMa io
Ġcom ida
ult os
Ġer ro
Ġins criÃ§Ã£o
Ġinvestig aÃ§Ã£o
Ġest at
Ã ķ
Ent re
ĠP ere
um es
ra to
Ġproced imento
ĠH ot
anc es
is se
are c
Ġnorm as
ita Ã§Ãµes
Ġfato res
ĠF ranÃ§a
ĠP C
F oi
Ġcl ÃŃn
Ġju ntos
ĠAl b
om as
era do
Ġesquer da
ud es
9 0
Ġf a
Ġnot ÃŃcias
Ġem bal
urg ia
Ġbus car
ĠA leg
Ġrespons Ã¡veis
Ġproced imentos
Ġcomprom isso
k a
ĠhistÃ³r ico
iblio tec
Ġsem elha
Ġtra tar
ĠmÃºs icas
Ġou vi
Ġan s
Ġconst ante
Ã¢m ica
Ġp un
Ġencam inh
Ġal mo
Es se
Ġfin s
Ġres istÃªncia
ĠH en
re ia
ĠÃ¡l b
ĠG ab
Ġverdad eiro
Ġc anc
Ġconqu ist
I F
Ġopera Ã§Ãµes
is mos
201 6
n Ã¡
ĠH om
ĠS ab
Ġev ent
Ġter Ã£o
Ġgeral mente
v ent
ÃŃn a
O b
Ġmet ade
ĠdÃ©c ada
Ġprof und
Ġros to
h ada
Ġeu ro
ĠF ut
Ġacred ita
EN T
r ina
ĠM ul
ĠL at
Ġe voluÃ§Ã£o
Ġt u
la nd
Ġest adual
Ġin fer
Ġjur os
Ġacompanh ar
pp ing
Ġfam iliar
ĠOr gan
ĠvÃŃt ima
ĠHosp ital
per o
c l
Ġqu ÃŃm
Ġresol ver
Ġadv ers
v ador
Ġtex tos
Ġsof tware
ed eraÃ§Ã£o
Ġconver sa
Ġgarant ia
Ġp ubl
ĠmÃ©to do
RI O
Ġlon ga
Ġaproxim adamente
Ã¢ne a
Ġfunc ional
ĠÃ³rg Ã£o
gu ei
Ã³p olis
Ġdescob rir
Ġmot iv
pl os
Ġecon om
ĠÃ´n ibus
ist ro
Ġto que
Ġincr ÃŃvel
ar ina
Ã¡ f
if e
ĠSet embro
ndom ÃŃnio
ĠPar que
Ġimpl ant
Ġof erta
Ġprov oc
icar do
Ġg rÃ¡f
ia ndo
ĠConstitu iÃ§Ã£o
Ġm unicipal
Ġperceb er
Ġm enc
Ġrequ is
Ġreduz ir
Ġsens aÃ§Ã£o
Ġju iz
m art
ĠCom unicaÃ§Ã£o
Ġret orn
Ġarmaz en
Ġder ro
0 2
Ġd ÃŃ
Ġent idade
Ã¢n ia
a ugu
Ð ¾
Ġf Ã¡
Ġfe itos
Ġem o
Ġpublic ado
Ġf ront
ĠS ub
Ġter r
le y
Ġgovern ador
Ġde mo
Ġun iverso
ĠL ib
ol d
ĠReg iÃ£o
n g
Ġaplic ativo
Ġ4 5
Ġbenef ÃŃcio
3 1
ĠS ai
Ġins criÃ§Ãµes
Ġinf antil
Ġdisc ussÃ£o
Ġfab ric
Ġforn ece
Ġv ac
Ġest ados
Ãªn io
Ġm adeira
Ġcab elos
ud os
Ġv ive
Ġg ord
Ġacad Ãªm
Ġen vio
C O
Ġan ivers
Ġinvest imentos
Ã§ ada
Ġdis s
Ġfal ou
Ġdescont o
ĠA qui
al idades
ĠR ede
ĠB at
Ġdire to
f ica
Ġpens amento
RA S
Ġsol o
ĠtÃ©cn icos
Ġrelat Ã³rio
ĠAl em
ĠD ez
Ġv ira
Ġpropri et
ĠF am
Ġcom Ã©rcio
Ġt este
ĠE qu
Ã©d ia
en Ã§Ãµes
ta Ã§Ãµes
Ġil ust
rat ivos
Ã¢ ndia
Ġgra u
Ġenvi ar
ĠS E
Ġcomp on
ĠFil ho
M G
x a
d om
Ġac um
os as
Ġpers pec
t am
Ġsobre v
Ġv id
Ġnorm almente
Ġis ol
Ġb ic
Ġcar ga
un ha
Ġdecis Ãµes
Ġbanh eiro
du cao
Ġim pres
ĠÃ³t imo
Ġde leg
Ġcomb ate
Ãķ ES
Ġirm Ã£o
ĠeconÃ´m ica
R es
Ġim Ã³vel
ĠÃº til
Ġde fe
w it
Ġpres o
Ġsab or
b ras
Ġtr iste
ĠCon v
A m
ĠÃ ĵ
Ġinst ru
ĠN ovo
Ġv otos
ve ja
Ġap os
ĠAr qu
Ġident idade
ĠD ig
Ġver Ã£o
Ġconhec e
Ġlingu agem
ar g
Ġnas ceu
Ġeste ve
on es
Ġbr in
Ġc Ã¡l
Ġl ÃŃqu
ĠR ed
ĠÃ Ģ
Ġprocura r
or po
Ġdiz endo
n es
Ð °
ĠFund aÃ§Ã£o
ens Ãµes
ot as
us s
Ġr iscos
ĠC el
Ġv as
Ġc red
ĠServi Ã§o
Ġcam a
Ġter ritÃ³rio
ĠPor que
ĠC ab
ĠP s
a res
ĠL ima
Ġpara r
Ġconsum idor
ĠJ ulho
j ect
he Ã§a
S Ã£o
Ġ ia
ĠCam peonato
ĠM ic
Ġtest em
Ġdivulg aÃ§Ã£o
Ġ200 5
Ġassist ir
ic l
ra el
port es
3 5
ĠU N
Ġrec ente
are mos
ĠPl ano
Ġlimp eza
Ġex ame
I G
ÃŃd io
lo ad
il ma
ĠP M
Ġsab em
Ġanim al
ÃŃss imo
Ġent idades
201 4
Ġmo to
Ġb ei
ran g
Ġou ro
ublic ado
Ġmas cul
Ġcor rida
Ã©g io
Ġex terior
Ġal em
Ġco op
ĠF lor
ĠCh ina
Ġqu ente
pres entaÃ§Ã£o
os ofia
Ġdesaf ios
it adas
ĠN O
aix as
Ġpro l
Ġad qui
Ġcu ja
ĠEdu ardo
Ġtiv esse
ĠF el
ĠEm pre
ĠJ ud
re cer
Ġsub s
Ġespera r
ĠMil itar
urament ada
Ã¡ logo
Ġv ot
S E
Ġnave g
Ã ļ
Ġna cionais
Ġ QU
Ġdura Ã§Ã£o
Ġente nd
ĠConf ira
Ġcl ima
Ġj an
Ġesc rita
ros so
Ġcor te
Ġest uda
Ġterc eira
Ġc Ã¡
Ġcar ne
Ġfam iliares
Ã³r ico
b Ã©ns
Ġtrans mit
Ġus a
ne y
Ġim press
Ġinclu i
Ġsecret Ã¡rio
an Ã§o
Ãª ut
Ġtend Ãªncia
Ġfinanc eira
B A
Ġpode ndo
up la
aix Ã£o
ĠGlob o
ist ente
ĠEx ecut
Ġbanc os
ĠJ ornal
Ġmil hares
i Ã¡rios
n aval
Ġin augu
Ġm am
Ġcu jo
Ġglob al
f as
ĠI r
ĠM esmo
iz agem
ĠcÃ¢ ncer
it iba
Ġdever Ã£o
M O
Ġgu ard
Ġesp ÃŃrito
ion ado
Ġganho u
Ġcal or
Ãº car
ric ultura
ec Ã§Ã£o
Ġest ad
ĠEm pres
Ġaprove itar
3 3
Ġident ificar
u co
ĠN esse
e v
Ġdis co
Ġd ieta
ĠAp esar
Ġfest as
ĠJ ardim
re na
Ġconfor t
it mo
Ġenc er
Ġanter iores
ĠFer reira
ĠG ar
Ġsobre tudo
er ca
Ġass ass
Ġpro postas
ĠPara nÃ¡
Ġrelacion ados
Ġreconhec imento
Ġj o
ĠS o
Ġtecn ologias
Ġcadas t
Ġgara nte
ĠT h
l at
Ġd ign
is iÃ§Ã£o
Ġant igo
Ġarqu ivo
ĠF est
Ġcome Ã§o
ĠE N
ĠR om
ÃŃ zo
ĠR en
Ġart ista
Ġt oc
Ġcole Ã§Ã£o
Ġdire ita
Ã³st ico
ĠM P
8 0
I s
ĠC D
wn load
on al
Ġfo ntes
Ġl abora
Ġconstru ir
ag a
Ġmot ivos
Ġesfor Ã§o
ma gem
Ġv idas
Ġcas t
Ã³g ico
ĠAleg re
Ã¡t er
z as
Ġmens agens
Ġef ica
ĠMunicÃŃp io
ĠPol ÃŃtica
ĠfÃŃs ico
er tos
Ġre quer
Ġintegra l
Ġag entes
Ġfor Ã§as
Ġem ail
Ġ3 6
Ġdetermin ado
ĠDep artamento
Ġac idente
for me
are ce
Ġocorre u
Ġnecess Ã¡ria
t ada
c i
Ġabando n
Ġres erva
Ġint eiro
Ġfor tes
Ġdiz em
Ġrecup eraÃ§Ã£o
Ġc Ã©u
Ġ5 00
Ġhip Ã³
Ġart istas
Ġconv enc
com o
Ġc iÃªncia
ĠMar Ã§o
Ġpen sa
Ã¡st ica
me ras
k ing
id enc
ĠAg Ãªncia
Ġcom and
Ġc ru
Ġn Ã©
ĠJ unho
ĠhÃ¡ b
Ġdema nda
p ol
ĠAc ad
Ġpisc ina
ĠPere ira
Ġcomun s
ĠPod er
Ġf aÃ§o
v amos
Ġap ost
Ġdeb ate
ura Ã§Ã£o
Ġcheg ada
Ġle is
at ar
Ġplane ta
Ġpat rim
en ida
Ġconhec imentos
Ġsal Ã¡rio
ĠprincÃŃp ios
Ġprim eiras
ĠD av
ho u
Ġmora l
ĠI P
el ar
ist os
via mente
Ġmov imentos
Ġigu almente
Ġrec entemente
Ġesp osa
Ġm Ã³veis
Ã¡c ulo
is sa
Ġem erg
Ġtra duz
indo ws
Ġprova velmente
Ġgra Ã§as
ĠlanÃ§ ado
ĠC he
Ġpos ta
Ġpro nto
Ġt erem
Ġfab rica
ĠD estes
Ġam iga
Ã´m etros
Ġ0 3
ĠG omes
Ġf r
ĠC ada
o o
ĠB om
Ġtr Ã¢nsito
Ġest aÃ§Ã£o
val ho
Ġd ipl
Ġfu g
A inda
Ġpara l
ĠP Ã³s
Ġindivid ual
Ġma nte
Ġpal estra
Ġpermit ir
Ġquere r
itet ura
Ð µ
Ġdesenvolv ido
Ġt a
un g
ĠA P
ĠS erra
Ġf en
Ġapresent ado
Ġcham a
ita res
Ġlim ite
Ġret orno
Ġn ess
ian os
Ġl hes
Ġbeb Ãª
Ġt rou
do u
ĠDes de
Ã³n io
Ġtrein amento
Ġcompro v
p ri
Ġem it
3 4
Ġverdad eira
Ġj antar
im entaÃ§Ã£o
ĠR icardo
p h
ĠPro mo
ĠLeg isl
ĠD ou
g r
Ġc aval
t s
Ġmil itar
Ġc ena
Ġin im
ĠG oi
ĠF al
ĠJ orge
Ġer ros
Ġf irm
Ġcomb ust
Ġperfe ita
ĠNot ÃŃcias
ÃŃb rio
Ġden om
ra dor
Qu em
Ġpl ant
Ġinteres ses
Ġre form
ĠB ranc
Ġposs ÃŃveis
Ġpr os
y s
aria m
Ġb u
Ġrepresent antes
Ġa mo
Ġhist or
Ġ0 8
Ġsu pera
ĠM en
Ġutiliz ados
Ġequip es
r b
Es sa
Ġsai u
ĠC u
Ġeleito ral
Ġauto res
ĠPor tal
Ġdec orre
ero porto
Ġresta urante
i um
or ra
Ġnov idades
Ġd upla
Ġach ei
Ġcar Ã¡ter
ĠH o
Ġata que
ĠE ra
Ġg Ã¡s
ĠmÃ©d icos
Ġass istÃªncia
Ġcar d
ĠC E
Ġdro gas
im ar
Ġg er
Ġpod ia
H A
Ġassu ntos
Ġcorrespo nd
ĠAg osto
Ġpriv il
Ġespera nÃ§a
Ġhosp ed
Ġutiliz ada
Ġequip amento
ĠÃ¡lb um
ĠV is
ĠSer Ã¡
Ġtr Ã¡f
al ha
ess em
ĠV ida
Ġnecess Ã¡rios
am ar
ĠC iÃªncia
ĠB io
ĠH ol
Ġt Ã¡
Ġg el
ĠF Ã³r
ĠM or
y a
ĠEuro pe
l im
Ġco leg
Ġch ance
Ġintern a
Ġacab ar
Ġpare cer
ĠH a
Ġfel icidade
Ġcert amente
ĠA no
ta gon
Ġesqu ec
Ġjornal ista
ĠT o
Ġdisp uta
ĠPA RA
ĠCont inu
iz onte
Ġmora dores
ĠPl ane
iv idades
Ġb l
it Ã³rio
M ar
Ġc rio
Ġha ja
ĠDire tor
Ġapres entou
Ġaprov aÃ§Ã£o
ĠTÃ©cn ico
âĢ ¢
Ġint enÃ§Ã£o
ĠBar b
Ġflo rest
Ġt Ã©r
Ġvis itar
Ġaparel ho
Ġtorn ando
Ġpar lam
Ã©t icos
Ġcob ertura
am ais
Ġautom at
Ġres s
ĠF l
ĠC O
ĠD urante
Ġco z
iv ar
Ġent rou
Ġcond icion
p r
ĠCe arÃ¡
Ġm ÃŃdia
ĠSal vador
Ġvir tual
ĠPre v
9 8
R ec
Ġf atos
Ġgu arda
Ġautor izaÃ§Ã£o
Ġfoto graf
st e
ĠY ork
Ġ ital
Ġcomerc iais
t ados
Ġrele v
Ġf oc
ĠOb rig
Ġ ign
ĠOn line
Ġe uros
Ġocas iÃ£o
Ġcic lo
ol o
ĠL ou
ĠJ e
Ġf aixa
ĠC art
Ġfer ro
Ġpol iciais
Ass im
Ġe c
Ġpass ada
C l
Ġtele visÃ£o
Ġinteress ados
Ġsuper f
Ġd Ã³
Ġvia gens
Ġautor idades
ĠD esta
R IA
Ġating ir
Ġgra Ã§a
Ġen x
Ġant iga
Ġest rada
Ġf rio
Ġobjet os
it Ã³rios
ĠPesqu isa
Ġt on
Ġcol or
Ġte oria
om od
Ġce do
ra ma
ĠV ic
Ġag Ãªncia
Ġnot ÃŃcia
Ġf eira
Ġle ndo
Ġfisc al
ĠG on
Ġcor rupÃ§Ã£o
to m
Qu e
ĠDez embro
Ġse gre
Ġexerc ÃŃcios
ĠInform aÃ§Ã£o
Ġeuro pe
Ġtur ismo
Ġre vol
TA L
Ġapare c
Ġesc al
ĠalcanÃ§ ar
ĠAnd rÃ©
ĠG il
Ġfac to
Ġd ica
Ġser ve
Ġmon ito
p are
ĠPor tanto
Ġda nos
Ġad ic
Ġdisc urso
ĠS U
Ġj a
Ġcon ex
Ġprest aÃ§Ã£o
Ġaf inal
Ġfac e
Ġlev ando
G O
Ġson hos
ĠAt l
Ġconju nt
Ġanivers Ã¡rio
ĠJ ap
ol ha
ĠAnt Ã´nio
Ġequip a
ul ada
ĠV amos
Ġpass os
nteÃº dos
Ġ3 00
iz adas
Ġche io
ĠI sto
Ġam pla
R S
Ġg aro
pre mo
Ġproduz ir
ĠIt Ã¡lia
Ġdefin iÃ§Ã£o
ĠLo nd
Ġno tas
um in
ĠCam po
Ġlit eratura
ĠB log
Ġed if
ent ro
ol as
Ġentre v
Ġp obre
ap e
Ġf ique
ĠP OR
A gora
ĠhipÃ³ tes
Ã³ is
Ãĩ ÃķES
Ġpl antas
ar Ã£o
Ġel eiÃ§Ã£o
Ġpre ju
ĠB ÃŃbl
Ġcont am
Ġvis u
Ġident ificaÃ§Ã£o
Ġpergunt as
ra d
Ġfacil mente
Ġquil Ã´metros
V I
Ġirm Ã£os
Ġori entaÃ§Ã£o
N este
ĠH D
f era
Ġgost osa
f rica
Ġroup a
Ġse res
Ġsab emos
Ġe ficiÃªncia
Ġat letas
id es
ĠD ilma
Ġfaz ia
Ġloc alizada
ar ou
Ġrealiz a
Ġrestaura ntes
os os
ol e
Ġres postas
Ġvo to
ic ado
Ġleg ais
Ġvant agem
Ġp ul
c am
ã ģ
Ġindepend ente
Ġd Ã£o
ÃŃ ram
Ġing res
Ġorganiz aÃ§Ãµes
Ġconsum idores
Ġrest o
Ġdesc on
ind ica
ĠT ro
Ġf Ã£s
ĠeconÃ´m ico
Ġult rap
Ġfin almente
Ġespecial istas
Ġinform ou
Ġv inho
ĠMed icina
I ON
Ġpro tagon
enta Ã§Ãµes
Ġvir tu
ar os
Ġfinanc eiro
Ġro l
Ġlo ok
ĠAss istÃªncia
Ġcrim es
Ġsu plem
Ġgera r
7 8
igu el
D F
Ġden Ãº
Ġdiscipl ina
Ġf ios
D urante
ĠAss embleia
C h
Ġch uva
ĠM ora
Ġvol tou
Ġm embro
ĠO N
ĠgÃªn ero
re do
re v
Ġesp anh
Ġres idÃªncia
erg ia
ĠSou za
Ġpa ul
ers Ã£o
ĠI II
Ġpeg ar
Ġrece itas
riz es
ĠAnt on
Ġev ang
Ġmes mas
ĠMarc elo
201 3
Ġlim ites
Ġpass am
Ġmen ores
Ġir ia
Ġab erta
Ġinov aÃ§Ã£o
Ġ ilha
Ġp iso
IC O
Ġcar reg
3 6
ĠR E
Ġest acion
Ġart ic
Ġpl ac
u f
ĠLiv ro
l er
Ġor Ã§amento
Ġ200 4
EI RA
Ġdecid iu
Ġcont Ã©m
ID ADE
ĠjurÃŃd ica
Ġa i
du to
Ġtest es
Ġtare fa
it amos
ĠC ir
Ġper igos
Ġestud ar
Ġt antas
Ġpreocup aÃ§Ã£o
Ġf arm
ĠProf iss
at ia
ÃŃst icos
ĠD u
ĠCl ube
Ġfigu ra
Ġpos icion
ĠCam pos
Ġaspec to
c ara
isc ipl
ĠprÃ³p rias
Ġam ea
Ã©r ito
Ġac el
ĠB em
Ġrealiz ados
ic ia
Ġvar i
Ġv elho
Ġcompartilh ar
ÃŃ a
ern idade
Ġseg mento
ce is
Ġmo eda
Ġrot ina
Ġepis Ã³dio
D o
la res
3 9
Ġus ados
ĠB R
k er
ĠFor tal
k s
ord este
ÃŃdu o
ol uÃ§Ã£o
at as
Ġvis itantes
Ġinvest ir
it co
Ġad ultos
Ġdire c
P T
im es
ĠX X
Ġflo res
Ġmec an
Ġ0 4
Ġportugu esa
og os
ĠelÃ©t rica
A ÃĩÃĥO
Ġinflu Ãªncia
ĠD isp
id aÃ§Ã£o
* *
Ġclass ificaÃ§Ã£o
U T
ĠS te
ĠCo orden
Ġf rut
Ġsub met
Ġinstal aÃ§Ãµes
Ġgord ura
Ġinfer ior
ma g
Ġconc lusÃ£o
Ġpass aram
ĠFin anc
Ġpor tas
Ġc Ã©l
A d
Ġcur t
Ġente ndimento
ĠespÃ©c ies
Ġg a
Ġgu ia
Ġobrig ado
o te
Ġaum enta
Ġir Ã£o
Ġpro jec
aliz a
ĠLu ÃŃs
Ġdest aca
Ġens in
Ġ <
b ar
Ġsint omas
ula Ã§Ãµes
Ap esar
ĠCor po
Ġtax as
Ġ 00
Ġinstrum ento
S im
rut uras
Ġimedia tamente
Ġim pressÃ£o
Ġlig aÃ§Ã£o
ĠJ ul
ĠmÃ¡x ima
Ġconce itos
ĠAlem anha
Ġcrio u
n ia
ĠV ir
Ġnecess Ã¡rias
Ġmed iante
Ġo tim
Ġv in
ĠAl ves
Ġ idos
Ġch Ã£o
ĠCat arina
Ġ3 2
Ġlemb ra
Ġit em
Ġgra ve
ĠV ia
Ġmen ina
Ġprop Ã³sito
r itos
Ġadvog ado
Ġcri ada
et al
ĠFe vereiro
Ġmost rou
3 7
Ġing red
at Ã³rios
Ġmod erno
Ġdev emos
3 8
Ġco nteÃºdos
Ġespecial ista
atro c
un s
Ġh arm
ĠDan iel
Ġg ast
Ġc m
ĠW indows
ĠCur itiba
Ð ¸
Ġtrib ut
ĠG en
Ġserv ir
r Ã£o
Ã´ s
Ġperde u
Ġdepe nde
Ġpal co
Ġesp et
ĠB elo
at u
Ġbrasil eiras
ĠAmb iente
ĠA val
Ã§ ados
eir Ã£o
Ġaf ast
Ġap ar
Ġfica ndo
h an
ĠMar keting
Ġs ente
Ãª nd
Ġcres cer
Ġpar que
Ġmil itares
Ġimposs ÃŃvel
Ġadqu ir
Ġver ificar
unicip ais
ĠInte gra
ĠA M
ĠPo is
Ġprote g
Ġl embro
Ġcontribu ir
Ġpres s
il os
ÃŃs ica
is h
4 8
Ġpadr Ãµes
Ġsuperf ÃŃc
Ġim per
ro ve
id Ãªncias
Ġmag n
Ġim Ã³veis
Ġtra diÃ§Ã£o
ec ei
Ġdire ta
Ġvol unt
of t
Ġanalis ar
Ġus ada
Ġcump rimento
er taÃ§Ã£o
Ġ201 9
h ado
Ġpos terior
indica to
orr Ãªncia
f ei
Ġcon osco
ĠÃģ frica
II I
Ġinic iar
Ġre gra
Ġj amais
Ġno ve
Ġconv idados
Ġalte raÃ§Ã£o
Ġexpl icar
ã ĥ
Ġ20 00
Ġen fer
Ġplane j
Ġdom ÃŃnio
Ġfoto grafia
amb a
Ġf antas
Ġdefin ir
Ġr itmo
ro id
ĠU t
Ġped iu
Ġab re
Ġant i
ĠL im
Ġjulg amento
ĠM A
Ġ| --
Ġtrans missÃ£o
Ġconsidera da
Ġprote ger
Ġencont ram
ert ar
ĠPortugu Ãªs
Ġext ensÃ£o
ĠP ai
est Ãµes
itu ras
Ġdesp esas
u taÃ§Ã£o
L e
Ġa nda
Ġaval iar
Ġcar inho
Ġ200 3
ro le
Ġcom ando
ol ina
ĠM ara
Ġprecis ar
Ġparc eiros
l i
Ġcons ulta
Ġprop ag
Ġpres id
Ġcultura is
ĠRodri gues
ĠGu erra
Ġparc ial
Ġexclus ivamente
Ġt erap
Ġad ia
or ma
Ġatu ais
ĠA C
Ġf arÃ¡
Ġcur to
ÃŃm bol
Ġprevis to
Ġtent ativa
Ġcump rir
Ġanunc iou
Ġsent imentos
Ġrelacion adas
P M
k y
Ġvend er
ĠaÃ§ Ãºcar
ig ht
Ġbaix ar
Ġ !
ĠTur ismo
Ġpasse io
Ġantec ip
Ġres g
I Z
ÃŃ ba
ĠÃ ļ
Ġescreve u
ĠH e
Ġt enta
Ġfic aram
Ġtrabalha ndo
Ġche ia
Ġse tores
ĠM aran
ĠF ab
Ġdesc onhec
Ġhaver Ã¡
ere nte
Ġadolesc entes
m erc
ra ria
Ġmas s
Ġ0 9
ĠCons ult
ade ia
Ġf is
w er
it oria
Ġsin ais
Ġche fe
Ġt antos
ĠF lo
Ġr Ã¡dio
Ġvar iedade
Ġl azer
Ġmant Ã©m
Ġt ÃŃtulos
ig i
Ġve jo
Ġat os
ion e
ĠEsp anha
ĠEn quanto
Ġf lex
f al
Ġd ada
Ġat itude
ad ura
ĠÃģ rea
ca nte
ĠC in
ĠEst ou
Ġgra t
Ġcomp lic
Ġpa in
ens es
Ġcol oca
ra c
ĠHen rique
ĠD ias
Ġlidera nÃ§a
m en
ilo to
Ġtent ando
Ġaqu isiÃ§Ã£o
Ġimp ac
Ġen gra
Ġesc ritÃ³rio
Ġtec ido
ĠmÃ¡qu inas
Ġaus Ãªncia
Ġcons erv
Ġ0 5
p ons
Ġe vol
ĠPar is
ĠP ern
Ġarqu ivos
Ġcr ÃŃtica
Ġcateg orias
Ġ3 7
Ġre dor
Ġnaqu ele
ĠM iguel
Ġequ ival
Ġam iz
m al
Ġs inc
Ġsequ Ãªncia
wit ter
ĠF igu
Ġprecis amos
Ġacred ito
ĠC ara
ĠRec e
N CIA
gum as
ura r
Ġcomp osto
ĠP etro
6 6
Â ©
3 2
Ġda nÃ§a
iz ando
ĠN as
ncia mento
m ed
ĠHot el
Ġabs or
Ġf ib
Ġle itor
qu inho
on o
it Ã¡rios
ĠP ad
ĠB u
Ġpens ando
Ġorgan ismo
Ġresol uÃ§Ã£o
Ġjud icial
Ġcaus ar
Ġbol sa
Ġaux iliar
if ique
Ġt ub
Ġexpecta tiva
Ġref let
po t
Ġ @
Ġcontra tos
Ġpert enc
ĠH el
ĠH ar
C ons
ic es
Ġa st
AM ENTO
ord ar
ĠProc esso
ĠM ato
Ġaltern ativa
Ġpos se
Ġacess Ã³rios
ab iliz
ient ais
ĠÃ¡ guas
fic ientes
olÃ³g icos
Ġapl icaÃ§Ãµes
is es
t em
Ġsim p
Ġatu a
Ġ3 4
iz e
ĠPr inc
Ġdent re
Ġcidad Ã£os
et os
ĠCar valho
5 5
f im
Ġinterv enÃ§Ã£o
A n
Ã³ x
Ġind ica
Ġpor no
ur ras
ora da
ĠS to
et ivo
ĠIs rael
ĠestratÃ©g ias
d i
ĠA ud
Ġapre c
Ġbr ilha
Ġs ap
Ġprofesso ra
c he
Ġ- -
IS T
Ġque b
Ġcom issÃ£o
Ġtransform ar
ag ram
Ġprev enÃ§Ã£o
qu im
Ġverm elho
Ġsi nto
Ġdaqu ele
Ġg ig
a a
it s
Ġdispos itivos
Ġur g
ĠT re
Ġ0 7
Ġro do
r icos
rig or
ĠvÃŃt imas
Ġf ant
Ġvia jar
Ġmus ical
Ġs ta
Ġex ames
Ĩ Ĵ
Ġdiagn Ã³stico
Ġalim entar
Ġpres erv
Ġac har
ĠCom erc
Ġsal v
ĠFortal eza
Ġquais quer
Ġaqu elas
Ġc ento
ul Ã¡rio
Ġocorre r
Ġd Ã©
Ġme x
Ġmen inas
Ġcham ar
Ġbot Ã£o
fei Ã§o
ĠM ich
Ġins c
R J
Ġ3 8
Ġ0 6
Ġcomun idades
Ġvant agens
Ãº l
Ġsin dic
Ġmedic amentos
ios as
Ġdorm ir
Ġnasc imento
end Ã¡rio
im ent
e to
Ġtradic ionais
Ġempres Ã¡rio
go v
Ã©r c
ĠPor t
ĠDef esa
ĠPern amb
Ġcomple x
ĠAl guns
ĠOri entador
ÃŃss ima
Ġque remos
Ġsol ar
Ġsurpre end
ĠIn vest
201 1
ab el
Ġpossibil idades
Ġcadas tro
ĠRe ino
M u
art amentos
Ġapresent am
ĠSoc iedade
Ġi P
ent il
ament al
ĠDire itos
ĠPra ia
Ġrevel a
Ġv ence
Ġb atal
ĠT or
Ġsent imento
Ġar rec
ec eu
ĠT a
ĠT enho
Ġhum or
Ġol ho
p le
N A
ĠJ ac
Ġacess ar
Ãª nt
ĠVer de
ĠAlex and
Ġre i
Ġcorre nte
Ġhomen agem
C C
Â ¡
Ġcha ve
Ġal vo
Ġpre to
Ġjorn ada
o rar
t en
Ġprepara r
ĠSu premo
ul l
ĠL it
ce nd
Ġagrad Ã¡vel
Ġcont udo
ĠDig ital
Ġfacil itar
Ġblo que
Ġpass ag
ĠR osa
ĠA ntes
ĠM eu
m ula
Ġeste jam
Ġdestac ou
Ġca ir
br ica
Ġespir itual
ro t
ĠTem er
ur b
Ġserv idor
Ġcar gos
ĠÃºlt imas
Ġaud iÃªncia
ific adas
Ġd ito
Ġacompanh amento
ĠPesso a
ĠV it
ik e
gent ina
ia go
to col
Ġpriv ada
ĠJo hn
Ġme tod
Ġautor idade
Ġrela x
Ġcontem por
qu ad
Ġc iv
Ġequil ÃŃbrio
Ġle itores
af a
I X
ĠSem pre
er ce
ĠSen ado
ĠS O
Ġvig or
olÃ³g icas
Ĥ ¬
Ġenfrent ar
Ġexplic ou
Ġfin alidade
Ġs ig
Ġaplic ar
Ġs ÃŃmbol
Ġl idar
re ta
Ġcer im
Ġdeclara Ã§Ã£o
ar n
Ġqu adr
e is
7 0
Ġ4 8
Ġintegra Ã§Ã£o
e e
ÃŃ zes
ĠM ad
Ġpro mete
ĠConc lusÃ£o
Ġdest as
d er
T ambÃ©m
Ġv indo
Ġnov idade
Ġ200 2
Ġcompre ender
Ġestre ia
' s
Ġsatisf aÃ§Ã£o
Ġob st
Ġfrequ Ãªncia
Ġn ele
Ãºc leo
Ġt anta
ÃŃde res
Ġjunt amente
ĠInt roduÃ§Ã£o
Ġcapaz es
Ġdes enho
re la
ĠRe al
Ġinf Ã¢ncia
Ġfinanc iamento
Ġin Ãº
ĠCl ass
ot es
Ġr ural
Ġapare cer
ĠH on
Ġpos to
Ġar ran
ess oria
Ġson o
ou ra
T odos
hec imento
Ġper ce
Ġped e
!! !!
aliz adas
Ġinc orpo
F o
ÃŃm p
Ġdemoc racia
iz ou
Ġgratu ito
Ãªn is
iv Ãªncia
ĠmÃ©d ica
ant emente
u o
ĠC L
ĠA pre
ibliotec a
Ġhuman idade
Ġo raÃ§Ã£o
ĠDes ign
Ġre porta
ĠLe ia
] .
ĠM ot
ĠG rosso
201 2
Ġext re
ĠM Ã©dio
Ġl es
Ġindust rial
S A
vel a
EN TE
ĠS enhora
Ġdes emb
ĠT it
E RA
ĠO pera
Ġvenc er
Ġcu idar
Ġh e
Ġter reno
ing a
ĠCo nd
Ġj ardim
Ġace itar
Ñ Ĥ
Ġper form
Ġv inc
Ġrealiz ou
ĠÃŃnd ice
Ġab ri
Ġsegu ra
ĠI d
og rÃ¡f
M P
ĠP et
Ġrem un
v ores
es p
Ġar ro
Ġs ÃŃ
Ġcrim in
ent re
rap ia
ÃŃr us
ĠAnton io
m entos
Ġdom Ã©st
Des criÃ§Ã£o
Ġar mas
ĠO c
Ġint erno
Ġefica z
Ġdesc ul
Ġtrans ferÃªncia
ĠDist rito
Ġvis a
Ġaprend izagem
Ġru im
f und
Ġde vol
Ġsu ger
Ġencont rado
Ġcontra taÃ§Ã£o
Ġutiliz a
Ġhttp s
co ol
ĠMe io
r icas
ĠN asc
Ġdes l
Ġpre visÃ£o
ĠProf essor
Ġsur presa
Ġcompara Ã§Ã£o
Ġelabora Ã§Ã£o
Ġacred itar
Ġtor c
Ġconfort Ã¡vel
e io
ĠN et
Ġcolabora dores
Ġch in
Ġperson alidade
ic iÃ¡rio
ĠM inha
ĠAm eric
og ia
Ã¢ nd
Ġameric ano
ul ados
Ã¢ne o
O G
Ãµ em
Ġjust amente
Ġcidad Ã£o
Ġb ela
Ġcai u
Ġconqu ista
Ġcoleg as
Ġassum ir
es pera
ab a
p to
ul to
Ġin qu
Ġag ente
Ġco t
Ġv ib
ĠL et
Ġre ver
Ġcont ÃŃn
Ġexc esso
ĠCom Ã©rcio
Ġperspec tiva
ĠF isc
uro u
Ġ Å
Ġcon ferir
ĠFest ival
ĠJ un
Ġenc om
Ġdi ariamente
Ġimplant aÃ§Ã£o
ros s
ic ais
an ato
Ġdispos itivo
Ġtab ela
ĠS r
Ġcompos iÃ§Ã£o
Ġescrit or
Ġcorre r
Ġt ÃŃp
Ġrequis itos
N Ã³s
ĠS p
Ġcheg ando
4 6
Ġcomem ora
Ġint elec
Ġadqui rir
an sÃ£o
Ã³ log
ĠdÃ©c adas
Ġperc ent
ĠAm or
Ġil eg
Ġtare fas
Ġped ra
Ġefet u
i res
Ġper segu
Ġco ndomÃŃnio
9 5
ĠSai ba
se x
Ġgas tos
ut e
Ãº lt
U n
Ġvit am
ĠW ill
Ġer rado
P er
ĠMart ins
Ġv ara
s ho
Ġmelhor ia
Ġe ficiente
Ġindic ado
Ġcrit Ã©rios
ess os
9 7
mart p
gu eira
Ġdire cion
Ġfamos o
Ġcontem pl
Ġpr Ã©dio
Ġflu xo
ĠD iss
Ġam anhÃ£
Ġperman ente
f in
Ġaprov ado
ĠO f
Ġindiv ÃŃduo
ĠMaran hÃ£o
Ġtra duÃ§Ã£o
Ġenc ant
Ġr s
ĠP ass
Ġesp or
Ġped idos
ĠPaul ista
Ġa vi
Ġte atro
ĠEcon Ã´m
en co
T ER
Ġestabelec er
ĠInd ust
ac ho
Ġpou cas
ĠmÃ©to dos
h i
Ġpro t
Ġvo taÃ§Ã£o
Ġdef ender
Ġexist entes
Ġpr Ãªmio
Ġch ar
ĠMar cos
ĠAc ho
Ġesp orte
Ġbar ra
Ġant igos
Ġpal est
Ġagu ard
Ġj ap
Ġbon ito
. )
Ġex pres
Ġexig e
Ġc Ã³p
me ida
Ġped ag
Ã© us
on ha
Ġatu ar
Ġs p
Ġb rit
Ġvis ando
ĠTrabal h
ĠU s
ĠespecÃŃf ico
ĠJap Ã£o
Ġdaqu eles
ra tos
Ġinflu enc
ĠclÃ¡ss ico
Ġque bra
Ġpreenc h
u Ã¡rio
aliz aÃ§Ãµes
Ã©d itos
Ġpropri edades
ar ca
Ġpare de
u ri
Ġfra se
Ġtrou xe
ĠB ern
Ġver t
end es
Ġmost rando
Ġforn ecer
era da
ĠPernamb uco
Ġcomprom et
ĠHor izonte
ĠFo to
Ġp erante
Ġcompon entes
ĠCert ificada
Ġdes m
Ġexem plos
Ġes go
Ġg ram
Ġcho col
Ġsurg iu
r inho
Ġob riga
Ġf ator
Ġcontrol ar
Ġindiv ÃŃduos
ÃĬ NCIA
ent am
Ġmu dou
Ġcart eira
Ġestuda nte
Ġan uncia
Ġmorre u
Ġdo ut
it Ã£o
Ġcompre ensÃ£o
ĠM Ã©d
Ġcur rÃŃc
Ġcorre ta
ĠM ach
Ġ3 3
Ġdorm itÃ³rios
Ġesc rav
Ġfemin ino
C ar
Ġimpos tos
qu ei
un Ã§Ã£o
qu eira
ĠdÃ³ lares
ĠT emos
Ġconsidera r
ov os
ĠGab ri
ĠA R
for d
ro c
ĠP elo
es ia
Des de
Ġraz Ãµes
Ġpor tal
ĠB on
Ġingred ientes
ĠW al
Ġir reg
nt emente
Ent Ã£o
Ġn erv
ĠPs ic
ĠE r
un es
Ġinfra estrutura
Ġ Q
im idade
Ġp Ã´
iv ado
Ġno tar
ĠS obre
b as
Ġde d
ĠLu z
Ġcontribu iÃ§Ã£o
ł Ģ
Ġâ ĨĴ
te rapia
ura do
Ġat riz
ĠExecut ivo
Ġpos itivo
Ġsim ilar
ĠP Ã¡g
Ġ u
Ġcir urgia
Ġsuje ito
R U
cis o
Ġid io
ĠeletrÃ´n ico
in ente
Ġcam peonato
Ġ15 0
ok ies
Ġdo wnload
Ġp iloto
ĠDa ta
Ġtom ada
Ġto po
Ġal g
6 5
Ġtrans fer
Ġrap az
rat ivas
Ġv ul
Ġsegu ndos
Ġpot Ãªncia
a o
ĠEv ang
Ġro b
Ġpoder iam
Ã©rc ito
or ou
Ġmod alidade
ĠAr m
Ġcan ais
Ġs ing
Ġdes loc
Ġpas ta
do nt
ĠF ÃŃsica
Ġobserv ar
Ġsem estre
Ġestar Ã£o
Ġvid ro
er d
ĠS om
Ãª ncio
ĠcÃ¢m bio
ĠS erv
ĠAr tes
Ġprofiss Ã£o
Ġelev ado
Ġdiscut ir
ĠRib eiro
Ð ½
Ġex pos
ĠcÃ©l ulas
ĠA utor
Ġar ra
Ġid Ã©ia
Ġp Ã³
ĠF a
ĠRodri go
ĠBÃŃbl ia
ĠEx cel
ĠB us
il le
Ġassoc iados
Is so
Ġaplic ativos
fe ta
Ġcab o
Ġpol icial
Ġc adeia
io ca
Ġag ress
Ġgost oso
ĠPortugu esa
Ġesp ero
n y
en go
Ġam ost
Ã©t rica
Ġprocura ndo
âĢ Ķ
ĠDec reto
Ġm is
Ġal erta
Ġf ed
ĠFÃ³r um
ess Ãµes
Ġap er
ĠA D
ĠAl i
ĠPra Ã§a
Ġof ertas
Ġcres ce
Ġabord agem
Ġcon g
rado res
Ġl ixo
nc ios
Ġcons iste
Ġpl anta
4 7
? !
ĠS Ã©r
Ġv Ã¡
Ġcirc un
vo re
Ġor ient
Ġra dic
ad inha
Ġpl aca
ra nte
Ġcap ÃŃtulo
Ġinclus Ã£o
Ġalmo Ã§o
ĠC A
Ġespecial izada
bo ok
Ãº ne
Ġad mit
Ġestre las
ĠD is
AD O
Ã§ al
Ġdis posto
Ãºs sia
Ġconsegu i
Ġproporcion ar
Ġda ÃŃ
ĠS ch
ĠFaz enda
in f
ic aÃ§Ã£o
Ġdesenvol ve
Ġatu alizaÃ§Ã£o
Ġfac ilidade
ĠC aixa
Ġem ag
ĠÃ³ b
ec ido
Ġcap a
Ġilum inaÃ§Ã£o
Ġ19 5
ĠT odas
Ġenvol ve
Ġenvolv idos
Ġdispon ibilidade
âĢĻ ,
rÃ³ leo
Ġab ertas
ĠlanÃ§ ou
ĠFam ÃŃlia
l aÃ§Ã£o
Ġan g
Ġcam pos
il la
ĠAnd roid
onst ru
Ġar ma
Ġmaravilh oso
ion a
Ġdecid ir
ĠEscol ar
t ivamente
ĠU rb
ĠMus eu
Ġf omos
Ġp aixÃ£o
ĠLat ina
ic ada
... ]
lat erra
ĠN esta
ĠfÃŃs icas
Ġterc eiros
ern os
Ġex por
w e
ura is
Ġbase ado
Ġfrut as
Ġac erca
Ġgost ei
Out ra
ĠEst Ã¡
ĠAd v
Ġjap on
Ġpont a
Ġcanc el
Ġadequ ado
ĠJ ogos
Ġch urras
ĠS el
Ġexc lu
Ġrelig iÃ£o
m m
Ġgara gem
Ġess enciais
Ġreflex Ã£o
Ġa le
Ġt el
ĠEst udos
Ġcomple xo
op es
N esta
ĠEx per
Ġres ul
ĠcomeÃ§ aram
Ġdiv ulgar
Ġdo ce
ĠcientÃŃf ica
Ġse quer
r ist
Ġt h
ĠH er
Ġs Ã©rio
os s
Ġfranc Ãªs
ĠsuperfÃŃc ie
ific ou
Ġrod ada
io c
ĠÃº teis
ĠD iÃ¡rio
ub a
Ġmost ram
Ã³ i
Ġintelig Ãªncia
Ġl ÃŃderes
Ġmand ato
Ġconv oc
Ġprodu tores
ar i
Ġconjunt amente
itco in
ub es
ient ÃŃf
l ado
Ġd il
ilh ar
L E
Ã§ ou
Ġautomat icamente
Ġesc ala
ĠAl meida
Ġconc orre
ĠR ei
Ġavent ura
Ġirm Ã£
ent Ã¡rio
Ġpriv ado
nc h
ĠST F
ĠE X
and es
ĠB ro
I R
ĠA T
ĠL ogo
p es
ou ro
ĠCultura l
8 8
ĠM endes
Ġassoc iaÃ§Ã£o
Ġman ual
Ġcaus as
Ġre per
ĠEst at
Ġen genharia
Ġl i
Ġdig itais
ĠlanÃ§ ar
ĠDes c
Ġsegu indo
4 4
Ġde us
Ġco ro
ĠL ic
ĠPro d
Ġcria tividade
Ġag ir
Ġtransform aÃ§Ã£o
ĠN ordeste
Ġat or
Ġreg ional
ĠA ust
Ġj e
Ġord en
Â ´
Ġinstrum entos
Ġhid ra
Ġm ental
Ġser iam
Ġpl an
ĠQu anto
Ġcur ta
Ġdifere nÃ§as
Ġsemelha nte
Ġch uv
Ġcant or
Ġterr or
que te
Ġsor ris
ĠMel hor
ÃŃt io
Ġfol has
Ġcul pa
ã Ģ
Ġpop ulares
Ġexp ansÃ£o
ion Ã¡rio
ĠM Ãºs
ĠAr te
ĠBr uno
ĠP es
Ġob ject
Ġb en
Ġtend Ãªncias
ila res
Ġenvol vendo
Ġag enda
ĠReg ul
P a
ĠP op
7 5
Ġsal Ã¡rios
ĠAv enida
Ġsofre r
Ñ ģ
ic leta
Ġp atroc
Ġmod erna
Ġadequ ada
Ġsal Ã£o
Ġsustent Ã¡vel
ĠEm presa
ĠS port
av o
ĠT ex
p et
ĠdÃŃ vida
Ġn isso
Ġauto ra
s ite
ĠComp anh
Ġof iciais
UL O
Ġcomp at
Ġfil osofia
ĠN orm
Ġprepara Ã§Ã£o
Ġrot eiro
Ġviv em
Ġdo no
ĠprÃ³x imas
ÃŃnc ipe
ĠF ic
Ġestabelec imento
Ġesp ort
Ġfundament ais
ivel mente
Ġarrec ad
Ġaf as
Ġpag a
Ġpermit em
f re
u ÃŃ
Ġnegoc iaÃ§Ã£o
ĠEst amos
ĠPro te
ĠHum anos
v an
Ġcar o
Ġcompet Ãªncia
ta is
Ġbr ilho
in adas
Ġo posiÃ§Ã£o
Ġmat ar
Ġint erc
Ġenvi ado
Ġdi Ã¡logo
ĠB oa
Ġfic arÃ¡
ĠBar ra
Ġrom ance
Ġameric ana
j Ã¡
.... ....
Ġat ras
Ñ Ģ
eb ra
Ġf io
Ġorgan izar
Ġ ran
Ġint roduz
Ġc Ã©re
ĠY ou
... )
l d
ag s
rei ras
ĠCom un
Ġtiv emos
it udes
Ã§ ando
____ ____
Ġv a
ĠC ri
ir ia
Ġcar re
Ġfav o
Ã³ logo
ĠF undo
Ġconv ite
Ġparticip ou
P C
ĠV en
' ,
or ial
Ġfin ais
Ġempres Ã¡rios
io logia
Ġpre feitura
ĠAmb iental
Ġcomp osta
lam engo
Ġre visÃ£o
ĠG a
Ġassin atura
ĠDiss ertaÃ§Ã£o
ĠS ta
Ġexclus ivo
Ġl iqu
ĠP L
Ġfen Ã´m
Ġp Ã£o
ĠJ er
Ġconcent raÃ§Ã£o
Ġmarc ado
Ġv Ãªm
ro v
Ġpart idos
U C
Ġeta pas
ĠB Ã¡s
ĠI V
p art
Ġol ha
c ura
ĠC har
Ġ: )
Ã³d ulo
Ġreun iÃµes
Ġin do
Ãģ RIO
Ġb elo
Ġ20 01
Ġtit ular
U F
abo rar
ĠEx t
Ġcam inhos
ĠDep ut
Ġcorre to
ĠForm aÃ§Ã£o
ĠanÃº ncio
Ġmotor ista
ĠEle itoral
nd ro
ĠA ir
Ġtra v
ri qu
ĠF ederaÃ§Ã£o
Ġada pt
it em
Ġvia j
Ġtrabalh ador
Ġp av
Ġtre ino
Ġescol he
ĠIng laterra
Ġconv en
Ġfac uldade
ĠbÃ¡s ico
it h
Ġpres os
ĠC rim
ĠOut ros
Ã©d ios
I m
b erto
Ġconsegu em
Ġde po
ĠM c
ĠR et
Ġc en
Ġs martp
ĠsÃ³ l
Ġg est
Ġapresent ados
Ġest ruturas
Ġme rece
T em
ĠV as
ĠA gu
ĠMich el
ĠP arÃ¡
ta ntes
de ia
G E
Ġpro b
Ġmelho ra
Ġinform ar
Ġsign ificado
Ġconex Ã£o
Ġem issÃ£o
Ġvis itas
ĠA te
Ġcanto ra
Ġpre ferÃªncia
Ġunivers idade
Ġv ento
Ġcan s
ĠCamp inas
kk kk
or rem
Ġgera is
Ġcost um
ed as
ur s
gres s
Ġbusc ando
ĠespecÃŃf icos
Ġindivid uais
av ia
ĠCon stru
Ġ Ġ
Ġcot id
Ġentre gar
ed oria
Ġcer tos
Ġtro c
O i
Ġgol s
Ġab riu
Ġextra ord
Ġemoc ional
Ġhabil idades
ĠN em
ĠBranc o
ĠA tu
ĠE S
Ġel og
ĠAr gentina
Ã´n ico
Ġass al
S em
P P
o x
Ġcol una
ĠFut ebol
z ar
Ġvere ador
Ġcon ect
Ġmens al
Â» .
res se
Ġresp ira
ĠmÃŃn ima
is os
Ġre para
ec o
ĠGoi Ã¡s
ĠM ult
su i
Ġbranc a
Ġpesquis adores
Ġcor rig
Ġprest ar
Ġp ista
Ġco ragem
] ,
to p
Con f
Ġre Ãºne
Ġrepresenta nte
Ġm ilhÃ£o
Ġreceb ido
i us
ĠRoc ha
va Ã§Ãµes
Ġch Ã¡
O C
Ġinv erno
Ġcom ecei
Ġmet as
Ġpublic ada
Ġsal as
atura l
Ġproporcion a
Ġt Ã³p
Ġequil ib
Ãº dio
Ġace ita
Ġa Ã©re
ĠSant ana
Ġmu da
Ġsho ws
ĠAn al
Ġtro car
% )
ĠS Ã©rie
quia gem
Ġse d
Ġvide o
Ġdisp Ãµe
Ġso zinho
Ġescolh ido
Ġenf im
Ġdo res
Ã³g icas
Ġinterpre taÃ§Ã£o
Ġsu ÃŃ
r indo
Ã§ u
Ġamiz ade
ĠC R
Ġam e
ĠPre to
Ġun iÃ£o
Ġvest ido
ĠDoc um
Ġlu xo
ĠTal vez
ĠOrgan izaÃ§Ã£o
Ġultrap ass
Ġbon ita
B R
ĠÃ¡r vores
Ġdepe ndendo
Ġimag in
ĠbÃ¡s ica
g ado
Ġapresent ada
Ãºn ior
gra d
Ġpre f
t Ã³rios
Ġat ivos
ÃŃn ios
ron omia
Ġelem ento
ĠB ot
Ġrepres entaÃ§Ã£o
Ġexclus iva
it er
Ġcac hor
Ġrec olh
J o
Ġexp ed
C as
ĠP ap
P o
Ġra st
ĠS on
Ġcont os
sa Ã§Ãµes
ĠCat Ã³lica
Ġ rique
ĠR Ãºssia
Ġfor t
ĠLond res
Ġ rigor
Ġt ocar
Ġed ital
Ġprev ista
Ġb ro
Ġcost as
Ġhou ver
Ġc ere
ĠR afa
Ġen gan
t y
ĠJ uramentada
ĠOb s
Ġmen ino
ĠPrim eiro
Ã¡c ulos
Ġex plo
Ġda qui
Ġim posto
Ġmul ta
ĠCom unidade
Ġab ast
Ġcampe Ã£o
ĠEmpres as
ĠcÃ©re bro
i ador
Ġm Ã¡s
Ġel enco
Ġcircun st
int as
T OS
Ġm erg
ĠA po
V e
ĠcomeÃ§ am
ĠcrÃŃt icas
Ġass ust
Ġmerc ados
Ġtur no
Ġlit er
8 5
an he
Ġexpecta tivas
ver t
Ġlink s
Ġpor te
est er
rÃ© st
Ġgost ar
ĠN unca
ES P
E nc
Ġpermit indo
Ġsal var
Ġpag o
Ġesqu ecer
C N
ĠC re
Ġexist ir
Ġportugu eses
Ġdiminu ir
ĠG er
est as
Ġman ip
ĠPal av
Ġdemoc r
Ġele g
Ġconsidera ndo
ru gada
Ġproduz ido
is po
Ġrespo nd
v Ã£o
ru d
Ġ4 00
Ġf atura
9 6
ĠE duc
ri f
Ġrec Ã©m
Ġsen ador
i et
Ġac ons
ĠUn idade
id el
ĠC idad
Ġest aria
Ãº rg
am entaÃ§Ã£o
Ġimpress ion
ĠEm bora
T he
or ld
Ġcor ret
ha ha
Ġchocol ate
Ġdipl oma
ĠB aix
ĠEntre tanto
Ġal imento
ĠcurrÃŃc ulo
Ġm m
Ġfol ha
Ġch ances
on ial
Ġcons ervaÃ§Ã£o
Ãªm ica
ĠCont role
er ve
Ġal tamente
Ġrec entes
Ġexecut ivo
Ġde ficiÃªncia
ĠS A
Ġm anc
Ġf ome
Ġm ach
Ġentre g
Ġlevant amento
Ġajud am
Ġdeter mina
Ġdecl arou
Ġpublic idade
ĠPen al
ĠPro duto
Ġhot Ã©is
Ġesfor Ã§os
Ġform ado
ĠHist Ã³rico
Ġcont o
Ġvers Ãµes
Ġalte rar
ĠfÃ³r um
ĠA tualmente
B S
Ġtermin ar
ĠS ob
â łĢ
ra de
or de
ra ntes
it ivamente
O V
Ġcon form
Ġele t
Ġdiz ia
Ġacab am
Ġconsequ Ãªncias
Ġprodut ividade
Ġpare cia
m ais
ra ram
ĠSÃ©r gio
Ġche f
Ġqual ificaÃ§Ã£o
ag ar
ob res
ic s
ĠTem po
E la
v iam
ing ton
Ġfuncion ar
Ġfru to
Ġma u
Ġfos sem
v idos
ul te
Ġpre conc
Ġen vel
Ġhab itantes
Ġirreg ular
Ġorgan izado
Ġdisp ut
Ã¢m bio
ĠA S
Ġexpl oraÃ§Ã£o
Ġcomb inaÃ§Ã£o
Ġfo rem
Ġtur ma
Ġacus ado
Ġf ico
m l
nc e
Ġa eroporto
Ġn orma
Ġob ed
ĠespecÃŃf ica
h amos
are cer
ĠTra ta
A presentaÃ§Ã£o
Ġven ceu
o od
Ġnaqu ela
Ġb ru
ĠBarb osa
Ġl iga
Ġreporta gem
ĠNasc imento
ĠÂ §
Ġfec har
Ġdaqu ela
in dic
Ġg re
Ġs ant
Ġbol o
Ġm unicipais
Ġper igo
Ġrevel ou
Ġata c
Ġcoloc ado
ĠG ost
Ġconhec idos
Ġsof rimento
Ġdetermin ada
Ġinter f
Ġopera cional
Ġexecut ar
Ġcontinu idade
Ġparc eiro
Ġamb ientais
Ġhor Ã¡rios
ĠPal m
Ġempres arial
ĠAf inal
Ġa Ã§o
ing os
Ġat raÃ§Ãµes
Ġcent enas
ĠPro duÃ§Ã£o
Ġt rem
Ġbater ia
Ġn uv
ĠFo ram
ĠN A
ed os
Ġdiv isÃ£o
ĠhipÃ³tes e
Ġdev o
4 9
Ġpens amentos
. (
Ġintens idade
Ãª x
Ġcomp or
Ġra mo
Ġpropriet Ã¡rio
ĠL opes
Ġdeput ados
ĠA ugu
gu ai
G RA
ĠC aval
Ġespera ndo
r ido
Ġind ÃŃg
en Ã§o
Ġcaminh ada
Ġ $
esso res
ĠjurÃŃd ico
t adas
Ġespet Ã¡culo
Ġan ual
ĠF eira
Ġcria ndo
Ġd Ãª
Ġen genh
Ġfund os
Ġal tos
ĠRes oluÃ§Ã£o
ĠcÃ¡l culo
B om
Ġapresenta Ã§Ãµes
ĠLuc as
U M
Ġb y
at ional
obil iÃ¡rio
ĠInst agram
Ġcolabora Ã§Ã£o
Ġcom entar
Ġgra duaÃ§Ã£o
ĠPrev idÃªncia
Ġcert ificado
Â ®
Ġre a
ga nte
Ġprivil eg
ĠS ite
Ġinspira Ã§Ã£o
Ġocorr Ãªncia
Ġinic iou
u ca
Ġente nde
Ġrefere nte
Ġlat eral
Ġimedia to
B L
Ġter ras
ĠProc ura
Ġque im
ĠOr dem
Ġperform ance
ine te
Ġcirc ulaÃ§Ã£o
Ġescla rec
Ġin forma
ivers idade
ĠS erg
Ġ ras
Ġform ar
Ġorig in
Ġp ux
ĠD IA
Ġjan ela
ĠG re
Ġpint ura
Ġimplem entaÃ§Ã£o
ĠPart ido
Ġfl ag
Ġt op
Ġprete nd
Ġmanifesta Ã§Ã£o
ĠP lay
ubl ado
Ġacab amento
Ġcob ranÃ§a
ĠÃį nd
Ġmin im
ĠCompanh ia
in Ã§Ã£o
Ġencont ros
Ġecon Ã³m
or ro
ĠP ia
ros oft
Ġve nde
Ġres ÃŃduos
Ġobrig aÃ§Ã£o
id er
Ġtra jet
Ġpl Ã¡stico
pa Ã§o
f l
Ġespec ific
Ġconquist ar
Ġc um
Ġind isp
Ġident icamente
it Ãª
ĠT witter
.... ..
Ġcomp rimento
iliz ar
Ã©ri es
Ġc up
Ġal ugu
ÃŃn as
Ġsen so
Ġesc re
u aÃ§Ã£o
it ivas
Ġv ÃŃrus
re al
Ġfinanc eiras
Ġme te
pl es
rav Ã©s
ust ent
ĠP an
Ġac identes
Ġreconhec er
Ġf ras
Est ou
5 00
Ã Ĥ
ĠM ov
Ġinc Ãªnd
ĠSist emas
Ġa er
Ã© ias
Ġarqu itetura
ĠÃ¡ c
ÃŃd ios
ĠDo utor
O D
ĠAmaz onas
ĠC ientÃŃf
ĠEs ses
is tou
ĠB and
Ġexcel Ãªncia
ĠTe atro
Ġoferec em
Ġapar Ãªncia
ĠinÃº meras
ĠNe to
Ġabs ur
ĠT odo
ĠJ uv
Ġemo Ã§Ãµes
Ġcamp anhas
ĠI b
Ġd igo
Ġat leta
Ġperfe itamente
Ġn atal
oc h
b ios
Ġint uito
fe ita
Ġinclu em
ĠEcon omia
as es
Ġdivers idade
c al
Ġt ras
ed er
Ġed itor
ei j
Ġver gon
Ġautor ia
Ġfeliz es
Ġgen eral
Ġanterior mente
Ġmor tos
ĠMat emÃ¡tica
A ntes
ĠIm p
o ta
im enta
Ġprev Ãª
Ġintegra ntes
Ġfornece dores
Ġco p
Ġliv res
Ġpen al
ĠA plic
Ġespecial ment
iqu em
C aso
i jo
Ġm Ã¡g
Ġem isso
ĠAval iaÃ§Ã£o
Ġsur ge
Ġtar if
Ġperc urso
4 1
ribu iÃ§Ã£o
Ġg esta
c Ã£o
ĠMul her
S er
Ġpl ena
ĠLe on
Ġconvers ar
Ġmaravilh osa
Ġpalest ras
ĠJ Ãºnior
ian e
Ġesco nd
il son
Ġcam isa
it Ã¡vel
he Ã§o
B C
I TA
Ġdesf rut
do ras
Ġfinanc eiros
Ġcaracter ÃŃstica
ĠQu er
Ġ7 5
Ġde ntes
Ġc enas
ĠA ma
Ġab us
ĠAlexand re
Ġh igi
ĠF ran
ĠA bra
Ġindic aÃ§Ã£o
ĠIl ha
Ġaparel hos
Ġco okies
ĠC la
Ġinf in
Ġdocum entaÃ§Ã£o
Ġness es
Ġpro tocol
Ġcheg aram
ĠdenÃº ncia
ent ada
Ġpos tos
Ġadolesc ente
ĠMerc ado
S Ã³
Ġmand ar
Ġsil Ãªncio
l in
ĠNos so
Ġfo t
Ġtre cho
x ico
Ġm orrer
ult ado
Ġexperim entar
ĠL emb
Ãºlt ip
Ġpreju ÃŃzo
Ġcer veja
Ġform ulÃ¡rio
ĠCont udo
n et
ĠProfiss ional
b y
Ġmenc ion
ĠB er
Ġrelat ivamente
Ġgu er
Ġcompanh ias
ĠanÃº ncios
il de
ĠÃ ĥ
ĠHom em
E X
ec k
Ġpr is
Ġt b
Ġpac ote
Ġpra tos
ĠSoc iais
6 4
âĢ ĭ
Ġestacion amento
ĠVit Ã³ria
Ġv enha
Ġun if
Ġacontec endo
Ġcons elho
le os
Ġtrabalh am
us se
Ġam plo
inh ar
Ġinv Ã©s
Ġaux ÃŃlio
Ġfr utos
ĠA Ã§Ã£o
Ġpode res
P I
Ġdem as
Ġcandid atura
Ġmont agem
Ð¾ Ð
Ġda tas
Ġgra du
ĠRe vista
Ġlig ado
Ġacompanh ado
Ġsustent abilidade
ĠDav id
Ġalc ance
ĠfÃ¡ brica
Ġcole tiva
. âĢĵ
Ġcom et
ĠBl ack
in go
Ġpre d
ern ador
Ġdef end
ĠÂ ·
Ġp obres
Ġcham ou
ĠP ac
Ġac ion
ĠJ ov
Ġgere nciamento
Ġd it
ĠC abo
Ġpro xim
ato u
ĠVi eira
Ġo nda
Ġ5 5
ã Ĥ
ĠS of
Ġens inar
at ivamente
ĠCl aro
Ġs enha
Ġl ist
ia t
ĠV o
ern as
Ġfaz Ãª
Ġ3 9
ĠÃ© tica
ĠI C
Ġbara to
ĠMo nte
ĠFern andes
Ġedif ÃŃcio
ic ÃŃdio
Ġpromo ve
par Ãªncia
P L
ĠJ ur
Ġdivulg ado
Ġinf elizmente
est res
po nt
ĠAnt Ã³nio
ĠP RE
Out ro
Ġde tec
Ġus e
Ġsug estÃµes
ĠEle trÃ´n
Ġan ex
Ġmor to
Ġluc ro
Ġprojec to
Ġre je
Ġdes pre
f ar
Ġp end
Ġpro je
Ġmet al
Ġpassag eiros
ĠE c
Ġper nas
Ġcl icar
ĠAc red
Ġcomput adores
Ġaltern ativas
il Ã£o
Ġcar naval
Ġmad rugada
am o
Ġg ay
Ġhon ra
ĠP ost
Ġcl im
ing s
Ġrev est
ĠestÃ¡ gio
Ġe nd
Ġs ag
Ġprod utor
Ġcolo que
l hes
ĠD en
EN TA
e jo
Ġutiliz adas
ĠF lamengo
Ġcomp ens
us c
7 7
V D
im p
ri p
ad eiras
Ġsof ist
A G
d ios
ar te
ĠC AR
Ġdest inado
Ġapl ica
co nd
Ġac o
Ġpra ias
Ġemp rÃ©st
Ġconsidera dos
Ġpatrim Ã´nio
Ġconfl itos
Ġtr im
Ġbra Ã§os
Ġintelig ente
ĠÃ¡r vore
G eral
Ġv emos
Ġcust a
Ġr ico
Ãºm eros
C ol
Ġab rang
Ġcon fer
Ġentre gue
ul hos
Ġencont rou
Ġref le
Ġregist ros
Ġfech ado
ĠAl l
Ġind en
Ġdi Ã¡ria
Ġdescob erta
Ġcrist Ã£os
ĠlÃŃqu ido
c an
Ġcert ificada
C ON
vi e
ĠQu alidade
Ġperman ece
Ġpet rÃ³leo
ĠEurope ia
ĠTra ducao
Ġgar raf
v in
Ġouv ido
Ġrec icl
Ġestran ho
Ġfamos a
Ġm apa
ĠL ar
iz aÃ§Ãµes
M estrado
ĠEn ergia
Ġapo iar
Ġes que
ÃŃ z
Ġempreend edor
Ġfabric aÃ§Ã£o
Ġv endo
Ġpos itiva
ĠBar ros
Ġre aÃ§Ã£o
og a
Ġsolic itar
i Ãº
Ā Ā
ĠS ara
Ġcic l
ĠIng lÃªs
ĠR em
Ġint eira
ĠMu itas
Ġagrad ecer
Ġabsol ut
Ġpain el
Ġret irar
Ġsuper iores
t rizes
ĠC unha
Ġat iva
Ġenc ara
Ġcombust ÃŃvel
6 8
Ġm Ã£es
Ġext erna
el adas
Ġg es
Ġcap tura
Ġdev idamente
ĠRec ife
Ġl anc
Ġcont er
ass em
Ġpec ado
ĠJ oa
Ġempreg ados
m Ã£o
ĠM Ã©
Ġapro pri
igu al
Ġm estre
Ġgratu ita
ĠP apa
ĠT ele
ĠcÃ¢m era
Ġfra g
ĠE p
Ġfor no
dos o
Ġr umo
Ġcontinu am
Ġen sa
Ġcre me
ĠT ab
u e
Ġcl ubes
Ġembal agem
Ġaprend izado
Ġtem por
form as
Ġpol it
Ġl utar
ĠM AR
Ġgovern os
Ġlet ras
Ġdesenh os
Ġpaul ista
Ġm Ã³vel
Ġv ias
Ġdes empre
Ã¡ mos
Ġag end
Ġdi Ã¡rio
Ġen via
ĠIn formaÃ§Ãµes
Ġmerc ador
Ġac omod
ĠespecÃŃf icas
ĠSho pping
ĠP ens
oc e
Ġobrig ada
Ġd r
ĠR Ã¡dio
ĠComerc ial
ĠIm Ã³veis
Ġat itudes
ran Ã§as
Ġcart Ãµes
Ġesc ap
Ġmult ip
Ġrecup erar
Ġg ab
ĠO uro
Ġretira da
Ġp il
Ġevol u
P ublicado
at ico
Ġvel ha
Ġantec ed
Ġdescont os
4 2
Est amos
Ġdese jar
Ġ4 2
Ġb ur
ĠO nde
Ġres ist
ĠPara ÃŃba
Ġconc reto
L ei
Ġparlam entar
nde pend
Ġgra ves
Ġmont ar
om o
Ġdia b
Ġmarc ada
Ġbeb idas
e y
Ġb ÃŃbl
Ġcoloc ou
ĠfÃ³r mula
Ġadminist rativa
ĠCap ital
Ġans iedade
udo u
ria is
Ġlev ado
ĠMan uel
Ġr us
Ġprof unda
Ġpou ca
Ġviz inhos
Ġpos tura
Ġap osta
Ġmin istÃ©rio
Ġtestem un
ĠN ome
Ġconstitu cional
itu ais
Ġpra Ã§a
at uras
Ġa nte
ir me
Ġcert as
p aro
ĠM ira
Ġconc essÃ£o
Ġdin Ã¢mica
Ġag rÃŃc
iel d
Ġsegre do
Ġde ram
Ġsab endo
ĠRec ursos
Ġdez enas
Ġcheg am
te d
ĠR J
Ġreceb em
grÃ¡f ica
fic e
Ġdescob ri
ĠCast ro
ĠPlane jamento
ĠRece ita
Ġl ac
Ġsofre u
Ġque ix
ĠEst es
Ġnam orado
ĠEncont ro
Ã¢n icos
Ġc Ã¢mara
Ġac ost
Ġadvog ados
D ES
il Ã¢ncia
Ġl ados
Ġinc omp
Ġrespec tivamente
Ġp ovos
ĠIndust rial
Ġapont a
Ġparec em
Ġoferece ndo
Ġfal amos
Ġcal endÃ¡rio
Ġcole tivo
Ġprat ica
Ġame aÃ§a
ita nte
gu eiro
Ġperman ecer
Ġpare des
ĠInd Ãºstria
Ġrec orre
Ġdeix am
ĠCont ra
Ġtrein ador
Ġfot Ã³
i ras
Ġpro n
Ġmedic ina
Ġmarc ou
Ġt entou
Ġform ada
Ġ12 0
g aÃ§Ã£o
Ġentre tanto
Ġencont rei
Ġprev ent
Ġc os
ur go
Ġenc ar
Ġ ÃŃc
an Ã§os
Ġpo esia
ino p
ĠPa ula
Ġampl iar
Ġconfl ito
ĠV ara
Ġdefin ido
ĠZ ona
Ġcon ec
Ġus adas
Ġtrat amentos
Ġtem p
Ġsorris o
Ġprecis amente
Ġz ero
era mente
ĠÃ¡ udio
Ġcole ta
Ġb loc
ov aÃ§Ã£o
Ġata ques
Ġp ura
Ġobs erva
I nt
201 0
4 3
et im
ĠMic rosoft
g Ã£o
ĠT im
Ġsol d
jet os
ĠOp eraÃ§Ã£o
At Ã©
Ġt an
ĠAl to
ĠEs pec
Ġe fic
Ġamb as
eix eira
Ġv inte
ĠX V
Ġnut ric
ĠF unc
IV O
v em
Ġconf ira
Ã¢m p
ĠhistÃ³r ica
qu Ãª
Ġtur istas
ĠHon or
ĠD al
Ã³ f
Ġm ig
ĠN ic
Ġind ire
OR MA
Ġgol pe
v ers
Ġex ag
ĠL ag
Ġ6 5
uss Ãµes
d eiras
Ġdetal he
w ay
ĠestÃ¡ dio
Ġn ela
ĠPre Ã§o
Ġdim ensÃ£o
Ġtorn am
E d
6 1
ĠM estre
ĠD ados
eb re
Ġcomb ina
ĠS EN
por tar
Ġmanifesta Ã§Ãµes
Ġp ne
Ġin just
ub ra
int hia
Ġpag amentos
Ġperd ido
Ġfisc alizaÃ§Ã£o
ĠhÃ¡b itos
Ġt eremos
ĠV an
Ġgrav idez
ĠV ou
Ġpra to
Ġesqu ema
Ġdetermin aÃ§Ã£o
ĠA st
A qui
Ġcomb ater
ĠE las
Ġus am
Ġlic enÃ§a
it i
Ġinclu ir
Ġv istas
eg as
ĠV ar
Ġav iso
ÃŃm ica
Ãºl io
ĠRafa el
d ire
Ġa reia
Qu anto
Ġinte raÃ§Ã£o
Ã³l ico
Ġaprove it
Ġinstal ar
ĠÃ¡l cool
Ġadicion ar
Ġl anÃ§a
Ġt ol
ĠsÃŃmbol o
le to
Ġsusp ensÃ£o
ĠSo usa
G B
Ġh orm
ĠG ara
Ġcoorden ador
Ġpa u
ifica ndo
ent ados
are n
u as
ha el
h ttp
Ġfru st
ĠGabri el
Ġf lor
un as
Ġme rec
Ġaplic ada
Ġo ral
Ġb e
ĠD ES
Ġorg ulho
re tar
ad Ã¡
Ġt ido
Ġse ca
Ġprat ic
Ġjust o
Ġco uro
abil idades
ĠiP hone
Ġrepres entar
Ġros a
v ios
ĠEs sas
Ã©c ia
ĠF aÃ§a
k o
Ġrep roduÃ§Ã£o
Ġpud esse
Ġlin das
T RO
Ã³d ios
Ġbase ada
ĠÃģ gua
Ġl Ã³gica
ĠS indicato
Ġad oro
G U
Ġestad uais
Ġpar Ã¡
Ġrelev antes
Ġdever iam
Ġopin iÃµes
Ġinstru Ã§Ãµes
Ġma ta
Ġempreend imento
Â ³
Ġcond uta
Ġgas tar
g en
tu ais
Ġquere ndo
ĠCria Ã§Ã£o
T RA
Ġpass agens
Ġcent ros
Ġtrajet Ã³ria
int os
Ġc ron
Ġlig ar
Ġblog s
Ġquad ros
Ġrom Ã¢nt
ina nte
Ġado ra
ĠA do
Ġprogram atico
ĠFel ipe
Ġtr ilha
Ġafirm ar
Ġden unc
Ġcons ag
ĠMach ado
ĠTÃ©cn ica
Ġidos os
Ġres umo
ĠAn Ã¡lise
ĠEs porte
B B
feiÃ§o amento
ĠA comp
ac Ãªut
ĠCo p
ĠW hat
T udo
Ġpriv acidade
ĠFo nte
ec cion
Ãĩ A
ĠBat ista
Ġ25 0
n al
ĠMu itos
Ġincr ÃŃveis
ĠMÃºs ica
Ġpropag anda
g eral
ĠB lu
Ġdes n
i Ã¡vel
ĠG l
Ġparticip aram
d en
Ġdetermin ar
Ġsolic itaÃ§Ã£o
Ġimag inar
ĠC and
Ġg ame
Ġb iol
ĠAg ricultura
Ã©l io
Ġjornal istas
ĠP ira
ĠB omb
ion Ã¡ria
Ġperce pÃ§Ã£o
Ġm Ãºltip
Ġtermin ou
Ġatribu iÃ§Ãµes
Ġbatal ha
Ġconsegu imos
ĠC er
j ado
Ġrefer Ãªncias
Ġconsid eraÃ§Ã£o
Ġno vela
1 00
Ġres ulta
Ġconc ret
Ġcor pos
ĠJud iciÃ¡rio
f il
Ġpor n
ig aÃ§Ã£o
Ġconte ndo
Ġfest ival
inthia ns
Ġmante ndo
ĠC ou
Ġb oc
Ġt amb
ac os
Ġpos iÃ§Ãµes
ĠperÃŃ odos
Ġreun ir
Ġfisc ais
era dos
Ġman eiras
ĠT est
Ġad er
Ġsuper merc
ĠEd itora
ig ar
Ġart ific
Ġcar b
Ġdefe nde
ĠUt iliz
ĠR og
Ã³l io
Ġimped ir
Ã¡ qu
Ġdos e
Ġpre fere
Ġestabelec e
f ab
Ã³s p
ĠOut ro
Ġnatural mente
Ġac olh
Ġar rum
Ġfemin ina
ĠPsic ologia
ĠM ec
ĠNeg Ã³
ÃŃ vio
Ġ[ ...]
T V
ĠJa ir
Ġf asc
ĠL iga
Ġ4 7
ĠSegu nda
Ġdes port
Ġt es
Ġin ex
Ġar bit
ĠD in
ag as
Ġmar car
iz am
Ġdesc riÃ§Ã£o
w ard
Ġtec idos
t us
Ġtrans m
Ġconf ro
Ġauto n
Ġama re
ana us
ar ias
ĠCom b
Ġra d
Ġregist rado
Ġabsolut amente
ION AL
Ġprepara do
Ġmus cular
ĠId ent
Ġtra d
ER S
Ġmat Ã©rias
EI RO
n ess
Ġt ensÃ£o
ĠS oa
Ġconfirm aÃ§Ã£o
ec em
Ġpl en
Ġcert idÃ£o
Ġbol sas
ĠD I
Ġmascul ino
n ico
Ġtra ducao
Ġha viam
Ġpla y
Ġdestac ar
Ġc ro
Ãº p
Ġtom ou
ĠS and
ĠPre feito
ĠcomeÃ§ ando
ĠAnd rade
Ġemoc ion
Ġmar gem
ĠAp enas
Ãº jo
ament ais
b ia
Ã ł
ess as
P od
Ġtom ando
Ġarro z
Ġb i
Â» ,
Ġpromo Ã§Ãµes
Ġne ut
ĠC orte
Ġba ta
Ġlet ra
ion s
ĠProd utos
Ġno Ã§Ã£o
Ġsom bra
B O
Ġp q
Ġdivers Ã£o
Ġemerg Ãªncia
on so
ĠV ide
Ġor Ã§
Ġcresc ente
Ġadvers Ã¡rio
l ando
er do
Ġro ck
ĠDel eg
Ġmonito ramento
u Ã¡ria
ĠR oma
Ġele tro
Ġexplo rar
Ġc av
Ġdedic aÃ§Ã£o
Ġa ze
Ġsent i
ĠInst al
Ġespanh ol
an n
Ġc aixas
ĠB ru
Ġim un
Ġtrans iÃ§Ã£o
Ġsub ir
Ġsho pping
Ġtraz endo
min o
Ġunivers idades
Ġs um
Ġprov en
Ġim ig
Ġma qu
Ġinc ap
ĠAp ple
Ġcrit Ã©rio
ĠMar co
Ãºst rias
ĠMÃ© xico
I TO
Ġfotograf ias
ĠCl ique
Ġexcel entes
Ġsec und
ĠP h
Ġen quad
Ġma quiagem
Ġpens ei
S ou
Ġclara mente
Ġposterior mente
Ġv inha
ul tores
Ġlic enc
ĠRe f
Ġrefere ntes
ĠS elec
ĠB ur
â Ĥ¬
ĠÃł qu
Ġint ensa
ĠAc esso
Ġempreg ado
Ġac ol
w ork
em at
iv ados
Ġac ord
âłĢ âłĢ
ei ga
Ã§al ves
Ġf res
Ġsegu ido
pos tos
Ġaplic ado
Ġconsid er
Ġavi Ã£o
Ġm ando
Ġch eiro
ĠAn im
Ġrel Ã³g
uc le
Ġurb ana
Ġsent enÃ§a
Ġexpl ora
Ġre vis
ĠD OS
ess ar
Ġlev am
Ġlabora tÃ³rio
Ġf Ã£
En quanto
Ġgaro ta
ĠA os
ĠN ÃĥO
ian as
Ġcoop eraÃ§Ã£o
Ġam igas
Ġcham ados
e us
Ġinf laÃ§Ã£o
Ġpen so
il he
ĠEd ital
ĠtrÃ¡f ego
ĠR esta
are jo
ĠPesso as
Ġp le
eix es
ĠObrig ado
Ġequival ente
ec h
ĠD er
Ġcost uma
Ġag ricultura
ĠGu ia
Ġc la
ĠÃŃ nt
ĠbÃ¡s icos
Ġat ivo
ĠE SP
Ġassegu rar
f one
uso u
ic lo
Ġelev ada
Ġfiz emos
Ġbra Ã§o
ĠC af
ĠEn g
ÃŃ ceis
Ġpres ervaÃ§Ã£o
Ġgrav aÃ§Ã£o
z i
ĠT eixeira
T enho
ĠAl gumas
Ġestiv esse
Ġaparec em
Ġmetod ologia
ĠS um
ma to
ĠJ an
ane amente
Ġvi rou
ĠSal a
us ias
ĠP ublicado
Ġter mina
C I
Ġfaz emos
ĠPe qu
6 9
Ġl ot
Ġin oc
Ġcal c
m od
ene f
Ġfabrica nte
Ġda no
it Ã¡rias
ĠeletrÃ´n ica
Ġo x
Ġhab ilidade
ĠD ra
ĠCor inthians
ĠAra Ãºjo
ĠRes pons
M esmo
Ġate nde
Ġred aÃ§Ã£o
Ġinteress antes
IM ENTO
Ġtranqu ilidade
Ġcal cul
Ġrev istas
ĠR ot
z il
ĠÃ© t
Ġvergon ha
Ġped ras
Ġgarant indo
Ġestrang eiros
Ġass essoria
Ġpe ito
Ġjorn ais
Ġconst antemente
ago as
M E
b erg
A b
Ġv inhos
ĠN ada
ĠV ere
. :
Ġ4 4
Ġind icar
Ġreceber Ã¡
Ã´n icas
Ġinte g
ĠSem ana
Ġcoloc ando
âĢĻ .
6 7
Ġc Ã£es
out ube
ilh er
Ġgost am
ust o
Ġrespo ndeu
Ġcerim Ã´nia
Ġdif ÃŃceis
Ġpossu ir
ĠPalav ra
Ã©t icas
Ġprev en
P J
ĠD VD
Ġg in
Ġac t
ĠL ava
Ġfug ir
P O
Ġap el
Ġro ta
Ġav is
Ġpublic ou
Ġ199 8
r ing
ĠEx istem
Ġk g
Ġref eiÃ§Ãµes
americ ano
ĠR ela
aliz ando
Ġpass ei
Ġencontra dos
Ġrele vante
Ġin se
ĠL Ã¡
Ġadap taÃ§Ã£o
ĠV in
ĠVal or
Ġrepresent am
gues ia
Ġbusc am
ĠS ur
Ġconvers Ã£o
Ġvot ar
Ġentrev ist
Ġb ate
ĠF lÃ¡
Ġinv ad
Ġinter rom
ĠDisp on
ĠS ER
idar iedade
il d
Ġbeb ida
200 9
gra duaÃ§Ã£o
ĠPos sui
Ġindisp ens
ĠCol Ã©gio
Ġnut ri
ĠSoa res
ol os
Ġcompet Ãªncias
Ġess Ãªncia
Ġun has
Ġext erno
Ġrep roduz
ĠSe ndo
Ġcomple tar
Ġ199 9
Ġweb site
, ...
ĠS ustent
Ġinc on
Ġrece p
Ġt ese
Ġpara da
du Ã§Ãµes
Ġaprov ada
ĠInf antil
Ġpar Ã¢m
Ġcan Ã§Ãµes
ĠAte ndimento
Ġefic Ã¡cia
Ġadm ira
Ġexist ente
Ġconstitu i
Ġprecis ava
Ã´n imo
ĠPr Ãªmio
res sÃ£o
Ġest abilidade
Ġat mos
Ġinc om
Ġcomunic ado
elec om
Ġqu Ãª
ĠM etro
ens as
in er
Ġt ons
Ġdesap arec
in ando
Ġobriga Ã§Ãµes
Ġo vos
Ã³g icos
Ġfre qÃ¼
Ġvo os
cri pt
Ġclass es
ĠI B
ĠGon Ã§alves
Ġran king
Ġd ram
Ġra dio
Ġemo Ã§Ã£o
Ġadic ional
Ġextre ma
Ġvirtu de
D a
M an
f os
Ġcoloc aÃ§Ã£o
Ġs Ã£este
Ġbas es
Ġmag ist
l Ã¢ndia
Ġsim ult
Ġfed erais
N O
ra ta
ĠS eleÃ§Ã£o
Ġassoc iado
Ġemb ar
ĠS c
Ġorig inais
Ġacad emia
Ġ- ,
ire i
Ġag Ãªncias
ĠUn ido
Ġexerc er
ĠS ag
Ġac aso
A g
Ġno ites
ro up
Ġint roduÃ§Ã£o
Ġa tores
ere i
ĠBa irro
Ġarmazen amento
Ġc adeira
M L
s s
ĠN or
Ġpercent ual
ĠcÃ³p ia
Ġpass eios
ĠEd iÃ§Ã£o
ICA ÃĩÃĥO
V E
nc ial
ĠU ru
ST I
ju nto
ĠF olha
Ġdep artamento
ĠCruz eiro
Ġreceb eram
Ġque ira
ĠA Ã§o
ES S
Ġrelat or
ĠAugu sto
c m
Ġse Ã§Ã£o
ĠSegu ro
Ġvaria Ã§Ã£o
end ado
Ġconstru ÃŃdo
Ġdetermin ados
Ġreceb imento
Ġenfer m
Ġcor tes
Ġresol vi
ĠRe is
---------------- ----------------
Ġhistor ico
Ġsab edoria
Ġnecess ita
Ġocorr ido
Ġs essÃµes
Ġcres ceu
re am
Ã§ adas
ĠT ot
G u
Ġs ÃŃtio
ĠEs pero
Ġconfigu raÃ§Ã£o
av era
i ri
Ġest up
Ġempre gos
Ġconsult oria
B em
Ġdo uto
ce ta
Ġest oque
ĠT ar
Ġinicial mente
Ġevent ual
ĠLiv ros
Ġb eira
ĠSe ja
Ġant igas
ĠG ol
Ġsemelha ntes
inop se
Ġb er
ĠPÃ¡g ina
Ġmat emÃ¡tica
r Ã´
ad inho
ĠM ater
el has
ĠB ac
Ġvalor izaÃ§Ã£o
Ġpro vis
ĠSil v
Ġinicia tivas
Ġrique za
Ġacost um
ian Ã³polis
ĠSem inÃ¡rio
Ġepis Ã³dios
rim as
Ġcompre end
Ġneg ra
Ġde pos
ĠCl Ã¡
Ġplata formas
ÃŃde o
Ġseg mentos
a qu
Ġre iv
al i
Ġde pressÃ£o
at Ã©
Ġpre viamente
Ġle ia
Ġ9 9
Ġcam ada
Ġencont ramos
Ġd id
Ġest ando
Ġat raÃ§Ã£o
Ġesp alh
ĠSe x
Ġc em
Ġres enha
Ġaum entando
Ġgere nte
TU RA
Ġprob abilidade
Ġcol her
Ġvar iados
Ġimpres so
Ġconst antes
ĠÃį ndia
E l
b ack
Ġes f
Ġsem entes
Ġpos tar
ĠQu ad
Ãĥ o
ES SO
ÃŃ mos
ĠclÃŃn ica
P B
Ġcas ais
ĠPres idÃªncia
Ġrea just
qu ias
Ġav anÃ§o
ora l
cr itos
= =
Ġv iva
an so
Ġpl eno
Ġpergunt ar
Ġdiretor ia
Ġal tas
Ġh Ã³sp
Ġint enso
Ġprov idÃªncias
Ġre ve
Ġaf ric
Ġalugu el
Ġconsequ Ãªncia
ĠsuÃŃ te
Ġpol u
Ġval idade
Ġdesenvolv ida
ar k
de Ã§o
u u
qu edos
ĠR S
Ġtrans forma
Ġro da
ĠsÃ³ cio
Ġcapac itaÃ§Ã£o
ilher me
ion Ã¡rios
IN G
ĠfÃŃs icos
ĠOb jet
ĠPar k
r Ã³p
ĠQu ero
ĠM em
az z
Ġdisse ram
Ġposta gem
Ġpro met
ĠAlb erto
O r
Ãªm ios
Ġtrim estre
ĠM ost
Ġneg ro
Ġexig Ãªncias
ĠN ut
Ġdedic ado
ĠtrÃ¡f ico
Ġensa io
Ġf ases
Ġtra ma
Ġnov inha
Ġconv id
ĠsÃ©c ulos
Ġn eu
ĠCo elho
rim ir
s ol
ĠM G
ir ros
Ġreconhec ido
ĠVer m
Ġinim igos
Ġinteress ado
umin ense
d amente
or gan
du ras
ĠFisc al
Ġsua ve
Ġg reve
Ġparc ela
Ġconqu istou
Ġp eixe
Ġsaud Ã¡veis
Ġauton omia
Ġf ur
Ġob te
Ġconsegu iram
ĠPal Ã¡cio
ĠPetro bras
ĠEs paÃ§o
Ġloc aÃ§Ã£o
Ġapare ceu
Ġrecom endo
Ġdiferenc ial
T I
M eu
Ġb uc
Ġresol veu
Ġhomen age
Ġdout rina
Ve ja
Ġo ndas
Ġins u
Ġapro fund
ĠD eixe
Ġcontra tar
Ġdesc reve
T er
b Ã¡
ĠI ndepend
Ġcor t
Ġcal ma
ĠbÃ¡s icas
Ġrelat Ã³rios
Ġflorest a
Ġado Ã§Ã£o
Ġ199 0
an i
Ġop tar
ÃŃd ias
ĠRec ord
Ã© rea
Ġnecess ariamente
ac ial
Ġ6 00
Ġdese jos
Ġlig ados
Ġindepend entemente
im bra
ai os
Ġespec t
Ã¡g io
Ġcara s
Ġabra Ã§o
Ġsalv aÃ§Ã£o
Ġtrans pare
ĠPar te
Ġapos entador
b at
Ġinter med
Ġcondicion ado
Ġtorc ida
ĠA zul
Ġrevol uc
Ġar r
Ġest am
m at
r idas
Ġl am
ĠS eb
Ġfal am
e te
Ġf aixas
e qu
Ġent usias
ĠOut ra
M uito
Ġprof undo
Ġin Ãºmeros
Ġb ord
ĠL os
est ino
Ġacontec imentos
. Â§
Ġfre te
Nos sa
Ġpac iÃªncia
ĠTe res
ĠRegul amento
ĠM Ã¡r
ĠV I
ĠSe us
Ġcrist Ã£
Ġinv as
Ġaval ia
ĠPad re
Ġg ama
ĠfenÃ´m eno
Ġmelhor ias
Ġmat rÃŃc
Ġs Ã©ries
ÃŃf ico
Ġmotiv aÃ§Ã£o
ĠS C
Ġal inh
Ġescol has
Ġdisc rim
Ġrenov aÃ§Ã£o
x ima
Ġc erc
Ġh em
Ġins p
Ġreserv as
Ġges tores
Ġdisc ussÃµes
ĠAp rove
Ġgera Ã§Ãµes
Ġrelacion ado
Ġescola res
Ġtal entos
Ġdoc es
Ġintelec tual
Ġr ica
ĠV ista
ĠFern anda
c ind
ĠV ai
ĠIn ic
Ġinvestig aÃ§Ãµes
Ġab st
ĠTit ulo
ĠAl c
Ã¢m ico
Ġacontecer Ã¡
Ġa nc
Ġajud Ã¡
Ġapresent adas
ou co
Ġ4 1
ID A
Ġo ra
Ġtrat ado
in Ã¡rios
en n
Ġcr Ã©ditos
ĠDes sa
ĠA dic
Ġelim inar
Ġmen u
Ã¡l ises
Ġpr Ã¡tico
Ã³r ica
ĠN aÃ§Ãµes
= "
N as
ĠP ublic
Ġpert ence
ĠJ ack
Ã´n ios
Ġdim ensÃµes
Ġf iel
lo w
Ġcart as
Ġexp and
ĠprÃ© via
od Ã£o
ĠRod ov
Ġmecan ismos
ĠApo io
Ġvere adores
Ġton eladas
Ġ Ä
Ġo us
il ton
Ġcurios idade
Ġpro nta
Ġte or
Ġens ina
Ġdesfrut ar
Ġp ere
Ã¡ vamos
ĠS ites
ĠT am
ĠF A
Ġk it
it ana
Ãª me
ĠL og
ĠPat rim
ĠcientÃŃf ico
y st
Ġf i
ĠT R
Ġsen Ã£o
ĠLoc al
Ġcorret amente
k m
ĠO este
Ġv ic
ĠCont as
Ġdeclara Ã§Ãµes
ĠS tar
Ġprat icar
ĠD eix
ĠPre cis
G ost
ĠelÃ©t rico
Ġsupera r
B rasil
ĠEs pera
Ġatra ir
v emos
Ġen riqu
Ġpo nte
Ġatra so
Ġderro ta
Ġexc ess
IN A
Ġminist ros
6 2
po ndo
Ġplac as
Ġcom entou
Ġda va
ce p
ork sho
aran ja
orm es
Ġforn ecimento
ĠA h
Ġtrans parÃªncia
Ġpost s
Ġso zinha
Ġparticular mente
ĠMin istro
Ġand amento
ĠSto re
Ġt ribunal
ic ano
Ġrest ante
ĠT i
Ġadminist rativo
Ġinterv alo
Ġsubstitu iÃ§Ã£o
p ed
Ġrespec tivos
Ġsaf ada
u ela
ĠR am
ur u
P os
R eg
ri Ã§Ãµes
ĠBra ga
Ġigre jas
Ġexce Ã§Ã£o
Ġampl amente
Ġ {
Ġsa ia
ĠAmaz Ã´nia
ĠCl ÃŃn
ag re
ĠLe v
Ġefet uar
Ã Ģ
anh os
ro f
Ġbrilha nte
Ġa utos
Ġ4 3
Ġcan Ã§Ã£o
Ġsegu em
Ġvol tado
ĠMa x
Ġpor to
ĠF arm
Ġestim ular
Ġadic ionais
p al
ĠL as
Ġpart idas
int ura
Ġdesenvolv idos
L O
Ġdign idade
N esse
ĠC F
Ġband as
ran ge
Ġdema ndas
Ġc ra
ĠM anaus
Ġn et
de us
Ġdesc ar
Ġori entaÃ§Ãµes
Ġdes lig
ĠCom itÃª
Ġid Ã©ias
Ġaj udou
Ġprev istas
A nt
Ġref rig
Ġcorpo ral
Ġcidad ania
Ġatu alizado
ĠÂ °
Ġdom ic
Ġimp uls
Ġ9 5
Ġestabelec ido
Ġremun eraÃ§Ã£o
in am
in co
Ġigu ais
ĠMul heres
ï ¼
ĠW ar
ĠV ig
ato m
Ġespecific amente
Ġfar inha
Ġvenc edor
ĠJoa quim
ĠP el
Ġint im
Qu al
Es c
ec endo
T S
Ġc Ã£o
Ġter iam
ĠR ap
Ġinf lam
Ġconsequ entemente
Ġprop Ãµe
Ġacess ÃŃvel
Ġcont ac
Ġdec orrer
ĠMa ur
bl og
Ġconsc ient
Ġpas tor
ĠEst ratÃ©g
ĠgrÃ¡f ico
V amos
Ġorgan izada
Ġp Ã¡t
ent Ã¡rios
Em bora
Ġbas icamente
Ġvara nda
Ġdemas iado
Ġrep ass
Ġpreenc her
Ġpreocup ar
s i
Ġf irme
Ġte to
Ġra Ã§a
ĠdÃ© b
ĠP are
if ere
Ġcham adas
Ġfuncion Ã¡rio
Ġanim aÃ§Ã£o
Ġpartic ulares
Ġint it
Ġbom b
Ġo mb
id em
Ã¡t il
Ġdivert ido
Ġtrans port
V AL
Ġde dos
Ġmin uto
ĠGu ar
ro d
ĠP ot
ĠAd ria
ĠCP F
P r
ĠCan adÃ¡
Ġlav ar
ĠWill iam
ad ia
Ġse co
Ġpublic ar
ĠMan ual
ĠAdv og
i edades
Ġconc orrÃªncia
Ġimag ina
V er
Ġinvest idores
Ġcirc uito
Ġdiminu iÃ§Ã£o
Ob s
Ġcor tar
Ġped indo
Ġconfirm ou
re tos
Ġrec ol
v ille
l ara
id ental
Ġconf usÃ£o
Ġata cante
P l
Ġneg ros
Ġl ut
Ġap p
Ġfech amento
Ġbu ceta
Ġol hando
ĠLet ras
ĠB itcoin
ob o
Ġdemonst ra
D ou
il as
Ġesta Ã§Ãµes
Ġconstru ÃŃda
Ġdef ine
ĠD ublado
Ġbl oco
Ġti ro
Es pecial
ĠJuv ent
ĠT I
aliz ou
Ġexpl os
Ġprov ar
Ġtranqu ilo
Ġprior idade
Ġr urais
Ġconst a
ĠLe ite
f ogo
om et
Ġsuc ed
ÃŃ v
e ar
Ġb uro
Ġleg it
ĠDeput ados
Ġrast re
c ons
Ġb rig
Ġparcer ias
m ica
Ġre to
ĠC B
5 8
Ġigual dade
ĠquÃŃm ica
l ab
Ġcomp rei
Ġestabelec imentos
ĠAcad emia
T emos
Ġm iss
iv ada
ul ando
Ġpo eta
ĠeletrÃ´n icos
ĠEqu ip
j amos
ĠT el
ÃŃl ios
ĠAss istir
Ġobject ivo
te ra
Ġgra n
Ġparticip a
Ġlim po
Ġpais agem
Ġrespo nde
ĠArt igo
C am
Ã³r dia
Ġed iÃ§Ãµes
Ġentrev istas
ĠM ant
Ġsubstitu ir
Ġestiv eram
6 3
P rim
ĠR onal
Ġespor tes
Ġconform idade
w a
Ġc are
or to
Ġpres idÃªncia
Ġsorte io
ÃŃ so
Ġobrig atÃ³rio
Ġviv endo
Ġder ru
Ġrelig iosa
Ġcient istas
ud ia
Ġapresent ando
200 8
tor ia
inte nd
Ã³s itos
P RO
ĠCar naval
Ġcri pto
IA L
Ġconclu ir
abil itaÃ§Ã£o
ĠBas ta
Ġf od
Ġespera do
ĠOr lando
Ġat ento
Ġes mal
Ġpa uta
Ġcurt ir
ĠÃįnd ice
Ġre ino
S obre
T al
Ġrec he
Ġargum ento
Ã©r ico
Ġprov Ã¡vel
Ġsubst Ã¢ncias
Ġadia nt
d Ã£o
ÃŃt icas
ĠCal if
Ġv ÃŃnc
Ġsem an
Ġcotid iano
era Ã§Ãµes
Ġlev antar
adr Ã£o
Ġcoorden aÃ§Ã£o
ĠCast elo
id s
Ġest Ãºdio
Ġcontribu iÃ§Ãµes
9 3
Ġbeb er
Ġchurras queira
Ã¡ gua
Ġalem Ã£o
er Ã¢ncia
ist ema
ĠE g
et h
ĠPro va
Ġsuje itos
Ġpubl icaÃ§Ãµes
u gar
ul ha
Ġele gante
Ġdivulg ou
ent ais
ĠP into
Ġcard ÃŃ
g et
Ġobserv aÃ§Ã£o
ĠP ag
gu ra
ell i
oc al
Ġestrang eiro
Ġ ..
Ġter rit
âĢ¦ .
Ġgaro to
Ġdis tante
Ġaqu ecimento
Ġnaveg ador
imar Ã£es
M T
i Ã³d
Ġrealiz ando
Ġgu itar
Ġbanh eiros
Ġj uramentada
Ġdes enc
Ġev idente
Ã ±
Ġvide os
ĠEx ame
ĠSim ples
h adas
r imo
Ġque ijo
at em
Ġrec omp
Ġinf ec
Ġacontec em
Ġproduz idos
Ġjunt ar
EST ES
P G
Ġsob era
Ġsegu ros
Ã¡b eis
in st
ĠLiv re
ion ista
Ġro la
ĠReg istro
Ġab enÃ§o
Ġmob ilidade
Ġbic icleta
Ġ up
it ei
ĠG ust
Ġnas ce
Ġprotagon ista
minist ro
Ġmo nte
L eg
Ġre nd
ĠB ento
Enc ont
Ġap artamentos
Ġpre cios
ĠMa ia
rib ut
Ġgratu itamente
Ġdiscipl inas
ĠSof tware
Ġno bre
ist Ã£o
erv o
Ġacred itam
Ġempre ende
Ã¡b io
Ġsens ibilidade
Ġmoto c
Ġsal vo
Ġband eira
Ġemisso ra
ĠM elo
D ire
io la
Ġperceb e
ĠincÃªnd io
Ġsu bl
Ã³log os
idad a
Ġoc orrem
ĠpÃ´ r
9 1
ĠâĢ Ŀ
Ġr icos
Ġvi eram
C L
Ġenvol vimento
AD A
Ġbrinc ar
ĠparÃ¡ grafo
Ġde i
man n
Ġconden ado
Ġt um
Ġprecis Ã£o
Ġev itando
Ġrep ente
Ġprev al
Ap artamento
gu st
co a
Ġinst ante
Ġs enhora
? âĢĿ
ec on
Ã©m io
Ġcrim inos
Ġconc eb
ĠRec eb
ar Ã©
ĠD isc
Ġa re
Ġindust riais
Ġcircunst Ã¢ncias
Ġsac erdo
ĠB ase
Ġper ca
Ġfal ei
Ġba irros
re f
ĠS AN
ĠR amos
ĠE DU
Ġestre la
ĠProte Ã§Ã£o
Ġnar rativa
al has
Ġcons elh
Ġentre ten
Ġcorre Ã§Ã£o
Ġvaria Ã§Ãµes
. *
al Ã©m
era dor
ĠNe ves
Ġ199 7
aca o
. âĢ¢
ĠPara bÃ©ns
ĠInform Ã¡tica
E F
ĠIn ovaÃ§Ã£o
à ¹
um os
ĠM y
ĠLegisl ativa
Ġac tu
el s
Ġassoc iaÃ§Ãµes
Ġdemonst rar
ĠRoc k
Ġre ndimento
Ġcomplem entar
ĠmÃ¡s cara
Ġc iÃªncias
il er
ĠF esta
Ã³r cio
RAS IL
ĠS omos
Ġdes igual
Ġh ol
gua Ã§u
ĠEvang elho
ad s
ĠM Ã£e
Ġfrequ entemente
Ġtempera turas
ura da
orn os
Ġdep Ã³sito
STI TU
o re
ĠA ta
Ġpro gress
Ġfic amos
ĠMin ist
Ġlib eraÃ§Ã£o
Ġdire tora
Ġencont rada
ĠS ac
R G
io terapia
iz ont
ĠO S
Ġpraz os
ĠC ho
Ġl ava
aria is
Ġmen inos
de al
Ġhosped agem
en al
ĠW orld
Ġceleb raÃ§Ã£o
ar io
ĠM Ã¡rio
ing er
Ġof ic
Ġpre ta
ĠQual quer
Ġital iano
7 3
Ġreceb endo
Ġali Ã¡s
ĠT oc
ant is
ob erto
Ġmil ho
Ġf om
ou ve
Ġtal ento
ĠZ Ã©
Ġcole ga
Ġconsult ar
Ġfal ha
Ġrece pÃ§Ã£o
] [
ei riz
Ġnutri entes
Ġcons ecut
Ġdeleg ado
ĠNegÃ³ cios
ia ntes
Ġnome adamente
S empre
c ent
ĠC ity
ĠCh ile
Ġreflet ir
Ġexplic aÃ§Ã£o
Ġurb ano
americ ana
a u
Ġexpres sa
Ġentreten imento
f ield
Ġm obil
Ġmarav ilhos
P OR
Ġest ra
Ġsegu idores
Ġvi rar
Ġ Ã³dio
Ġ4 6
Ġro das
Ġsol t
Ġouvi u
g ica
s er
ĠTr Ãªs
Ġdist ingu
Ġt utor
Ġdi Ã¡rias
ĠPesso al
Ġest ilos
ĠL ink
ĠðŁ ĺ
P ol
Ġinform ado
Ġfut ura
bo x
Ã³l ar
Ġt ru
ik a
Ġcomercial izaÃ§Ã£o
l ei
el la
ĠN enh
ĠL abora
ĠGu imarÃ£es
Ġpara bÃ©ns
Ġpro nt
ĠAuto m
Ġpobre za
Ġtran st
Ġali en
um ÃŃnio
Ġpesso almente
Ġampl iaÃ§Ã£o
ĠFre itas
Ġfiz er
Ġtest ar
r inha
Ã§ amb
ĠN Ãºcleo
P res
ĠT ipo
Ġ4 9
Ġfica va
ĠP O
ĠGu ilherme
Ġviol aÃ§Ã£o
Ġtor ce
ĠEmpre go
Ġd arÃ¡
ul so
ĠI F
duz ir
Ġper das
ĠPr ÃŃncipe
Ġsignific ativa
ĠF ora
pres as
Ġesc uro
Ġquad ra
Ġsimilar mente
T OR
Ġsem i
Ġterap ia
Ġesp al
Ġincent ivo
ĠCar doso
ĠRo usse
Ġassum iu
ĠPrinc ip
i rou
Ġdev ia
Ġdist rito
Ġsof rem
ĠLu is
Ġcompet ente
Ġre tom
ĠI SO
Ġutiliz am
Ġdel ib
Ġcostum am
ĠE t
co Ã§o
Ġ8 5
Ġvend idos
iscipl ina
ĠC amb
Ġdep ender
ĠlanÃ§ amentos
Ġt oca
ĠE L
Ġespecial izados
IN O
Ġcoop era
ar to
Ġhosp itais
it aram
ĠR ol
ĠR ub
ĠUn idas
Ġcomunic ar
g in
Ġdec ide
Ġju vent
c ial
ĠP rem
Ġb ag
ĠM ano
ĠTur ma
Ġescla recer
8 3
ĠR ad
Ġpre dom
Ġcorrespo nde
ĠDes criÃ§Ã£o
og rama
at Ã³rias
Ġdefin ida
ĠVer Ã£o
Ġparlam entares
or dos
' .
Ġsubst Ã¢ncia
ĠDiretor ia
ĠJun ior
Ġn aÃ§Ã£o
res sa
ol or
Ġtorn eio
ĠCa usa
ĠclÃ¡ss icos
Ġp eixes
ĠM oda
v ias
Ġpou p
ĠCar ta
O l
S u
of f
Ġjust ific
Ġpr Ãªmios
uto res
ĠA PR
ĠT O
Ġcir urg
re za
iv aÃ§Ã£o
grÃ¡f ico
ĠP IB
ĠJ ato
Ġcult uras
ĠhÃ¡b ito
Ġgig antes
Ġcon heÃ§o
ĠMo reira
Ġinstal ado
Ġm ic
Ġmedic amento
Ġness as
Ġd iga
ndo n
Ġad esÃ£o
ĠCon heÃ§a
Ġprocess amento
ĠDem oc
ĠAtl Ã©tico
i j
Ġb ura
Ã©s ar
Ġv Ã³s
Ġintern os
Ġreconhec ida
Ġcomem orar
Ġexce p
ut ela
am as
Ġemp ate
el son
Ġper do
ĠH id
Ġpoder oso
Ġag reg
Ġmo rar
Ġnaveg aÃ§Ã£o
D T
Ġ ï
il es
Ġap et
cha ve
Ġgere nc
Ġmist er
V C
Ġmus eu
8 9
Ġdef ens
ch as
Ġvit Ã³rias
ĠA ÃŃ
Ġdec reto
Ġinic io
Ġeleito res
ĠCir c
Ġl as
Ġproduz ida
Ġfal has
at riz
Ġprev istos
c hos
ĠS ap
ĠVas co
qu em
ul am
Ġposs amos
Ġbac ana
Ġsuspe ito
ĠFlor ianÃ³polis
f it
Ġrec onstru
ĠCont abilidade
Ġpesquis ar
5 6
Ġpen et
Ã³t icos
Ġoferec idos
Ġperde ndo
Ġreper c
y n
ĠA ux
Ġrel ativa
g ia
ĠH ad
Ġfras es
Ġconc ursos
Ġform al
ĠConc urso
Ġvitam ina
Ġest Ã©tica
ĠO rig
Ġcomem oraÃ§Ã£o
Ġlav agem
ĠCoorden aÃ§Ã£o
s h
ĠL t
Ġmus icais
Ġfamos os
ĠD os
ĠUnivers itÃ¡rio
m on
Ġaposentador ia
> <
Ġcon ferÃªncia
ĠR ES
Ġcri ados
Ġtom a
ĠAli Ã¡s
Ġn estes
ĠEv entos
Ġv ila
Ġf aria
Ġcom od
Ġpara d
on i
Ã³l icos
Ġest resse
enh as
Ġtom adas
Ġbar riga
ĠcrÃŃt ico
Ġad ulto
g ados
ĠF ica
ita va
Ġdefin itivamente
Ġaut ent
ĠBern ardo
qu is
Ġre do
Ġpos itivos
Ġobjet iva
ĠaÃ©re as
ĠF M
ĠEst as
Ġrespons abiliz
Ġverm elha
Ġreg ionais
ĠEx tra
Est Ã¡
Ġharm onia
Ã¡st icos
Ġressal tou
ul ga
ĠF erra
Ġexce to
to rado
Ġlim pa
Ġdesej ado
RA ÃĩÃĥO
Ġnegoc iaÃ§Ãµes
Ġmante ve
j ac
Ġdo na
ĠF emin
ĠhÃ³sp edes
a k
Ġsent idos
Ġpros segu
ĠS w
ĠR h
ual idade
ĠCamp us
ĠI mag
Ġreform as
P RE
Ġir rit
Ġobt enÃ§Ã£o
Ġjuvent ude
G A
ĠM AN
Ġdirig ir
ĠindÃŃg enas
ur y
Ġenc aix
ĠContinu e
Ã¡t ima
Ġdifere ncia
ĠGr Ã¡tis
P art
igu e
Ġlig aÃ§Ãµes
Ġre voluÃ§Ã£o
Ġcomplic ado
% ),
Ġneg ativo
Ġfortal ecer
ĠFlo rest
Ġdivulg ada
ĠRen ato
Ġingres so
TA S
Ġregist rar
ĠDo is
?? ?
Ġpriv adas
Ãį T
Ġbaix os
ent amente
Ġg rÃ¡
p ia
ĠO B
ĠU SP
Ġfront eira
Ġp uro
ho nes
ĠCon hec
Ġsou be
ĠTom Ã©
7 6
t amento
Ġve ic
Ġs amba
Ġh orr
Ġpra ta
ĠIs abel
Ġc antar
ĠS ei
and er
ĠGra duaÃ§Ã£o
Ġviv emos
Ap p
w ood
ĠR ural
Ġvar iar
C P
oc k
ĠApre nd
ĠD AS
esqu ec
ĠTr ump
ĠPat ric
Co nc
ĠU su
f ase
in es
Ġreun iu
ĠÃĢ s
Ġdes ab
Ġat rap
D ec
ĠL ÃŃngua
Ġsex uais
Ġbar co
Ġjornal ismo
Ġocup aÃ§Ã£o
ĠTrans porte
P elo
Ġdesc anso
Ġingres sos
iss os
Ġed itora
Ġenf at
Ġ Ãªx
Ġb elas
Ġgra us
ĠCl ub
Ġles Ãµes
Ġest radas
Ġado tar
Ġconvers as
Ġm os
ĠPro v
Ãªm ico
ĠM et
x x
ec ta
Ġpublic ados
Ġrelacion ada
Ġ198 0
Ġprec ip
C D
l amento
ĠMar ina
Ġvo o
Ġoficial mente
Ġrelev Ã¢ncia
Ġb ab
Ġtem Ã¡tica
Ġindepend Ãªncia
Ã³t ico
Ġargum entos
Ġac ham
pe ito
Ġmin i
ĠRela Ã§Ãµes
Ġch up
Ġsoc io
Ġconhec idas
Ġdesenvolv idas
Ġv ivos
ĠU lt
ĠSant iago
Ġcontinu e
Ġfut uros
ulg aÃ§Ã£o
l esa
x os
Ġdesp ed
Ġport aria
t re
ad Ã£o
ĠP az
Ġcont ando
Ġespecial izado
Ġpermit ido
Ġbrinc adeira
ĠL inha
Ġinstitu cional
Ġsug estÃ£o
Ġprom essa
Ġ %
Ġho mo
EN D
Ġhum anas
ĠprÃ© vio
E P
r Ã¡lia
Ã§ este
iv id
ĠS ÃŃ
Ġex am
Ġconf und
ĠBar cel
CA ÃĩÃĥO
C H
i Ã¡
ĠCons idera
ĠQU E
5 9
Ġ5 2
Ġm istÃ©rio
era nÃ§a
Ġcont acto
Ġconsidera das
Ġserv em
Ġesquer do
Ġinteg rar
Ġf resc
Ġconc ord
Ġconv ic
ĠvÃ¡l ido
ro ta
ĠI D
Ġunivers al
Ġtribut Ã¡ria
Ġco inc
Ġac tividade
Ġuso u
ĠProf essores
ĠFor Ã§a
ÃŃz os
pl as
Ġsa indo
p Ã©
to ral
ul adas
g Ãªn
Ġso ja
Ġbac t
ĠFlÃ¡ vio
T R
Ġp ude
Ġamare lo
S al
Ġdeix aram
ĠRec om
ĠJu iz
b en
d f
Ġan Ã¡lises
Ġmo edas
it ividade
C ada
Ġde ns
ĠM O
Ġcam inha
ĠMov imento
ĠC Ã©sar
Ã©l ia
Ġj ulgar
Ġal iv
ĠEx Ã©rcito
Ġrelacion amentos
Ġlig ada
ĠAtl Ã¢nt
Ġindic adores
Ġpro ve
Ġass inado
Ġdesc art
Ġma Ã§
e f
ri ar
Ġal o
Ġen ga
ate us
ĠCorre ios
Ġt ag
Ġtraduz ir
ĠSeb ast
ĠSu ÃŃ
Ġpap Ã©is
IL VA
ĠBol sa
Ġmando u
ĠCo imbra
Ġnot ur
m er
iv emos
Ġtab let
Ġpro tec
ĠRe un
Ġy ou
Ġabsol uta
ĠacadÃªm icos
ĠS or
ane amento
h s
Ġal ar
ÃŃt ico
ERA L
Ġcar ioca
ĠCon ferÃªncia
ĠCat eg
Ġtranqu ila
Ġgig ante
ĠDis ney
Ġtra g
Ġrec us
Ġguard ar
: "
Ġsuplem entos
Ã³ cio
Ġdecorre ntes
Ġimpac tos
Ġsent indo
Ġcrist Ã£o
Ġsug ere
Ġc osta
Ġconsc iente
qu inha
ĠT ho
ĠN unes
ĠW h
Ġlo te
Ġche guei
Ġpreven ir
00 1
ĠJur ÃŃd
Ġl ine
m el
Ġsegu rado
Ġlit ros
eter min
Ġenx er
T ube
em bl
Ġm ÃŃdias
Ġmod alidades
Ġquer ida
ĠOut ras
Ð° Ð
ĠMot or
Â µ
Ġ( ...)
ĠK ar
Ġmont anha
Ġprofund amente
ĠC ursos
int er
Ġgera ndo
Ġcorrespond ente
Ġre ag
ĠP ER
Ġconfirm ar
Ġcen Ã¡rios
A cho
ĠL Ãº
ĠA z
ĠCom pre
ribun ais
Ġsurg ir
Ġgl Ã³ria
Ġse p
Ġjust a
Ġlembro u
Ġsepara Ã§Ã£o
Ġtriste za
Ġresg ate
Ġcompanh eiro
Ġbrin quedos
b es
ĠOr Ã§amento
Ġdepend Ãªncia
Ġcam adas
Ġr Ã©
Ġdelic iosa
ĠPort aria
Ġdest inos
IS S
Ã³t ica
ĠN atural
ĠEst udo
Ġdestru iÃ§Ã£o
Ġposicion amento
i Ã¡rias
x imo
Ġcon heÃ§a
ĠMod elo
ara s
Ġcul p
Ġurg Ãªncia
idel idade
M inha
ĠM oro
Qu er
Ġlev es
ren se
Ġamb ul
ĠGu arda
Ġdescon for
Ġcom enta
Ġbal anÃ§o
5 1
ĠV agas
Ġproc ure
Ġdific il
Ġace itaÃ§Ã£o
ĠIN F
Ġproporcion ando
R io
Ġintegra da
al t
ĠT oda
Ġatu am
ĠObrig ada
ĠON U
ĠPalm eiras
r itas
ra va
ĠM estrado
ido ra
ĠN essa
Ġdes ac
Ġass ume
Ġconclu iu
ĠN at
Ġsal do
Ġd uro
and ro
Ġfranc esa
Ġinterf ace
Ġmod el
Ġmodern os
ĠPia uÃŃ
ma go
Ġconf esso
ĠSecret Ã¡rio
Ġdeb ates
Ġmol ho
Cas a
ca nd
Ġpag os
Ġimp ede
rs rs
Ġmultip lic
Ġp ion
ĠC AP
Ġfaz enda
Ġ199 6
ĠhistÃ³r icos
ĠM ur
Ġimpl ica
Ġfigu ras
Ġap rimo
Ġtraz em
Ġco co
Ġesc ritos
ĠMar ques
Ġmor tes
Ġin ciso
ĠB re
Ġfund aÃ§Ã£o
ĠtÃ³p ico
ric ular
Ġgrav ar
Ġefet ivo
Ġac r
Ġnam orada
H OR
Ġprofund idade
C ap
Ġdisp ara
ĠDire c
Ġgol eiro
Ġselec ionar
ĠDef in
Ġmas t
Ġsom a
ĠPrim eira
ĠT erc
Ġpes coÃ§o
Ġconce pÃ§Ã£o
Ġp ente
Ġl esÃ£o
ĠS ha
hia go
Ġpreserv ar
f ru
Ġa feta
st a
res so
Ġdes en
ĠW ord
Ġapare ntemente
Ġdescob re
D esc
Ġp ica
Ġassoc iada
Ġrefer ido
Ġj ard
est os
Ġsan gu
Ġlev aram
Ġcontribu i
ĠS at
Ã¡s coa
ÃŃm etros
Ġtrabalho u
S L
d oria
Ġt Ãªnis
Ã¡s io
ĠIm posto
Ġvel hos
Ġprote ÃŃna
E B
er dade
Ġdest inados
Ġdire trizes
Ġinf ecÃ§Ã£o
Ã¢n g
ĠRes ultado
ĠOl ÃŃmp
Ġgrat is
Ġrec on
Ġcons iga
Ġpan ela
in ess
Ġileg al
ĠAng eles
Fo to
Ġlin dos
Ġdit adura
ÃŃn hamos
Ġrelat ivas
Ġpeg a
ĠCria nÃ§a
Ġpropriet Ã¡rios
ĠSe xo
las h
Ġpromo vido
Ġameric anos
ĠP arece
ĠCar n
Ġajust e
Ġinform Ã¡tica
Ġadia nta
Ġartific ial
! )
Ġc ed
in entes
ĠEn fer
ĠmÃºs culos
Ġaze ite
Ġt en
ĠM ens
ĠM adeira
Ġtran saÃ§Ãµes
T e
Ġ18 0
eta is
I nd
ĠC le
ess Ã³rios
Ġ6 4
Ġz onas
Ġcel ulares
ĠCol e
Ã³n ia
ĠÃŃnd ices
Ġaum entou
Ġintegra do
Ġautom Ã³vel
Ġprocura m
Ġres istente
Ġgas olina
ĠRousse ff
Ġb iblioteca
Ġdivid ir
ĠCom e
Ġlon gos
ĠR ita
Ġdro ga
Ġesque Ã§a
Ġv ital
Ġl Ãª
ĠM Ã¡qu
Ġimag inaÃ§Ã£o
ro pec
ĠP AR
ĠF G
ĠH u
Ġfavor Ã¡vel
ter o
Ġespera va
Ġpud er
Ġpara do
ĠF ar
Ġinc idÃªncia
graf os
Ġesp elho
ĠcontÃŃn ua
ĠB iblioteca
Ġdes pro
Ġcomp Ãµem
Ġconden aÃ§Ã£o
Ġdesempre go
Ġconfro nto
Ġimedia ta
Ġutiliz adores
Ġcompara r
Ġsuspe ita
7 1
ib e
Ġsent em
Ġaux ilia
Ġfic Ã§Ã£o
ro und
Ġv entil
ĠM E
Ġcas ar
ĠNo ta
ĠGust avo
Ġobt idos
ĠemprÃ©st imo
Ġdiab etes
h ei
ta fogo
Ġenc erra
ĠDi ego
Ġpreconc eito
M e
ÃŃn guas
M in
Ġprol ong
Ġf an
ib ular
ÃŃt es
Ġconse qÃ¼
ĠdÃŃ vidas
ĠlÃ¡ bios
Ġtrabalh ista
Ġsac rif
B I
Ã³n ica
Ġfran quia
ĠVic ente
id encial
ĠA G
orr ido
Ġ198 8
Ġv ing
ĠG ram
Ġpou quinho
Ġcorre ndo
Ġarr isc
ĠAss is
Ġher d
ĠquÃŃm icos
Ġsta tus
Ġper iÃ³d
Ġab ertos
ĠAn unc
ĠX IX
ĠlanÃ§ ada
Ġsitu ado
Ġating iu
Ġoferec ido
7 4
Ġdo nos
Ġe go
ĠF Ã¡tima
ĠAl f
anh ar
Ġpro gresso
Com p
Ġref eiÃ§Ã£o
Ġinim igo
v id
ĠN inguÃ©m
org es
Ġperf ume
ol ar
ĠF UN
Ġcond uÃ§Ã£o
Ġdisc ÃŃp
T odo
h al
In f
Ġressal tar
Ġlog ÃŃstica
ĠFl uminense
t aram
ĠA ze
Ġpor quÃª
. â
9 2
Ġs anto
Ġin segu
Ġconv idado
m erce
Ġl aranja
Ġcont arÃ¡
ĠR u
Ã©t ricas
ric idade
PS DB
Ġt ap
Ġin esquec
Ġalg odÃ£o
Ġfi Ã©is
Ġb ast
ĠQu ÃŃmica
S a
UR SO
ĠCaf Ã©
ĠR EG
Ġ5 8
Ġcomple tou
im entar
ĠPS DB
ĠConstru Ã§Ã£o
E les
Ġm it
Ġt esÃ£o
Ġcon so
Ġdes espera
Ġexem pl
in ze
Ġmov imentaÃ§Ã£o
ĠLo ja
Ġremo Ã§Ã£o
Ġexib iÃ§Ã£o
Mu itas
Ġm er
Ġf um
Ġjog ando
Ġregul amento
ĠClass ificaÃ§Ã£o
Ġap oi
ĠsÃ³ cios
Ġprov ocar
Ġfarm acÃªut
iscipl inar
Ġcomp ost
ĠCal deiras
Ġparal is
f unc
ĠG old
Ġsol idariedade
Ãĩ Ãĥo
Ġajud ando
r imentos
ert ado
Ġprote ÃŃnas
Ġcoloc ados
ĠÃģ l
ĠÃ¡c ido
Ãĥ Âµ
vis or
ĠparÃ¢m etros
esso ra
QU I
Ġbloc os
Ġs op
Ġcont atos
ĠG ere
Ġass inal
ĠFil osofia
k g
Ġpil otos
Ġc itado
if ico
Ġenvol ver
Ġdescob riu
Ġating e
ŀ ¤
Ġt atu
ĠPro jetos
Ġreceb i
Ġalim entares
Ġselecion ados
ĠgrÃ¡f icos
Ġharm on
D ia
re z
ĠM ud
ĠR ui
Ã§a o
Ġgratu itos
ĠCON S
ĠSal Ã£o
Ġobrig atÃ³ria
IV A
Ġpergunt ou
ĠC C
ĠE nte
Ġpre t
Ġtrans portes
Ġsent ia
Ġverdad eiramente
ĠAB C
Ãĥ Âª
Ġvoc e
Ġreb el
Ġt imes
Ġb ack
ĠB RASIL
Ġte us
ash ington
ĠT op
ĠF Ã¡bio
Ġtrat ados
Ġbol so
ĠGe ografia
Ġeurope us
oc as
Ġal umÃŃnio
Ġ5 1
Ġju ÃŃzo
Ġjan elas
Ġa ust
il aÃ§Ã£o
ec ida
Ġ5 4
Ã©r icas
ĠCin ema
Ġv ed
Ġgost os
c Ã³p
ĠCent er
ĠH ip
Ġacresc entou
Ġfru ta
Ġsobrev iv
Ġtransmit ir
Ġdescon f
at t
Ġfer iado
ĠCons um
ĠIntern ational
ĠEl Ã©trica
ĠA ne
Ġfund ada
A tualmente
Ġvaria m
Ġencom enda
ig h
Ġra zo
ÃŃde os
Ġrefor Ã§o
ĠMont eiro
Ġconhec ia
Ġimp ro
V IS
ad im
ĠI guaÃ§u
ria Ã§Ã£o
Ġneg ativa
ĠN ÃŃvel
Ġfil t
Ġmont anhas
Ġatmos fera
ĠBarcel ona
H ome
ĠC adas
Ġrespons abilidades
ash ion
Ġpne us
Ġn ucle
Ġno iva
Ġest ÃŃm
Ġentre gues
ÃŃs mo
Ġdesc ans
EN S
Ġcert ificaÃ§Ã£o
ĠMic hael
ĠM S
Ġregist rados
ĠcÃ¢ meras
Ġcachor ro
s App
Ġtex tura
et ano
Ġg ira
ĠG et
ntes e
Ġfib ras
Ġabast ecimento
Ġo ce
ĠC ard
Ġal deia
Ġh ipo
ĠInst ru
Ø §
qu et
Ġdeve ndo
Ġemag recer
F i
u pe
ĠInt erno
Ġmo tores
Ġdepo imento
ha rel
in amento
Ġacab ei
Ġreconhec e
Ġim enso
ÃŃc ulo
Ġnas cer
ast re
Ġdirig entes
ĠT RA
Ġcomport amentos
Ġho mos
Ġcontra d
Ġcompro mete
Ġvos so
art up
Ġpar to
Ġ5 6
ENT OS
Ġac esse
ĠLeon ardo
! âĢĿ
v ide
Ġdelic ioso
ĠAng ola
Ġatu ando
Ġbei jo
ĠP DF
Al guns
Ġdemo ra
ĠYou Tube
ĠMetro pol
re iros
ĠCo op
ĠCh eg
ĠS ent
Ġpes c
ĠD iana
Ġpar ou
ĠÃ³ pt
Ġarre pend
Ġpreench imento
Ġcoro a
j ados
Ġvos sa
ific ador
ĠW i
ĠAust rÃ¡lia
at ch
Ġcar dio
Ġrela to
Ġquant as
8 6
9 4
re as
ĠÃ Ĥ
to na
ĠM iss
Ġcons elhos
Ġ8 00
ĠCh rist
Ġprest ados
ĠPed ag
Ġlit eral
Ġceleb rar
Ġsil enc
ĠM adr
Ã³r nia
V al
ĠD J
Ġcal orias
Ġevang Ã©l
Ġofic inas
ĠF ed
Ġcu jos
ĠHol anda
ina to
i em
ĠmÃºs icos
Ġocup a
cis mo
ĠToc ant
Ġdisp ens
Ġdu plo
ĠCientÃŃf ica
Ã Ķ
Ġt inta
av or
Ġlo ira
ĠmatrÃŃc ula
s ung
ora dos
id Ã¡ria
Ġleg ÃŃt
Ġeduc acional
Ġganha ndo
ar y
ĠIn Ã¡cio
Ġconstitu iÃ§Ã£o
Ġsmartp hone
ĠC ro
Ġemp ur
ĠT ec
Ġpens am
n ica
ĠDe ve
ĠMar io
Ġvend ido
ĠCN PJ
ĠArqu itetura
Ġfabrica ntes
Ġdes at
ob ra
Ġfil a
Ġcompon ente
Ġcard Ã¡p
ĠrelÃ³g io
es tou
Ġrelig ioso
Ġhor izont
Ġrevel ar
ĠHonor is
Ġ ida
Ġdo aÃ§Ã£o
ĠO fic
ter iores
Ġsur gem
Ġcaminh ar
c ou
ios amente
Ġcap it
T odas
Ġb ilh
Ġes pont
Ġrel atos
Ġutiliz ador
ura dos
Ġcur s
ĠIn v
F al
v ocÃª
ĠS ar
Ġar ranc
Ġtorn aram
Ġgarant iu
Ġrefor Ã§ar
Ã´m ico
Ġexig Ãªncia
Ġefet iva
ĠBÃ¡s ica
! "
s p
Ġdo ente
ĠK ing
Ġne ve
Ġc ub
ĠJ ames
Ġgosta va
ÃĥÂµ es
Ġv imos
iv ais
ÃŃc ulos
Ġdese jam
Ġsap atos
ĠEm b
Ġconf eccion
Ġe rot
Ġa z
Ġf ria
Ã¡st icas
ĠeconÃ´m icos
ĠLib ert
ec as
un icaÃ§Ãµes
vel as
Ġcab el
ĠavanÃ§ ar
Ġevent uais
Ġencer ramento
ĠFigu ra
Ġarrecad aÃ§Ã£o
Ġb riga
IC AS
ĠOs car
Ã¢ne as
P ode
ma gens
Ġab uso
Ã³d ulos
ĠCh ica
Ġquant os
Ġvest idos
Ġori entar
IZ AÃĩÃĥO
ĠA pl
ĠestÃ¡ vel
ĠfÃ¡ ceis
Ġciv is
Ġ rios
ĠC OR
ĠP ela
Ġpare ntes
Ġlim par
Ġdesemb arg
n i
t el
ĠFund amental
Ġgast ronomia
il y
Ġac ar
Ġm onst
se qu
Ġconc elho
Ġapresent aram
Ġterc eiriz
ĠConc eiÃ§Ã£o
ĠGlob al
Ġde do
anc ia
Ġhomos sex
D OS
Ġdesenvol veu
Ġins critos
les i
Ġlar ga
Ġaco nch
ĠC T
Ġincent ivar
M a
j ada
Ġm Ã©rito
Ġper if
Ġconf ia
Ġmant eiga
Ġtre inos
Ex istem
Ġanunc iar
ĠF un
ĠU so
Ġdisponibiliz a
Ġestad ia
b rasil
Ġsu co
Ġinst Ã¢ncia
Ġmecan ismo
ĠMo to
w ares
Â «
Ġg or
Ġfil os
Ġeurope u
er te
ĠB rit
Ġ ram
Ġi remos
rÃ¡ ul
Nos so
C OM
i Ã§Ã£este
Ġco taÃ§Ã£o
ĠM oura
iz z
ess es
Ġcob re
Ġvisita nte
% ).
L o
Ġdes v
Ġac ervo
Ġba res
Ġconfigu raÃ§Ãµes
Ġsub iu
Ġindepend entes
Ġdes ist
cio c
ĠRonal do
5 4
i adores
Ġm ama
Ġg Ã©n
8 4
it ness
Ġac Ã§Ã£o
Ġmet Ã¡l
Ġgal era
Po is
in Ã¡rias
ÃŃc ulas
Por tanto
Ġm un
ĠO ne
ĠAp arec
Por Ã©m
Ġmag ia
Ġaux il
Ġnot ic
Ġdetermin adas
ÃŃr itos
Ġcomplex idade
Ġindispens Ã¡vel
j or
k es
ĠB eb
Ġconc ess
ĠV el
ĠAf onso
", "
ĠtÃ©r mino
7 2
al ho
ĠA eroporto
ÃŃn ea
Ãºm ero
ĠAl t
ĠCon st
pira Ã§Ã£o
ĠLegisl ativo
Ġm anda
Ġind Ãºstrias
ĠAp artamento
Ġgas to
Ġinsc rever
Ġps ico
Ġp ato
Ġs ut
im b
Ġr ÃŃg
Ġra ÃŃzes
tes to
M arc
et izaÃ§Ã£o
Ġconhec emos
Ġconsum ir
Ġbranc os
Ġprom oc
ic ou
gu Ã©m
Ġet erna
Ġapaixon ada
Ġra cioc
Ġafirm aÃ§Ã£o
Ġs ons
Ġrepet ir
h y
ed uc
Ġpr ima
Ġpad re
Ġl Ã¢mp
ĠF is
ĠF red
Ġinic iais
Ġexig ir
Ġinden izaÃ§Ã£o
J A
Ġl Ã¡g
Ġjunt as
ĠHad dad
Ġtra m
Ġof f
Ġperceb i
Pro c
Ġplac ar
Ġl ag
ĠCar olina
Ġvar iadas
Ġrec orrer
Ġ9 6
gr idade
ĠS B
Ġvaz io
Ġedif ÃŃcios
Ġ Ãªn
Ġra iz
ĠCOM P
qu el
ĠM icro
Ġin o
yl lab
E A
is f
ic letas
so b
Ġat er
ros a
Ġor iu
âĢĿ. âĢľ
Ġsof Ã¡
Ġrecomend ado
yllab us
B oa
Ġcome te
Ġinvestig ar
Ġvolt ada
Ġenvio u
P al
Ġpart ilha
Ġart ÃŃstica
Ġlic itaÃ§Ã£o
Ġterap Ãªut
Ġamost ra
I nc
Ġm Ã³dulo
ĠS ert
ĠO t
Ġ199 5
Ġaprov ados
ĠFranc o
Ġelabora do
c ada
Ġb orra
ĠD icas
Pro f
Ġocas iÃµes
al os
Ġpeg ou
Ġest arem
Ġvia b
ĠGoi Ã¢nia
Ġ Î
tu a
ĠacadÃªm ico
elecom unicaÃ§Ãµes
P ra
ent or
Ġconhec em
rav am
aca u
ĠEconÃ´m ica
ĠVen ez
A h
ĠN um
Ġpermit iu
Ã ¨
ĠB i
Ġh el
Ã³s io
Ġco raÃ§Ãµes
Ġser t
ĠDec lara
Ġbenefic iar
ĠCalif Ã³rnia
O u
Ġg atos
Ġinc omod
ĠPr iv
Ġfra cas
Ġco la
it t
Ġenvolv em
Ġroub o
c ap
est ado
Ġdefe ndeu
ĠMadr id
Ġf ebre
ĠC oraÃ§Ã£o
ĠAl agoas
ĠCrist ina
Ġum idade
Ġdecid i
Ġmin erais
ĠSu as
ĠPer son
ndro me
c ica
um ento
ĠSa ud
Ġdaqu ilo
ĠSet or
os e
ula nte
era ndo
Ġter re
ĠPar c
ĠclÃ¡ss ica
Ġcont inente
Ġaut Ãªnt
ĠRib eirÃ£o
Ġfib ra
P ER
bol ismo
Ġsel etivo
Ġpoder osa
Ġefet ivamente
el amento
ĠB rÃ¡s
ĠCo zinha
ĠAt ravÃ©s
Ã³l icas
Ġrelig iosos
Ġvc s
S erÃ¡
ip es
Ġdis to
Ġto ques
Ġdeb aixo
ĠLit eratura
ĠA rena
at ina
ver sa
Ġdire tores
Ġpossibil ita
ĠJuvent ude
Ġco po
ec ret
Ġsim b
Ġminist ra
Ġcontro lo
Ġcontempor Ã¢nea
ĠSom ente
ĠD iz
cer ca
Ġbom ba
Ġacompanh ada
Ġganh os
as ta
ĠT ri
Ġra iva
Ġsol uc
Ġado rei
Ġl itoral
ĠB atal
eric Ã³rdia
Ġquant idades
ĠLt da
ĠM ess
ĠEDU CAÃĩÃĥO
ĠL ED
Ġdisc os
Ġbeb Ãªs
iz adora
ĠGu ara
200 7
Ġmes as
Ġproced er
Ġresid encial
Ob rig
7 9
S ab
Ġa Ã©rea
Ġo este
ir l
Ġob viamente
Ġfantas ia
Ġel aborar
erto u
Ġconqu istas
ĠBe ach
ĠWhat sApp
Ãº r
Ġcer ve
Ġn Ãºcleo
ĠI p
Ġconf ere
ill er
ĠH y
Ãĩ O
ĠPromo Ã§Ã£o
Ġt ente
Ġna Ã§Ãµes
Ġad es
Ġsobrev ivÃªncia
Ġpreju ÃŃzos
Ġnuv ens
a h
Ġin ev
Ġab orda
Ġlig adas
Ġperspec tivas
Ġdesn ecess
Ġcum pre
m y
in dade
Ġv istos
Ġfavor itos
Ã¡ log
ist ia
Ġil ÃŃc
ĠEmpre end
c ast
Ġof icina
Ġmora is
t ive
ĠA Ã§Ãµes
us os
Ġquad rados
Ġfa Ã§am
ĠFlor ida
Ã¡ ut
ĠC orr
Ġju deus
Ġfuncion am
Ġvi ram
Ġaproxim ar
ĠP inheiro
Ġintegra nte
ĠdenÃº ncias
ĠBomb eiros
Ã© f
Ġcomb inar
Ġindic ada
Ġcomprom issos
ĠÃ¢ ng
Ġc ÃŃr
Ġ7 2
ĠÃªn fase
ent up
ĠR enda
Ġbanc ada
ĠR ou
Ġman ejo
ĠeconÃ´m icas
Ġhigi ene
Ġg ato
Ġvis ibilidade
ĠEx erc
Ġrespe itar
Ġlar gura
ig ma
ĠU R
Ġfund ador
ĠM aior
Ġform am
F ER
P ed
od y
ĠN atureza
Ġh ard
ĠES TA
E TO
ĠL ac
Ġra cional
Ġfac ebook
Ġide ais
ĠMa y
Ġcancel amento
ĠA presentaÃ§Ã£o
Ġb ordo
Ġretorn ar
Ġact ividades
ĠMas s
Ġregular mente
ĠChica go
QU E
Ġher Ã³i
Ġanteced Ãªncia
ÃŃ ncia
ĠD antas
se t
ron ze
lus ive
Ġviv eu
Ġjog a
M IN
Ġregist rou
Ġluz es
Ġdiagn ost
Ġapre end
Ġhor Ã¡ria
Ġpreocup aÃ§Ãµes
ĠOri ente
Ġressal ta
Ġvari Ã¡veis
5 3
Ġde voluÃ§Ã£o
ĠP ais
ĠAt ividades
Ġregul am
Ġremo ver
Ġcombust ÃŃveis
ĠR eb
Ġav es
Ġprev idenc
Ġcompanh eiros
Ġesco nder
Ġamea Ã§as
is m
ov er
Ġtur ÃŃsticos
Ġpsic ologia
Ġdan Ã§ar
Ã¡ us
ĠMart in
ĠSuÃŃ Ã§a
B AL
e o
Ġus ei
âĢ¦ )
Ã´m ica
p od
Ġrec ord
b ral
nte gra
Ġimpor taÃ§Ã£o
Ġ199 4
qu ando
Ġcu id
ient emente
Ġaleg re
ĠMunicÃŃp ios
Ġimpression ante
F A
Ġv il
ĠelÃ©t ricos
ĠRel atÃ³rio
Ġlon gas
PM DB
Ġd ial
ĠÃ³ culos
DU ÃĩÃĥO
Ġembal agens
ĠPes o
u k
ĠC Ã¢mbio
f ac
Ġres um
Ġparticip ante
Ġpassa va
Ġsecret aria
Ġprec ed
enc ont
no w
Ġmont ante
Ġartes anato
in ense
nc o
ĠAss u
Ġdura bilidade
obil iÃ¡ria
r idos
er ias
qu il
ĠCom plem
Ġdisp utar
Por que
ĠIN STITU
Ġdaqu elas
R OS
T C
Ġt orre
al ista
Ġconc lus
ĠInf elizmente
uar te
Ġescolhe u
Ġ idades
Ġre in
Ġmerg ul
ĠM and
Ġac tual
Ġag ric
Ġavent uras
Ġa rom
por tos
Ġvol ante
para Ã§Ã£o
ĠTot al
Ġg ames
ĠD as
ĠT orn
Ġac ent
ĠQu inta
Ġag ilidade
ĠK it
rec imento
Ġjud iciais
Ġvitam inas
T ES
p us
Ġ1 000
ĠAl imentaÃ§Ã£o
Ġcob rar
ĠD ivers
ĠT anto
et iva
Ġad iante
Ġr is
Ġof ens
Le ia
Ġcriminos os
Ã³ b
Ġval er
Ġpromo vendo
Ġmercador ias
ĠC AS
ĠW ashington
Ġdeix ado
Ġrelat ivos
Ġmotor istas
ĠDem onst
Ġcos m
p ag
ĠT iago
Ġouv idos
Ġrecom enda
Ġpec ul
ĠPS D
Ġinc ont
ĠCh ico
Ġqu entes
at ado
ĠV iv
Ġsal to
Ġresol ve
Ġveg etais
ĠF C
Ġma us
ĠNe ws
ĠA pres
Ġest ag
ĠI gu
Ġform ando
Ġcresce ndo
Ġp io
ip s
Ġ5 3
ĠInt elig
Ġaprov ou
Ġdestru ir
ĠEst ud
ĠComp et
l om
Ġ ilhas
ĠF iz
Ġind ign
ĠEx em
ra qu
Ġprof er
Ġconsegu ia
Ġnorm ais
Ġcontribu inte
Ġencontra das
Ġcorrig ir
Ġam ador
Ã©r itos
Ġqueb rar
Ġchuv as
if ÃŃcio
Ġbo x
Ã³ quia
Ġdefin idos
Ġaval iaÃ§Ãµes
Ġprest ig
Mu itos
L u
Ġsim ilares
Ġgab inete
5 7
e itos
Ġfut uras
Ġarqu itet
Ġfacil ita
Ġam ei
Ġver des
Ġreg isto
Ġopera cionais
Ġatual idade
Ġsac o
Ġsurg imento
ĠÃ³b vio
I ns
m entaÃ§Ã£o
ĠS us
eg ro
ĠPÃºbl icas
s im
Ġb lus
Ġrec orde
Ġcar gas
Ġdoc ente
? "
Ġv inda
Ġp ic
Ġlu a
ĠEsp ir
ĠIN SS
Tra bal
: âĢľ
t ur
Ġf at
Ġim ensa
Ġqual idades
Ġ3 60
Ġest atal
Ġusu fru
Ġsens ÃŃvel
tra ns
Ġanunc iado
ĠJov em
Ġna vio
ĠU ber
ju da
Ġju ÃŃzes
Ġpac otes
ĠFer ro
R N
ab le
Ã¢n icas
Ġson ora
ĠHum an
ĠB A
Ġte nde
Ġinst ant
Ġtri nta
t ico
Ġg elo
us ada
mail s
Ġcompat ÃŃvel
eij Ã£o
Ġob es
ĠâĢĵ ,
it inho
Ġl utas
ol i
ion amento
Ġvis ÃŃvel
ĠCam pe
ĠhipÃ³tes es
ĠTocant ins
Ġac ordos
Ġmol d
Ġexpress ar
ent ura
en g
Ġav enida
ĠPre st
Ġcaval o
Ġe ixo
re et
Ġao nde
ĠJe an
D S
it ed
Ã³s se
Ġmec Ã¢nica
Ġadap tar
ĠSho w
Ġengenh eiro
ĠvÃŃnc ulo
Ġm estrado
ĠR ena
ĠT es
ĠT hiago
ĠV enda
ĠC ord
ĠP F
ir im
Ġintern as
Ġcred ibilidade
Ðµ Ð
at i
Ġaut Ã´n
ĠSam sung
ĠMano el
Ġt iros
Ġt ÃŃnhamos
Ġver ificaÃ§Ã£o
ĠS EM
Ã´n us
Ã´n icos
Ġquadr inhos
ic ultura
ĠT on
Ġfam a
ĠPat r
p esso
Ġp ut
Ġcol ec
Ġvia ja
Ġcri ador
Ġmor tal
Ġaproveit amento
Ġcria tivo
Ġcarb ono
ĠF inal
ĠG rav
Ġrec rut
Ġra ramente
ĠjurÃŃd icas
Ġescolh ida
ĠÃļ nico
Ġa fe
ĠL O
ria m
ĠEx iste
ĠCap ÃŃtulo
Ġtestem unho
onal d
ÃŃ via
ĠP ovo
ĠS Ã¡
Ġex Ã©rcito
Ġdedic ada
ĠSam pa
Ġsobrev iver
C AN
ĠB ill
ade qu
5 2
as so
Ã§ amos
ĠW e
Ġsal va
Ġinqu Ã©rito
r or
ĠA ut
Ġestiv erem
Ġparec ido
ĠIC MS
ĠGara nt
c re
Ġt ens
Ġmar gens
Ġra ios
Ġpa ulo
Ġsal arial
Ġaplic adas
Ġenfre nta
Ĩ ĳ
it io
ĠT orre
Ġch at
ĠN elson
Ġinc ons
Ì ģ
ĠD ay
Ġcria tiva
EL O
ĠCoorden ador
U D
at eg
ion ada
Ġext inÃ§Ã£o
ĠEsc rit
Ġregist rada
d ec
Ġl ido
Ġrel emb
Ġloc alidade
Ġlook s
Ġconcorre ntes
F il
nd ade
Ġcompet iÃ§Ãµes
anal to
Ġobte ve
F aÃ§a
Ġv arejo
ĠS uc
ĠD im
ĠestratÃ©g ico
Ġm ilhas
pre feito
Ġco gn
uc ar
Ġcul to
vie w
, ,
Ġsu ficientes
Ġre ta
ĠO U
ac as
Ġconc orda
ĠProc ed
Ã¡r qu
Ġcred enc
ĠTrabalh adores
ĠM er
gar ve
Ġcri adas
Ġcaminh Ã£o
ĠConsult oria
Ġw ith
el i
ĠM ateus
ve do
Ġ5 7
Ġsal i
M B
t Ã³ria
Ġdest inada
Ġav anÃ§os
Ġindic ados
Ġparticip am
Ġvest ir
Ġvig ente
Leg endado
Ġcom endo
pos iÃ§Ãµes
Ã³log a
F orm
f oi
Ġco re
Ġap ag
Ġrest riÃ§Ãµes
Ġverdad eiros
Ġcrim inal
Ġarra st
Ġp ano
Ġtre inar
Ġencontrar Ã¡
Ġsat Ã©l
Ġobst Ã¡culos
Ġfix aÃ§Ã£o
Ġgo z
ul e
Ġi rei
Ġcontinu ou
ĠcardÃ¡p io
Ġprocura dor
Ġcul inÃ¡ria
ĠRob ert
Ġ197 0
Ġital iana
Ġal ugar
Ġ20 20
per feiÃ§oamento
ĠRes umo
Ġpen sou
c u
ĠH ome
Ġconv ivÃªncia
Ġident ificado
Ġing er
Ġperman Ãªncia
Ġenvi ada
Ġfix a
Ġrecomend aÃ§Ãµes
Ġconduz ir
Ġacons elh
R el
y le
Ġ io
L A
S ua
Ġb or
Ġint u
ĠComp utaÃ§Ã£o
m em
Ġcas ca
Ġsoc iedades
Ġapo ia
Ġsecret Ã¡ria
Ġexpor taÃ§Ã£o
Ġcost ume
our met
Ġsel v
ĠGar cia
Ġprotocol o
L iv
Ġde grad
stitu cional
Ġlidera nÃ§as
Ġtranspare nte
Ġin espera
oc aÃ§Ã£o
Ġb ob
Ġdes cend
ĠL anÃ§
Ġpar ques
Ġjur is
Ġmem Ã³rias
ĠPRO C
ar quia
an ismo
Ġpriv ados
r ituras
ol s
Ġfech ada
Ġcult ivo
Ġconced ido
ĠCria nÃ§as
Ġge ogrÃ¡f
ic ular
Ġ( âĢľ
Ġcor d
Ġmat riz
Ġhom olog
Ġevent ualmente
ĠFran k
cind ÃŃvel
ff et
Ġconsult as
Ġinser ir
S inopse
c or
ĠD et
Ġsem elh
Ġca Ã§a
Ġdivulg ados
ĠS ud
Ġpro ntos
at ividade
Ġcaus ando
Ã³d igos
Ġautom Ã¡tico
Ġnut riÃ§Ã£o
ĠMa ta
Ġenerg ias
ĠMaria na
ra y
ĠestÃ¡ vamos
Ġvalor izar
Ġempreende dores
ag ner
ĠJ ava
Ġef ec
Ġindic am
ĠGov ernador
ĠC os
Ġan ualmente
Ġcam is
Ġprec oce
Ġafast amento
Ġafas tar
Ġpre paro
B N
S eu
Ġm ira
Ġcol he
Ġfe ed
200 6
ĠHel ena
8 7
Ġestabelec idos
Ġtecn olÃ³gica
ay out
Ġrem Ã©dio
Ġs k
Ġpes ca
ĠFin anÃ§as
Ġabsol uto
Ġcarre gar
Ġgest or
ri fic
ĠMas ter
Ġinter m
Ġsegu iu
ĠW est
Ġauto rais
ĠBel Ã©m
Ġcha p
is Ã©s
ĠÃ¡ s
vi ar
Ãģ T
ĠC H
Ġprem iaÃ§Ã£o
or que
Ġl este
ec emos
Ġdivid ido
Ġnar iz
Ġdesper tar
A A
ĠD ir
Ġcont abilidade
ĠIn icial
Ġinte gridade
Ġw orksho
Ġconver ter
ĠSerg ipe
Ġs enho
in ou
ĠB orges
ĠV elho
com merce
Ġdedic ar
ĠVenez uela
Ġt ou
ĠS in
Ġh ost
ĠPo nte
ĠVic tor
Ġgrav idade
ĠB anc
Ġper io
ĠVar gas
Ġd iria
Ġa ro
Ġsmartp hones
Ġtamb em
Ġc itar
ĠF azer
ĠI S
ram e
Ã©s s
Ġext ernos
Ġlim itado
Ġacho u
Ġpesquis ador
gu em
ĠV egas
ĠH ab
Ġ5 9
ĠIN TER
Ġb ilhÃ£o
ĠPr Ã©
Ġreclam aÃ§Ãµes
it enc
TA N
Ġelim inaÃ§Ã£o
Ãļ BL
ĠA ch
ĠR edes
are l
Ġfal o
ĠMel lo
Ġproxim idade
Ġpropor Ã§Ã£o
ĠPod emos
ĠM UN
Ġdesta ques
Ġprov oca
ĠLu a
Ġacompanha ndo
ĠInstal aÃ§Ã£o
Ġg entil
on ente
Ġsu ÃŃtes
est ro
ap as
aliz e
Ã¡b il
Ġbanc Ã¡rio
ĠGe orge
Ġdescul pas
Ġl ÃŃnguas
ĠF iquei
ip a
Ġlat erais
Ġfant Ã¡stico
Ġha vendo
ĠS k
ri e
Ġconc orrer
Ġcol on
rig ht
Ġexpos iÃ§Ãµes
it Ã¡
ĠQu ais
Ġpes ado
Ġlim Ã£o
Ġsold ados
os Ã©
ad uras
Ġal ianÃ§a
I RA
Ġfu ga
Ġinc l
Ġfuncional idades
Ġsuspe itos
ĠMira nda
p ut
ho n
Ġcar rinho
Ġing lesa
Ġemp ol
Ġinaugu raÃ§Ã£o
Ġs antos
alh Ã£es
Ġvirtu ais
Ġho me
ora ma
Ġcho rar
Ġsig la
E E
Ġt ip
Ġab orto
Ġcons ent
Ġsab ores
Ġtur b
Ġmens ais
Ġpossibil itar
Ġs iga
er ior
Ġo k
Ġv enho
ĠS US
ĠT ribut
Ġinte rag
Ġdocum entÃ¡rio
Ġaud io
Ġcad eiras
T P
Ġar gent
Ġun ir
Ġcheg amos
ĠPo wer
A qu
Ġdo lor
Ġl ago
Ġest ip
ĠEst aÃ§Ã£o
Ġtam anhos
l ing
ĠCo ndomÃŃnio
Ġmon et
eir inha
ĠAN P
Ġac onte
Ġenvol vido
Ġrelig iosas
ĠON G
re gar
Ġsaud ade
Ġpet ista
Ġrefle te
os se
ĠCar ol
Ġcha pa
an y
Ġcob erta
Ġdipl om
Ġocup ar
Ġmed iÃ§Ã£o
con f
Ġfec hou
A nd
ĠB ei
ĠU M
oria mente
Ġtransform ou
Ġnotar izada
F in
Ġdiv ina
Ġrest antes
Ġsignific ativo
ĠConv enÃ§Ã£o
Ñ ĥ
ĠD ed
ĠL y
ĠG ran
Ġdesc rever
Ġens aios
8 2
Ġp i
ĠD entro
ĠB ig
ĠB et
Ġdes ag
Ġquer ido
ĠGeral do
Ġprevent iva
us alÃ©m
Ġcl Ã¡us
Ġconf irma
Ġsof t
Ġcar bo
Ġperson alizado
Ġf rat
ĠR O
ent ei
Ġno te
ut u
pres so
Ġinc orre
ĠBrasil eiros
Ġvas ta
ĠCole Ã§Ã£o
Ġreserv ado
ĠLabora tÃ³rio
C urso
Ã³ so
ĠV iana
isp rud
Ġt v
to do
Ġcor rup
Ġav Ã³
Ġtro p
Ġfortal ecimento
Ġbloque io
vis o
ress ar
Ġluc ros
Ġdivert ida
Ġproib ida
ĠDI RE
ĠO dont
Ġti rou
Ġestabelec idas
Ġbanc Ã¡ria
encia tura
Ġvac ina
Ġvari Ã¡vel
ĠP ubl
Ġas so
ĠD uarte
Ġat rib
Ġlib ert
ĠS abe
n ome
Ġd Ã³lar
ĠT Ãªm
Ġbat eu
ĠBand eira
Ã ¶
d iv
Ġemp enho
N e
el ado
Ġalt itude
Ġapost as
Ġrodo vi
m ico
ĠC ax
oc acia
ĠD on
Ġatu alizar
IN D
ĠCidad ania
ĠC iv
Ġvend edor
ĠMan utenÃ§Ã£o
anho u
Ġplane jar
Ġsegre dos
Ġo per
Ġme ados
Ġsent iu
T ags
sa pp
est ima
IA S
Ġjulg ado
ĠM endo
Ġgra nd
OR ES
Ġchar me
Ġv im
Ġap Ã³st
Ġconhec i
Ġautom Ã³veis
ĠCa etano
Ġeconom izar
Ġtrav ess
s Ã³
Ġfil tro
Ġemb aix
Ġenvi ados
ĠacadÃªm ica
ĠcontÃŃn uo
Ġmo rena
Ġcho que
ĠBo tafogo
porta Ã§Ãµes
Ġ6 7
ĠPer u
Ġespecial izaÃ§Ã£o
ĠÃģ sia
Ġent ram
ĠMora es
ĠDeleg acia
C AR
Ġcap ÃŃtulos
Ġdesenvol vendo
ĠNe y
Ġ zo
ste in
Ġsuplem ento
Z A
ÃŃc ula
ĠP ires
ĠR EC
ĠO AB
Ġempre st
ĠPop ular
Ġreajust e
ion ados
Ġmar co
Ġadminist rador
ĠSim p
Ġdiminu i
it ismo
Ġin Ã©d
Ġas c
Ġrec ip
Ġperd Ã£o
Ġprepara dos
Ġterra Ã§o
ĠMag alhÃ£es
Pa ulo
Ġpr ost
Ġqual ificados
Ġcl icando
form aÃ§Ã£o
Ġconsegu indo
id i
Ġv eter
Ġcond utor
Ġapro xima
Ġregul amentaÃ§Ã£o
am or
ĠAl ice
Ġpo ema
Tra ns
ĠBra zil
Ġempreg ador
ĠTr Ã¢nsito
Conf ira
Ġtestemun has
L emb
Ġint enÃ§Ãµes
Ġped aÃ§o
Ġate ndendo
ĠfotÃ³ grafo
Ġbact Ã©rias
ĠC I
ĠC ad
Ġpal ha
ĠvÃ¡l ida
ĠDispon ÃŃvel
g mail
i Ã¡veis
Ġdiv is
Ġlim itada
Ġclass ificados
Ġdesf ile
Ġimplem entar
ĠCart Ã£o
Ġsurpreend ente
ara l
Ġab und
ĠÃºn icos
Ġarm Ã¡rios
ĠLag oa
V ol
Ġm ega
Ġal ho
ĠBaix ar
¸ ı
Ġo vo
ĠD NA
Ġauto mo
Ã´m bia
ĠÃ³t imas
ĠBio logia
ar ta
pos s
Ġsa em
Ġ7 00
e ndeu
Ġcan sa
ĠInf ra
Ġpubl ica
Ġtrad iÃ§Ãµes
Ġpre ferir
ens os
Ġrelax ar
Ġproje Ã§Ã£o
Ġre nt
ĠReg ina
ĠPe Ã§as
ĠCab ral
: -
or c
Con forme
Ġintelig entes
ĠAdvog ados
Ġcap itais
uto u
ĠGu ard
Ġclara s
p ra
Ġpass amos
Ġso pa
Ġobserv ado
ara da
Ġadvers Ã¡rios
Ġvolunt Ã¡rios
ĠReun iÃ£o
an gu
Ġh ecta
Ġr id
Ġcoorden adora
v ado
Ġg ri
ĠG ast
ian ismo
log ista
Ġdivert ir
ĠConsum idor
Ġl ance
Ġra b
Ġbar ulho
ĠP Ã¡scoa
Ġpl ug
ĠEconÃ´m ico
r id
at h
Ġpop ul
Ġtent am
ĠUru guai
Ġex a
Ġcol Ã©gio
Ġprodu Ã§Ãµes
Ġcompre ende
ĠE SC
Ġdes istir
Ġn estas
are nta
Ġag red
Ġopera r
Ġfort emente
Ġencont re
es pero
ora ndo
Ġconv ida
ic am
he he
Ġev ita
ure c
Ġinflu encia
Ġv Ã´
pos t
Ġestim ativa
ut ers
Ġdev ida
Ġcompet itividade
Ġcha ves
Ġflex ibilidade
Ġs entar
Ġl en
ib re
Ġobt ido
V ale
nc a
ĠJ orn
Ġtelef ones
x i
ĠP ok
AN O
Ġment ira
ĠagrÃŃc ola
Ġfic ha
Ġperf is
Ġfornec edor
Am eric
ĠM esa
ĠR ich
Ġal iados
Ġdiv erg
Ġcomand ante
Ġs indicato
Ġdo u
Ġest il
pl ica
Ġcomun hÃ£o
Ġassist ente
ĠTest amento
Ġt im
la ta
De us
ht ml
M ENTO
Ġqu into
Ġrespec tivas
in de
Ġt ava
it ion
ĠâĢ ĭ
Ġro de
ĠestratÃ©g ica
Ġmac ho
ĠBranc a
ĠJer usalÃ©m
ĠV az
Ġesc Ã¢nd
as sa
Ġconc ordo
ï ¸ı
era das
Ġtem plo
ĠEst Ã¡dio
ĠCont rol
Ġs and
Ġqu Ã£o
Ġpro testo
Ġpart ilhar
Ãºm ula
Ġps iqu
Ġtri un
Ġnecess itam
ĠEn fim
Ġperceb eu
ĠAdminist rativo
Ġent rando
Ġfaz iam
Ġte orias
iam i
Ġdetermin ou
Ġaud itÃ³rio
Ġdeus es
ip aÃ§Ã£o
ĠAl ta
ĠDire Ã§Ã£o
Ġcapac idades
Ġexclus ivos
ĠLuc iano
Ġacresc enta
Ġdens idade
Ġf ina
at izaÃ§Ã£o
ĠL av
ĠÃī tica
Ã¡b ado
Ġdesign er
p ass
ar Ã©m
ĠUn iverso
ic ados
it mos
Ġes fera
Ġj un
Ġca Ã§
Ġmodern as
Ġim pe
ib i
Ġvol tas
Ãºm ulo
Ġfra co
p rim
ida ta
fe ras
inu x
ĠCam ar
Ġmo Ã§a
ĠavanÃ§ ado
ĠC ust
Ġdes res
AN A
Ġsindic al
e as
Ġb il
Ġdos es
Ġpl enÃ¡rio
ĠMo isÃ©s
Ġfamos as
Ġgarraf a
y m
ĠAl m
Ġev id
Ã©t rico
Ġtri go
" )
ĠS ens
ĠB ab
ĠL er
ĠJ r
Ġgost osas
Ġpais agens
ï¿½ ï¿½
Ġmass agem
Ġdist intas
rom b
Ġempreend imentos
ĠPol ÃŃticas
Ġcre io
Ġgar otas
f t
Ġesp eta
Ġpa po
Ġapont am
Ġvisu alizar
Ġextre mo
ras se
Ġpont uaÃ§Ã£o
Ġcrist al
Ġfin alizar
red or
Ġhab itual
Ġenvel hecimento
ĠD ar
Ġrecomend aÃ§Ã£o
r ÃŃ
ĠD F
ĠI M
Ġprest a
ĠAnunc idado
x as
ou d
Ġac al
Ġtent ativas
ĠTrans portes
Ġprejud icar
ur re
ĠUnivers al
Ġparc elas
Ġord ens
Ġencaminh ado
ĠlÃ¡g rimas
Ġcarbo id
p is
Ġ za
Ġre aÃ§Ãµes
Ġtrans aÃ§Ã£o
Ġente ndeu
iqu es
Ġexclus Ã£o
ĠDav i
b u
el lo
ĠC ant
ĠS eg
Ġente ndo
Ġlemb rando
Ġfran go
ĠCara cter
Ġ6 2
Ġfavor ito
Ġcoz inhar
ĠTor res
p i
t ima
Ġfix o
A os
an ge
Ġal co
ĠV id
Ġ199 2
Ġdiferenc iado
Ġfuncional idade
Ġmascul ina
ĠLond rina
ĠAmeric ana
ĠAl garve
Ġtre chos
Ġconte x
ĠEmpres arial
it z
Ġpr Ã©dios
ĠG rÃ¡f
Ġcons ulte
Ã¢ne os
Ã¡log os
at erais
ve te
Ġautom Ã¡tica
Ġs elo
Ġinc rem
Ġra inha
ĠK a
Ġmob iliz
Ġaprec iar
Ġho uv
ĠH am
Ġfal tar
Ġfl ora
ĠpÃ©s s
ĠB anh
Ġind icaÃ§Ãµes
Ġapre nde
Ġganh am
Ġtorce dores
Ġdo aÃ§Ãµes
ĠU b
Ġbol eto
ĠAb re
Ġmult as
Ġde cep
Ġfin anÃ§as
Ġfic ado
Ġemb ut
Ġexig em
re tas
Ġen ormes
Ġmod os
Ġext ernas
Ġcontribu indo
Ġpec ados
s en
it alizaÃ§Ã£o
Ġfrequ ente
ĠRh ian
8 1
D esta
pe Ã§Ã£o
Ġenvol vidas
ĠmÃŃn imos
Ġnasc ido
ĠEnfer magem
ĠEx c
ron eg
Ġcir Ãºrg
ĠÃ³t imos
Ġlou ca
ria mente
inh eiros
Ġle ilÃ£o
Ġmin eral
v or
Ġcu jas
Ġ199 3
Ġf iquem
ei xo
Ġdes vio
uc ano
ĠSant arÃ©m
Ġessencial mente
Ġinser Ã§Ã£o
t iv
Ġc ut
Ġpop ulaÃ§Ãµes
Ġadolesc Ãªncia
Ġp Ã¡
Ġdirig ido
ĠDom ingos
Ġp Ã¡ss
Ġno ut
Ġconsegu ido
ĠP ho
ĠF AC
Ġap elo
un os
Ġabsur do
; -
ent aram
ĠNo gueira
Ġmet ro
Ġhidra taÃ§Ã£o
Ġdo entes
Ġele itos
Ġinv is
Ġdescul pa
ad ar
Ġt ia
Ġ' '
Ġâ ŀ¤
Ġconvenc ional
ĠEstat ÃŃstica
ĠG osto
pe te
Ġag ar
Ġcin emas
th is
Ġox ig
Ġp Ãµe
ĠST J
val or
Ġdesemp enh
Ġaproxim aÃ§Ã£o
Ġvig ilÃ¢ncia
Ġdin am
ĠSampa io
e taÃ§Ã£o
Ġint eiramente
Ġutiliz e
Ġneg ativos
Ġlim itaÃ§Ãµes
Ġsitu ada
ĠAparec ida
V O
Ġa ero
Ġmas sas
Ġliv rar
Ġinf erno
ĠPont a
Ġabsor Ã§Ã£o
ĠorÃ§ ament
Ġpre lim
co re
Ġped aÃ§os
Ġcost umes
ĠC up
ĠB N
ĠN az
ĠG as
Ġar co
Ġte at
Ġproib ido
Ġc il
ĠP rat
Ġim pec
Ġescrito res
Ġnuv em
N ov
or rog
Ġl ix
gu nt
Ġass inar
ver so
ĠMar k
ĠGr Ãªmio
R P
Ã´m etro
Ġfund amentos
Ġinstal ada
ĠCr Ã©dito
Ġmob ilizaÃ§Ã£o
Ġidio ma
P ass
Ġs Ã©t
Ġfal sa
Ġhab itu
Ġrem Ã©dios
ĠcientÃŃf icos
ĠA ce
Ġleg umes
Ġcoloc ada
Ġsatis feito
ĠT ub
Ġex erce
Ġcas s
Ġacus aÃ§Ãµes
Ġnerv oso
gres sos
Ġperf eiÃ§Ã£o
p u
t riz
ab ilizaÃ§Ã£o
ĠCl ara
ĠmÃºs ico
Ġdefin itiva
Ġlemb re
c c
ĠA ires
ĠP E
ur n
Ġmin eraÃ§Ã£o
Ġhab it
us Ãµes
Ġfil m
Con ferÃªncia
ĠGr Ã©cia
Â ·
Ġcomp ac
Ġch eck
ĠSer Ã£o
Ġexecut ado
Ġbaix as
Ġg esto
Ġpol Ãªmica
ĠEst ava
ĠSer ia
Ġlemb ranÃ§as
Ġempreg ada
ĠJornal ismo
R ed
S ai
Ġa u
ram entos
ific am
Ġfil Ã³so
Ãº b
Ġcorre ntes
m etro
ÃŃ rita
Ġexist ia
ĠGra nd
Ġde te
ĠM elho
Ġtra iler
ult ados
ĠRe forma
Ġescrit Ã³rios
I OR
h ur
at Ã¡rio
Ġal mas
AD OS
ä ¸
Ġp ira
Ġgosto u
Ġaprend i
Ġfront eiras
Ġflag rante
e k
l ot
Ġpor cel
Ġelev aÃ§Ã£o
V EL
X X
Con gresso
Ġassass inato
ribu taÃ§Ã£o
ndom ÃŃnios
Ġpont as
ĠLe Ã£o
Ġafirm am
Ġindic ador
Ġrefer ida
t imo
ĠC ob
ĠM os
Ġac ordar
ĠÃ¡ ra
enh amos
Ġpreocup a
ĠDa ÃŃ
ĠC ac
ĠA ula
Ġlim inar
Ġmol e
ĠVol ta
Ġfront al
Ġacol he
ĠUsu Ã¡rio
Ġun an
Ġsuc ess
Ġtor tura
Ġva por
Ġliteral mente
Ġrepresent ando
Ġc ens
ĠO ce
P ost
ĠC AM
Ġconf iÃ¡vel
Ġneg ar
cos s
ĠDocum entos
Ġ ic
Ġr Ã³t
Ġracioc ÃŃnio
i Ã§o
Ġqu int
Ġsua v
Ġext ras
Ġcorre io
ĠIm pera
Ġprepara da
ÃŃg io
Ġdispos iÃ§Ãµes
ĠAprove ite
Ġsol en
Ġexecut ivos
ĠOp en
Ġcurios o
ioc ese
ĠÃªx ito
Ġsimult aneamente
ĠLibert adores
Ġd rama
Ġde para
Ġreceb idos
EN DI
Ġbol as
CIA L
Ġalem Ã£
ĠÃŃc ones
Ġo m
Ġam antes
Ġprodut iva
ĠObs erv
Ġqueix a
b i
Ġarqu ite
Ġfatura mento
ĠFre e
Ġunif orme
ĠRespons abilidade
Ġp imenta
ri nt
Ġperson alidades
ĠPl analto
Ġreserv ados
Ġisol amento
ĠCarn eiro
ĠP UC
Ġvolta ndo
em ato
Ġdes erto
Ġper na
Ã³r ter
Ġnegoc iar
ĠLib erdade
ul ly
ĠF ront
ional mente
Ġca indo
ĠEn genh
OL U
Ġst artup
Ġrodo via
Ġof ÃŃcio
Ġgr Ã£os
Ġacresc entar
Ġgel adeira
g es
ĠRe ferÃªncia
Ġagrad ar
Ġbon itas
Ġsepara r
ĠCond iÃ§Ãµes
Ġ ri
ĠF ec
Ġtra tando
ĠV endas
Ġcru el
Ġtermin al
Ġdeco rar
Ġincent iv
Ġprom essas
Ġga Ãº
ĠINSTITU TO
Ġg at
Ġv Ã©s
ĠU se
Ã´ mago
Ġfal ava
Ġcre nÃ§as
Ġrap idez
ĠĠ ĠĠ
ĠF ra
pre nsa
Ġsaud ades
» ¿
ĠM iami
Ġdis far
Ġespec ificaÃ§Ãµes
Ġatu alizaÃ§Ãµes
ĠCont a
Ac red
ĠDiv isÃ£o
h Ã¡
Ġa ndo
ĠF ire
ip se
ĠIn qu
Ġsus c
ĠDan i
Ġburo c
enc iar
Ġloc alizados
rado ra
Ġirregular idades
M o
Ġcontra tado
Ġdisp ensa
Ã¢m icas
ĠCol Ã´mbia
Ġcompos itor
Ġexcep cional
Ġa ver
or i
Ġre emb
Ġpo emas
Ġdeix o
Ġmost rado
Ġcaus ados
Ġmal a
pro duÃ§Ã£o
Ġautom aÃ§Ã£o
Ġrespec tivo
al do
ĠV est
Ġacab aram
Ġfund amento
Ġ199 1
ĠFil mes
ĠCE P
Ġparcial mente
Ġsindic atos
ĠEstat uto
I ÃĩÃĥO
Ġgarant ido
ĠEscol as
um bra
Ġl istas
ĠS EG
Ġrec u
Ġ9 8
ĠDes af
Ġexpress Ãµes
Ġaconch eg
g l
Ġm g
pe uta
ĀĀ ĀĀ
Ġab rindo
Ġcirc ular
ĠÃ¡r bit
rÃ³ i
Ġterr ÃŃvel
Ġaper feiÃ§o
S omos
s c
Ġhip er
Ġmanip ulaÃ§Ã£o
Ġencara r
Ġre af
an k
Ã©s ia
Ġpert urb
Ġdesej ada
P arÃ¡
U AL
im amente
Ġest end
Ġal iado
ĠI sa
Ġsur f
Ġsec tor
Ġpen se
ĠclÃŃn icas
te res
Ġgarant ias
Ġrevel aÃ§Ã£o
Ġmand ado
ĠTer mo
Ġenfer magem
ĠEg ito
Ġde feitos
ĠM IN
Ġcomp arecer
Ġcas amentos
Ġgarant em
ĠNenh um
Ġper n
Ġgu ar
Ġabri go
Ġp istas
ĠT ava
ĠG PS
Ġfic h
Ġfuncion ando
Ġveg etal
Ġl entes
Ġinf antis
Cons idera
Jo Ã£o
h um
ĠM U
ĠL in
Ġassoc iadas
Ġs inta
ir Ã£o
ĠO ra
ĠL azer
Ġmant ido
ĠOr d
ĠEd itor
Ġescolh idos
ĠConstitu cional
Ġpres a
Ġus Ã¡
Ġcre nÃ§a
Ġde feito
ĠI magem
Ġim obiliÃ¡rio
Ġfal s
Ġr Ã©u
Ã¢m etro
Ġtri p
Ġl ayout
Ġprote ge
Ġgera do
Ġacess ÃŃveis
Ġconstitu em
y o
is on
nder son
Al gumas
ĠComp le
Ġborra cha
is pos
Ġque ima
Ġdo b
ĠB or
uc k
Ġinform ando
Ġemb arc
Ġviz inho
Ġmanc has
F und
ov i
ter ial
Ġinst a
inal do
b ara
Ġbase ados
Ġbrit Ã¢nico
Ġc igar
Ġg rit
Ġra io
ulos e
ĠX VI
Ġmon itor
Ġtira ndo
ĠTi ju
s uc
Ġ }
Ġf ilhas
ĠE f
og ar
200 5
Ex cel
ĠUS B
Ġlou cura
ĠLÃº cia
C T
Ġ rir
ĠRe voluÃ§Ã£o
port iva
Ġmostra ram
Ġelev ador
Ġren om
AC IONAL
Ġveg etaÃ§Ã£o
Ġartic ulaÃ§Ã£o
U B
d iversidade
h ados
Ġser mos
Ġ6 3
Ġinov ador
ĠCel so
ĠD ona
Ġvol umes
Ġtec lado
Ġtel em
ĠV iva
Ġto x
ĠDom ingo
Ġn u
Ġconhec eu
Ġeleito rais
Ġacha va
Ġchar mos
L oc
Ġacontec ido
ĠCl iente
Ġfra ude
Ġdestac am
Ġtrein amentos
ina Ã§Ãµes
Ġform atos
Ġref ug
Ġcent rais
Ġradic al
f Ã³lio
Ġf ita
Ġlu x
Ġadequ ados
Ġjard ins
Ġv et
on el
Ġcaus ado
Ġer gu
Ġcompl icaÃ§Ãµes
Ġm art
ĠC abe
ĠI dade
Ġtend em
Ġang Ãºst
ĠÃŃc one
R ES
Ġra ro
Ġâ Ĥ¬
Ġmex er
Ġsupermerc ado
ĠRog Ã©rio
ĠM ist
Ġcal Ã§a
Ġocorre rÃ¡
Ġadquir ido
Ġt ire
Ġap uraÃ§Ã£o
min al
ĠDia nte
Ġapost ar
= >
ul m
Ġter rest
ere r
OL OG
PR ES
umb i
B r
ho p
Ġprodut ivo
P Ã¡g
re o
qu al
ul ou
bo ard
ĠOr g
Ã³n ico
ĠConf ederaÃ§Ã£o
Ġinterv enÃ§Ãµes
ĠIns criÃ§Ãµes
ĠÃļ lt
ENDI Z
Ġe is
Ġp iores
Ġdo ze
ĠT ese
ĠF ont
Ġar que
ĠVocÃª s
Ġaprove ite
ĠExper iÃªncia
Ġped i
Ġgas es
Ġhip ert
Ġabord ar
Ġestat ÃŃsticas
ĠGost aria
Ġconec tar
ĠMÃ¡r cio
ĠAze vedo
ĠCax ias
Ġm Ã³dulos
ent adas
ĠS up
Ġar b
Ġcap taÃ§Ã£o
Ġefec tu
ad y
Ġdesc rito
ĠCon forme
Ġcert ificados
Ġconfort Ã¡veis
Ġa bal
Ġdes gas
h ip
y an
ĠD isciplina
Ġos t
are ira
Ġtur ÃŃstico
ĠVol ume
Ġcadast rar
Ġpresid encial
Ġrepara Ã§Ã£o
il iaÃ§Ã£o
ĠI tal
Ġpre gu
Ġpublic adas
Es ses
: :
v asc
Ã©s c
ĠEn erg
ĠÃģ guas
Ġgen Ã©tica
Ġacha ndo
ĠDeclara Ã§Ã£o
Ġm och
ur idade
Ġnum ero
Ġj ul
Ġev idÃªncia
Ġf idelidade
ĠR elig
ĠB lo
Ãº ria
est ade
Ġjog ou
Ġsim bol
Ġmac onha
ĠIntegra Ã§Ã£o
j i
ĠS af
ĠEst rutura
ĠOb ras
Ġapaixon ado
ĠAPR ENDIZ
Ġest Ã´mago
ĠT u
Ġemp enh
Ġmult id
ÃŃss imos
Ġabando no
Ġ ï¿½
ĠJ OV
ĠV at
Ġver Ã¡
Ġpass arÃ¡
Ġrealiz am
Ġdoc entes
ĠFil me
L a
Ġde tr
as te
l ag
ĠPira cica
ĠB ez
ĠEle tro
ĠAn os
Ġestran ha
Ġorganiz acional
Ġperigos o
Ġtarif as
Ãº d
Ġel ite
RE G
Ġtele vis
Ġamost ras
ĠM EC
U t
Ġor qu
ĠDe b
Ġpropor cional
Ġreduz ido
ĠContinu ar
Ġvence dores
ĠSebast iÃ£o
ĠN atura
ĠÃºn icas
Ġado rar
F az
in Ã©
ĠF ort
Ġfal so
Ġmus c
Ġelev ados
Ġpisc inas
ĠF otos
if ÃŃcia
Ġfic aria
Ã³r icos
Ġtransform ando
UL AMENTO
ĠClÃ¡ udio
us h
ĠD am
vol ta
Ġating ido
Ġperc orre
ĠCan al
Ġfres co
ĠS ky
Ġcompra dor
ÃŃss imas
Ġreper tÃ³rio
n ov
Ġf ert
ul sÃ£o
Ġh eranÃ§a
Ġenc h
Ġrest ring
Ġmem or
ester ol
d s
j eiÃ§Ã£o
Ġin adequ
ont o
IC OS
ĠcrÃŃt icos
Ġanex o
Ġescap ar
ĠP ÃļBL
ĠÃ© s
Ġlib eral
Ġprepara ndo
Ġnave gar
ic he
Ġsimpl icidade
l ar
ĠCamp anha
ĠEscol ha
Ġinstru Ã§Ã£o
Fo ram
ĠHu go
z inhos
Pro grama
ĠMÃ©d ico
Ġsing ular
Ġjapon esa
Ġplen amente
er idade
ĠC ost
ĠF u
Ġac eito
Ġpr orrog
Ġr um
Ġata car
Ġhid ro
ĠInic iaÃ§Ã£o
Ġs ele
if t
ĠG in
Ġestabelec ida
ĠgrÃ¡ vida
Ġjust ificar
Ġrefor Ã§a
Ġengra Ã§ado
Ġresul tou
. ).
< /
R C
Ġ7 20
Ġconstitu ÃŃdo
Ġvac inaÃ§Ã£o
Ġtrans formaÃ§Ãµes
Ġtecn olÃ³gico
ĠDist ribuiÃ§Ã£o
Ġclim Ã¡ticas
ĠP eter
est ral
Ġ6 1
Ġinspira do
c ado
c iente
ĠA mo
Ġsem if
Ġdeix ei
Ġhum il
Ġinstitu to
Ġdepo imentos
c ultura
Ġsub jet
Ġaprec iaÃ§Ã£o
ĠEspec iais
Ġt hat
ic io
Ġb ispo
Ġh i
Ġam am
ĠAt enÃ§Ã£o
ĠEurope u
Ġalg or
' '
P OS
Ġn it
enc ias
Ġun icamente
Ã¡p s
Ġcontribu em
par ou
Ġama rela
Ġposta gens
Ġesgo to
Ġdemocr Ã¡tico
ĠC uba
ĠD or
Ġencontra ram
Ġvoc aÃ§Ã£o
Ġar g
ĠPr Ã³
Ġefica zes
P ress
Ġo rel
Ġme re
ĠPod em
ĠOri entaÃ§Ã£o
Ġmeta bolismo
A f
ou nd
ĠB ay
et inha
if a
ĠH IV
Ġcas ado
Ġ6 8
Ġdec orrÃªncia
Ġanal isa
ĠPer man
Ġpain Ã©is
Ġrecicl agem
Ġco pa
Ġg ros
Ġcor ridas
ĠAmaz on
m uito
Ġem issÃµes
pos tamente
ĠRe v
Ã©r icos
Ġorig ens
ĠRo nd
quis itos
Ġtrag Ã©dia
U s
j ando
an ador
Ġcomp rou
iss or
ĠPara guai
Ġdu elo
ĠPont o
Ġempreendedor ismo
ĠpÃ¡t io
ĠB anda
ĠclÃŃn ico
L ogo
Ġp h
Ġconf ecÃ§Ã£o
ĠCont rato
Ġident ifica
ĠagrÃŃc olas
Ġd ur
Ġdem it
ĠTer mos
ĠÃŃnd ios
de z
ĠJ Ãºlio
Ġmed ir
Ġsuc essos
Ġmarca nte
ĠcÃ³p ias
A I
ĠE DI
Qu ero
ĠÃ³ leos
M aria
Ãº ncia
Ġped al
Ġimp rimir
TA RIA
d eira
h h
Ġre el
ĠA SS
era tiva
Ġid Ãªnt
ÃŃf ica
ĠCON TRA
Ġcolo quei
Ġobes idade
Ġf rota
Ġpo nd
Ġtrabalh ado
ĠComp ut
Ġentra ram
ĠRed aÃ§Ã£o
ĠVia gem
Ġd adas
Ġcom ece
Ġart ÃŃstico
IV ERS
Ġdesconfor to
Ġis enÃ§Ã£o
Ġentreg ou
. âĢĶ
ĠC M
Ġent radas
ĠConsult ado
y r
ad al
ĠV ÃŃdeo
Ġad vert
Ġsa o
olog ista
ĠLe andro
IN E
fo to
c il
Ġcu ida
ĠFigu ei
TRO DUÃĩÃĥO
yst em
ere ntes
eb ola
ĠClÃŃn ica
Ġaconte Ã§a
ĠP u
Ġvas os
Ġsig ilo
ĠExcel ente
Ġ6 6
Ġquant ia
Ġfra gr
Ġcomun ica
Ġmanif estar
ĠN av
anc h
Ġvo zes
Ġgrav ado
Ġmanif est
Ġsofre ndo
Ġproven ientes
D iante
Ġp enas
ĠA QUI
ĠM Ã³dulo
ĠD anÃ§a
ĠN Ãºmero
ap t
ĠsÃŃ ntese
aren se
y t
Ġc intura
Ġl ab
Ġest ima
ĠT od
Ġexper i
ST F
Ġsens ibiliz
ĠIl has
Ġencaminh ar
Ġcast elo
Ġdescans ar
ĠP ic
Ġb ronze
ec uÃ§Ã£o
ĠH av
Ġcur tas
Ġespir itu
Ġth is
Ġemocion ante
M od
f i
ĠS m
ĠF ol
Ġass embleia
iol Ã³gicas
200 3
Ġfrequ entes
ĠlÃŃqu idos
Ġv entos
ĠH T
are ceu
jec to
Ġprim avera
Ġ11 0
Ġcaracter iza
Ð º
Ġhom icÃŃdio
Ġaprove itou
ĠH P
Ġluc rativos
) {
Ġc Ã³digos
ĠC iclo
Ġassin ada
3 00
av ier
ĠEs portes
Ġlev ada
Ġmult idÃ£o
Ġbrinc adeiras
ĠHa w
it ec
Ġsa ÃŃ
Ġconstru Ã§Ãµes
Ġdistribu ÃŃdos
Ġinterpre tar
ar ch
Ġsu portar
ĠH al
Ġmat ric
ĠPre Ã§os
Ġparc eira
M AN
at oriamente
Ġir res
Ġrela ta
ĠsÃŃmbol os
ĠtÃ³p icos
Ġsoft wares
Ġb est
ĠE co
Com e
Ġer rada
Ġtrabalh istas
Ġurb anos
Ġded ica
ĠVerm elho
i en
ĠEs qu
Ġdescob ertas
Ġadequ adas
Ġcron ograma
ĠPatrim Ã´nio
Ġest ive
Ġcaus ada
Ġintit ulado
Ġunan imidade
Ġf ris
ĠI orque
Ġmund iais
Ġdout r
ĠGre en
ĠÄ Ľ
Ġt ard
il t
Ġest o
Ġj ac
Ãº ri
Ġinter d
Ġmud ando
ĠCap itÃ£o
er ica
Ġt ribunais
Ġvol te
Ġmat ernidade
Ġmora dia
Ġalte ra
Ġconfigu rar
Ġprior idades
Ġlabora tÃ³rios
Ġvert ical
Ġdiscrim inaÃ§Ã£o
a inda
Ġde gust
Ġent er
Es p
ĠRa inha
ĠEletrÃ´n ica
ĠPh il
Ġe cr
Ġest amp
ĠF O
stitu iÃ§Ã£o
Ġdist inÃ§Ã£o
Ġnot ificaÃ§Ã£o
ĠtÃŃp ico
ĠAne xo
Ġgor duras
ĠS int
ĠT ER
ĠL Ã©
ĠTra tamento
Ġobserv ando
Ġsolic itado
Ġpersegu iÃ§Ã£o
iss em
Ġca os
Ġencontra va
Ġ198 9
Ġult ra
enef ÃŃcios
Ġenxer gar
ĠJOV EM
I TAL
Ġpa res
Ġprest es
ĠPA ULO
Ġatend imentos
Ġescla rece
Ġger ou
iv eram
ĠZ el
Ġenvi e
Ġtam p
Ġbot Ãµes
Ġrequer imento
Ġabandon ar
Ġfant Ã¡stica
ĠComplem entar
2 000
] =>
Ġl iÃ§Ã£o
Ġal fab
Ġdescont ra
n era
Ġm apas
Ġco f
Ġcur va
Ã©g ios
Ġbranc as
Ġendere Ã§os
Ġvira da
ĠImp Ã©rio
C onhec
Ġpro posto
Ġ7 8
Ġmo re
TE C
Ġquil os
ĠAud itoria
Ġassal to
Ġv iola
ĠS co
Ġas fal
ĠD io
ĠBen fica
Ġdesconhec ido
Ġag r
Ġinic iado
Ġaplic ados
Ġtur n
Ġincap az
ĠTava res
ĠM ol
ĠN uma
Ġdem issÃ£o
Ġtot alidade
Ġco d
Ġb re
IS TA
Ġrece io
200 2
Ġvolt adas
Ġacus aÃ§Ã£o
Ġblo gue
ĠCE O
Ġinfec Ã§Ãµes
Ã§amb ique
Ġcompost os
Ġp inc
Ġc itando
ĠV ivo
Ġvis uais
ĠmÃ©d ias
ly wood
Ġesport ivo
Ġe coss
Ġpe Ã§o
Ġenerg Ã©tica
ĠBra nd
Ġfar Ã£o
Ġpecul iar
el le
an ol
Ġtr ilhas
Ġprocess ador
Ġvisu alizaÃ§Ã£o
Ġcompromet imento
fl ix
Ġrazo Ã¡vel
Ġs anta
ĠC ai
que do
Ã©c io
nder ia
americ anos
Ġpad ron
ĠGen eral
r idade
Ġo dont
te x
Ġev idÃªncias
Ġdet ect
Ġrespira Ã§Ã£o
ĠV eter
Ġconv ÃŃvio
Ġtam pa
Ġtrib utos
Ġlog in
Ġpot enciais
Ġcomplex os
ez as
ĠÃº m
Ġcat al
Ġsexual idade
ĠMÃ¡qu inas
Ġino vaÃ§Ãµes
E v
E ra
j s
ĠD isse
Ġex al
Ġsa ÃŃram
Ġconf iar
ĠProc ess
c orre
æ ľ
ĠMar ta
Ġconsult or
Ġfavo rece
d y
Ġp iz
et aria
Ġca usou
ĠOpera Ã§Ãµes
Ġreiv indic
N unca
Ġp uls
Ġm ix
Ġg lor
Ġac amp
du tores
Ġtorn e
Ġdist intos
Ġexpl icaÃ§Ãµes
ĠVal ores
Ġproduz idas
ro la
em Ã¡tico
it ch
Ġv ist
ĠD Ã¡
ĠEx terior
ĠDes cont
Ġcarta z
ĠPiracica ba
P e
Ġi OS
ĠF ui
ĠSt reet
Ġconclu i
ĠPas so
Ġpun iÃ§Ã£o
ĠSU AS
ons eca
Ġcap itÃ£o
Ġsent imos
Ġagra deÃ§o
Ġestim aÃ§Ã£o
Ġindust ri
Ġajust es
Ġproteg ido
Ġinterrom p
N T
Ġpor Ã§Ã£o
Ġex port
Ġposs ivelmente
Ġcol aborar
icion ado
........ ........
ĠSEN HOR
Ġhecta res
Ġs atura
Ġf este
ĠMar inha
Ġcontribu intes
Ġdeb ater
Ġaud itoria
Ġcant os
rag Ã£o
Ġb unda
ion istas
Ġbara tos
ĠPont ifÃŃcia
Ġarbit ragem
ut inho
ig amente
Ġperm issÃ£o
iado ra
ĠZ o
ĠavanÃ§ ada
ĠAplic aÃ§Ã£o
x ia
ĠP ros
Ġtom ado
Ġexclus ividade
pro f
s ub
Ġt elas
ÃŃ odo
ĠCon hecimento
Ġinic iada
Ġcapital ismo
ĠChar les
roneg Ã³cio
Ġcor redor
Ġcar idade
Ġol hada
Ġtent ei
Ġproxim idades
ĠVat icano
ĠI g
Ġesp ess
Ġfal sas
Ãªn ios
ĠInstitu iÃ§Ã£o
ĠTe oria
Ġf ing
Ġjur isprud
ĠPesqu isas
Ġreflex Ãµes
ĠCou nt
ÃįT ULO
Ġco ra
ĠV ersÃ£o
Ġservi u
AS S
Ġpolu iÃ§Ã£o
C al
h en
ĠB ara
ĠB ook
Ġcob rir
Ã©l gica
Ġreb aix
T r
ĠC ass
Ġtra jeto
Ġ19 60
Ġsatisf azer
ParÃ¡ grafo
j eira
Ġt io
Ãª ne
Ġsem inÃ¡rio
Ġrel ativo
ibliotec as
Ġsacrif ÃŃcio
l an
Ġut ilidade
Ġmet rÃ´
Ġfech ados
Ã§ ulm
Ġb Ã´nus
Ġex posto
Ġesc rev
fic it
ĠPar lamento
Ġher Ã³is
Ġexa ust
d iz
it utos
ĠJ ord
mit h
ĠMus ic
ĠgrÃ¡f ica
z er
Ġo v
ĠL este
F ern
ion ando
.. ...
ĠW ik
Ġden uncia
Ġdemonst raÃ§Ã£o
ĠdÃ©b ito
Ġ ....
Ġe g
it Ã©rio
Ġr ival
Ġtr itura
ie w
ropec uÃ¡ria
st er
Ġex portaÃ§Ãµes
et te
Ġqu es
io x
ĠP orn
ĠT SE
ac ab
ĠRe ad
Ġcheg ado
Ġw hat
No ta
Ġprote tor
Ġoferec idas
grÃ¡f icas
ĠExt ensÃ£o
Ġreperc ussÃ£o
Ġos sos
ĠF ord
Ġconver t
Ġama nte
ĠC V
up in
Ġing estÃ£o
az a
Ġne ws
Ġvaz amento
Ġt esta
Ġpr ÃŃncipe
ĠCar l
Ġprat icidade
imp ÃŃ
ĠdiscÃŃp ulos
r utor
Ñ ı
Ġcr ises
Ġmil ag
Ġneg ou
Ġcl ipe
Ġcap ric
ĠEqu ipe
Ġd ita
Ġv era
Ġcomple xa
Ġreduz ida
________ ________
ĠN am
ĠV il
Ġmar ÃŃt
ga Ã§Ãµes
ĠAd olesc
Ġgovern amentais
Ġconstitu ÃŃda
Ġrelig iÃµes
Ġinfer iores
ĠA gra
ĠS IM
Ġres identes
Ġsubs id
Ġmete or
Prim eiro
ĠgÃ©n ero
ion Ã¡rias
IN S
ĠMe tod
Ġestat uto
Ġconsider ou
Ġcla reza
Ġprecip itaÃ§Ã£o
Ã¢ng ulo
Ġal av
ĠAc ab
Ġmerec em
Ġatrap al
Ġsuper vis
ĠCha ves
ĠMaur ÃŃcio
Ġconv Ãªnio
Ġet erno
AN D
Ġopera dor
ĠEd son
Ġcomun icaÃ§Ãµes
Ġhid rÃ¡ul
Ġarm Ã¡rio
Ġje ans
S oc
or y
Ġru ins
ell y
Ġcompartilh amento
Ġnam oro
Ġre met
ĠH ora
Ġrealiz aram
Ġcham am
Ġdesper d
Ġcompens aÃ§Ã£o
Dou torado
Ġcas eiro
Ġestim ado
Ġdestac ando
ENTA ÃĩÃĥO
Ġar terial
Ġexclus ivas
ĠâĢĭ âĢĭ
Ġpara s
ĠT J
Ġru ÃŃdo
Ġadminist rar
Ġaprove itando
ĠIr m
i ed
Ð »
Ġm issÃµes
Ġdis sem
Ġhist oria
Ġadminist rativas
Ġirm Ã£s
Ġconsid eram
Ġsing le
F or
t ei
Ġper ÃŃcia
Ġint ol
Ġcas ada
Ġescrito ra
Ġmenc ionar
m s
Ġm ape
ĠL on
Ġgra de
Ġautor izado
ĠIm prensa
ĠcÃ¡l culos
Ġensin amentos
M en
f Ã©u
Ġco ron
Ġenc oberto
Ġprop riamente
ĠCh am
Ġapont ou
Ġencer rar
ĠBu enos
ĠCadas tro
? )
Ġl umin
Ġb rut
ĠF ER
Ġcar os
ĠGra Ã§as
ĠP av
RA T
Ġatu alizada
ĠP lus
Ġcar nes
Ġret ro
Ġdom ingos
Ġcompara do
Ġpron unc
Ġc ebola
ĠR N
Ġequip ada
Ġcal Ã§as
Des envol
Ġcrimin osa
Ġg an
ot h
Ġaf ins
Ġ6 9
Ġins at
ĠAss essoria
ĠCrim e
Ġ Ø
Ġdes espero
Âº C
Ġbar reiras
Ar qu
Ġport adores
Ġconex Ãµes
Ġeditor ial
T oda
ĠS itu
Ġpor cent
fer Ãªncias
Ġagu arda
ĠP IS
at s
Ġal f
Ġperm ita
ĠGil berto
l ov
Ġsu postamente
ĠAv eiro
Ġentrevist ados
Ġdesembarg ador
G R
in ador
Ġsol idÃ£o
Ġcu zinho
ĠUnivers ity
Ġband idos
ĠHar ry
J osÃ©
v aro
ĠF ED
Ġh ep
pl an
Ġen redo
Ġfaz erem
Ġcin za
Cont inu
Ġprofund as
ĠSustent Ã¡vel
Inf elizmente
Ġev idenc
ĠCl asse
ĠlÃ¡ pis
ĠY outube
Ġconfirm ada
U SP
Ġe ficientes
or p
Ġdo bro
Ġac Ãºst
ĠFor Ã§as
Ġafet ar
Ch eg
Ġp uri
Ġc itados
at eral
ĠG T
Ġmam Ã£e
Ġprojec tos
s yllabus
Ġo posto
Ġf Ã´
ĠA F
Ġaplic Ã¡vel
Ġpreocup ado
Ġdura do
ĠArqu ivo
Ġelog ios
Especial izaÃ§Ã£o
D isp
ito ras
Ġou ve
Ġrec orda
Ġcr Ã´nica
Ġdif und
ID O
Ġade p
se y
Ġac ertar
ĠG ame
Ġcontempor Ã¢neo
Excel ente
b on
u idade
ĠH ill
ach ment
ĠMendo nÃ§a
H E
er turas
ĠG Ã¡s
Ġatrav essar
ĠNeg ra
ĠvÃ¡l v
ĠDisp Ãµe
ĠdomÃ©st ica
Ġquint al
Ġp isos
ĠT inha
Ġpart ilh
Ġsur presas
." "
Ġrespec tiva
ĠPM DB
ĠSel etivo
V ou
ĠL en
mo nd
ĠUn idades
ĠArt hur
ĠCert ificado
Ġmorre ram
ĠFinanc eiras
ĠVig ilÃ¢ncia
ad eiro
ĠP N
Ġch eios
Ġinc idente
Ġequip ado
Ġquer iam
Ġbus cas
iqu eira
?? ??
Ġaguard ar
Ġgre go
ĠVere adores
Ġexpand ir
Ġexempl ar
P esqu
Ġc Ã¡ps
ix os
ĠPr Ã³x
Ġvolt ados
Ġvul ner
ĠAcred ito
re r
Ã³ ia
Ġexper ientes
Ġdeleg acia
Gost aria
ĠNey mar
D IC
t le
Ġp is
Ġempres ariais
Ġfer iados
Ġprojet ado
Ġacent u
B RA
C M
Ġre posiÃ§Ã£o
ĠO h
Ġdese quil
Ġx ÃŃc
enso res
ĠFre ire
Ġevang el
Ġdificil mente
Ġinesquec ÃŃvel
Ġan jo
Ġaju de
ÃŃg ado
Ġsurpre ender
Tra ta
Ġespanh ola
Ġpal m
Ġjapon Ãªs
Ġcomp rim
Ġneg ras
Ġespera mos
ort h
ĠF onseca
ĠNov as
Ġlou co
ĠLeg al
ĠChe fe
ran o
Ġado tado
icion Ã¡rio
Ġtiv essem
ĠHo use
Ġdesenc ade
ĠRond Ã´nia
ĠS ILVA
ĠM ob
ĠCo reia
Ġleg enda
Ġcust om
Ġcolor ido
ĠPap el
Ġorigin almente
Ġsupermerc ados
Ġconscient izaÃ§Ã£o
Ġt rio
if erente
Ġpre g
Ġgra vaÃ§Ãµes
ĠRe pres
ĠMar cel
Ġpens Ã£o
Ġat ira
Ġtra um
Ġcont agem
Ġint imidade
ĠSuper intend
Ġespir ituais
ĠDal las
fit ri
Ġat enc
Ġcol esterol
Ġcontra ste
Ġperd ida
Ġalim ent
ĠDiv ulgaÃ§Ã£o
ĠMetropol itana
ĠAbre u
w in
Ġe co
Ġl ento
ĠT ere
Ġpod iam
ĠH art
Ġca fe
Ġquest ionar
Ġreclam aÃ§Ã£o
D eixe
J ET
ĠB ob
Ġ13 0
ĠEsp anh
Ġresid Ãªncias
Ġdemocr Ã¡tica
Ġgerenc iar
D C
ĠV itor
lu indo
ane ta
Ġadminist rativos
id Ã¡rio
ta g
ult ar
Ġjust ifica
Ġsou b
ĠNos sos
200 4
Ġpat ente
V is
es el
Ġsu icÃŃdio
ai re
ĠcÃ¡l cio
ĠSport ing
Ġextraord inÃ¡rio
n am
u er
ĠB rig
Ġesc uta
ĠK le
ĠAss embl
ĠEsc rituras
Ġdelic ado
Ġeduc acionais
ĠI ra
me u
ĠProcura doria
Ġs aneamento
ec ia
for t
ĠEst Ã£o
ĠEletrÃ´n ico
ĠC Ã¢
Ġin ox
Ġsem anal
Ġproc urou
rop ol
Ġrevest imento
ĠC S
ĠM etal
Ġpres encial
Ġag e
Ġprecis arÃ¡
ĠðŁ Ļ
ĠS esc
ĠB ela
ID E
Ġseman ais
A do
l iv
Ġc Ã©us
ĠC ia
Ġ( "
ĠB ia
ez es
ĠlÃŃqu ida
Ġadquir idos
et ti
ĠL ago
ce pt
Ġpol eg
Ġreceb emos
Ġparticip ando
Ã¡c ias
ch i
Ġdisponibiliz ar
Tal vez
Ġbura co
ĠEn em
Ġvig Ãªncia
Ġcarre ga
Ġre ap
Ġret ra
Ġapre ensÃ£o
Ġconvenc er
Ġign ora
Ġa du
ul h
ĠT EC
ĠF eliz
era ntes
Ġesp acial
Ġserv ido
Ġsens or
Ġhaver ia
N ot
Ġd aria
ĠS i
Ġdi Ã¡rios
ĠPed ra
ðŁ ĺ
ĠRo y
ully ing
AD ES
Ġexib ido
Ġadqu ire
ĠSe te
Ġson har
Ġlar g
GRA MA
Ġexplos Ã£o
Ġhouv esse
ul ina
Ġap la
ĠL T
Ã¢n io
Ġcob ra
ĠLa ura
Ġescre vi
Ġeu rop
stitu to
Ġrest riÃ§Ã£o
Ġcomb at
Ġconced ida
Ġultrapass ar
Ġs itio
ĠA U
ĠR us
Ġdis f
Ġbara ta
B ol
C or
Ġs Ã©ria
Ġsu port
ĠT en
Ġdepend entes
S emin
ĠP ou
ĠS ÃĥO
ĠE va
ell er
pr ima
Ġurg ente
Ġgesta Ã§Ã£o
Ser vi
G EM
ĠM un
ĠF orn
... "
ĠTab ela
ĠMater ial
U P
ĠT an
gov ernador
Ġre ab
Ġpat r
Ġparal elo
urre iÃ§Ã£o
era tivo
ion ou
ĠN AS
ed ral
ran a
EN A
Ġol h
ĠMo Ã§ambique
Ġevang elho
G P
g ios
Ġin ib
Ġmod ificar
ĠA va
Ġg em
Ġtrat ada
V ER
al th
te o
Ġat rop
Ġam ado
Ġen fe
Ġpossu a
Ġcompet itivo
Ġcomplem entares
Entre tanto
Ġinfluenc iar
Ġcre r
Ġgram as
Ġnucle ar
b ase
nd ar
ĠT our
ros o
Ġcria m
Ġprinc esa
Ġsub ord
Ġ8 4
Ġopera dores
ĠCart eira
b icas
ri gar
ĠN F
ĠU p
Ġpens ado
Ġgera dor
Ġencar reg
ĠK im
ecn ologia
ĠCont em
ĠCas as
Ġconclu ÃŃdo
ec edor
ist entes
ĠF Ã©
Ġra t
b os
qu eiro
Ġl ob
ĠL ingu
Ġesp ada
ĠNot ar
Ġdenom inado
b res
om bo
ĠL ab
Ġrec usa
TA ÃĩÃĥO
Ġcat Ã¡logo
Ġeurope ia
Ġespor tiva
Ġradic ais
Ġesmal te
m inha
r inhas
ĠT E
Ġprecis ando
Ġfra que
Ġinov adoras
ĠalcanÃ§ ado
Ġartes an
Ġflex ÃŃvel
Ġdecep cion
" :
Ġemb aixo
Ġcre mos
Ġpensa va
ĠVir tual
Ġinterc Ã¢mbio
D P
ĠM ei
Ġconc erto
ĠIn ÃŃcio
Ġav isa
Ġreduz indo
Ġtu as
Ġra c
Ġleg ado
ĠOl ha
ĠPriv acidade
d ar
um entos
Ġest aremos
Ġcar Ãªncia
Ġag ressÃ£o
ĠK at
Ġpag ando
Ġsen saÃ§Ãµes
ĠIN TRODUÃĩÃĥO
ĠsÃ¡b ados
Ġconfirm ado
Pre cis
ĠCrim inal
ĠestÃŃm ulo
Ġpont u
Ġcaus am
Ġrepresent ado
Ġsac ada
J ETO
P ela
h is
Ġf eijÃ£o
en z
ens ar
Ġdesc ump
Ġpap a
Con heÃ§a
Ġpra gas
ifica nte
ĠgÃªn eros
u itos
Ġman use
Ġmot os
k ers
Ġp ig
ĠT ax
Ġh es
Ġconf ront
Ġlev ados
Ġafirm ando
Ġfec ha
ck min
Ġsepara dos
Ġrefle xo
w ell
im al
ĠCom entÃ¡rios
ĠPro pri
ĠReg imento
ĠReg ime
Ġinvestig adores
Ġderru b
S ol
u is
Ì ĥ
Ġc ita
ul her
ĠM Ã©to
Ġdest ina
Ġcontra part
Ġdesc er
Ġconst rang
Ġperson alizados
ĠAlb u
Ġguitar ra
b le
Ġdo utor
ĠO fere
Ġam ad
Ġha haha
Ġ14 0
Ġdeb at
Ġcaminh Ãµes
blog s
Ġt our
ĠO L
Ġser ra
Ġpequ en
Ġmarc aÃ§Ã£o
ĠM obil
gu eiras
ĠU rg
EN ÃĩÃĥO
Ġcurios a
Ġdevol ver
Ġpos itivas
ĠCont Ã¡beis
Ġcat Ã³lica
Ġcob erto
ham po
Ġcompro var
po ran
Ġcap ilar
Ġm issa
Ġna vios
ma nte
Ġle u
ing ham
Ġsitu a
iol Ã³gica
ke y
ĠAL CAN
Ġmos qu
Ġl um
ĠO k
Ġexem pla
Ġcorre dores
Ġprov ÃŃncia
Ġmarc ha
Ġcamp us
ĠcÃŃr culo
RA L
Ġacab ado
ĠCh amp
Ġmet ropol
Ġban ana
loc k
ĠdomÃ©st icos
Ġmerg ulho
Ġecr Ã£
Ġb Ãªn
ĠM atos
ĠM unicipais
ĠV ice
Ġqual ificado
je Ã§Ã£o
Ġrep utaÃ§Ã£o
Ãªn ia
Ġident ificados
ĠSE O
ĠsÃ³l idos
Ġtras eira
ist emas
ĠW all
Ġdirig ente
ĠÃ¢ n
ĠOf fice
Ġeleg Ã¢ncia
A pre
H C
Ġqu arenta
Ġint ra
IS C
Ġgen er
ĠCel ular
ĠromÃ¢nt ico
Ġexempla res
g h
n ga
Ġt Ã³x
Ġsem ente
Ġam ada
Ġman uais
Ġtom ate
soc ial
IS TE
Ġcompart ilha
Ġreclam ar
ĠMon ografia
Ġchin Ãªs
N em
c rat
Ġa maz
Ġele itor
Ġfac a
ĠCas amento
Ġdefin idas
ĠTecn olÃ³gico
ĠCP C
ĠDu as
ĠMec Ã¢nica
Pres idente
Semin Ã¡rio
Ġb itcoin
ĠI MP
Ġcont idas
Ġju nta
Ġinstal ados
g round
u nde
Ġsu posto
ĠCol oque
Ġhab itaÃ§Ã£o
Ġurb anas
Ġvul nera
Ġrend imentos
MIN IST
n ot
ĠV iol
Ġant iox
ĠAc re
Ġtro cas
Rec eb
Ġmercador ia
O nde
Ġatrav ess
Ġpsic olÃ³gico
Ġcere bral
Ġjustific ativa
ĠN OS
ĠMar y
Ġcompet entes
Ġpat amar
Ġorganiz a
Ġorg Ã¢nica
Ġre jeiÃ§Ã£o
Ġ7 4
Ġsurg iram
ĠMerc edes
Ġconect ado
ĠG P
Ġan jos
Ġdest inadas
Ġcria turas
Ġdecid iram
ĠGov ern
Ġvenc imento
enef ÃŃcio
ĠEquip amentos
j um
Ġp ia
el ada
ĠB Ã©lgica
Ġcons enso
Ġregul ament
Ġre encont
ĠS EL
Ġcon gresso
Ġhabil itaÃ§Ã£o
ĠNet flix
H S
Ġant ic
Ġcal Ã§ados
Ġinclu ÃŃdo
ĠrÃ¡p idos
Ġconce itu
ĠCert idÃ£o
Ġimig rantes
Ġl ub
Ġir re
Ġaum entam
Ġestim ula
Ġtutor ial
B ar
Ġoc orra
ĠmÃ¡ r
Ġbeb e
ĠMA IS
b an
ĠO i
Ġam ig
Ġrec re
Ġprov imento
Ġsin alizaÃ§Ã£o
Ġobt idas
ator iedade
Ġdecorre nte
Ġ 000
Ġc Ã´m
in el
ĠD C
Ġsob e
ran ha
Ġdouto rado
ĠIntelig Ãªncia
Ġm atou
Ã§ alo
Ġt ape
Ġpor men
Ġcont igo
ĠV AL
Ġut il
Ġ7 7
Ġinter iores
acion amento
ĠGu er
ĠOb ama
Ġorg ulhos
ĠXX I
ĠS MS
ĠE P
Ġ16 0
Art igo
b em
Ġ ramos
ĠA nderson
to no
ĠD entre
ac t
Ġele tr
Ġjog ada
Ġform ulaÃ§Ã£o
Ġret rato
As soc
ex t
Ġemit ir
ĠeconÃ³m ica
Ġretom ada
l ou
Ġc ana
Ġfal tam
Se ja
Ġgu ias
Ġgratu itas
Ġcompro vante
Ġ; )
Ġrecolh imento
ĠmÃ¡g ica
ĠmÃ¡g ico
ĠJov ens
Ġrus so
Ġsu f
ĠV elha
Ġacel erar
Ġtarif a
it aria
ĠP P
ĠV enha
ÃŃt icos
Ġcol h
Ġcoloc am
Ġide ologia
rop ologia
out h
Ġhon or
ĠALCAN CE
Â Ķ
Ġco ndomÃŃnios
ĠA O
ost er
esta Ã§Ã£o
ĠLo jas
ĠFo z
ĠTÃ©cn icas
Ġliter Ã¡ria
ĠF aria
Ġad iÃ§Ã£o
ĠConf igu
Ġeng lob
ĠSert Ã£o
m il
Ġl Ã³gico
Ġver ifica
Ġsof rido
Ġaprov ar
ĠCON C
Ġflorest as
Ġconclus Ãµes
Ã Ĺ
Ġv enham
ĠT erap
ĠV illa
ĠDE US
ĠEspecial izaÃ§Ã£o
Ġasc ensÃ£o
ï »¿
Ġc amb
ÃŃ rio
Ġsu pl
Ġproc lam
Ġdiv ulga
Ġcabe Ã§as
Ġconsol idaÃ§Ã£o
Ġanda res
Ġextraord inÃ¡ria
Ġcarboid ratos
ir inha
ĠL A
Es col
Ġdivid ida
Ġemag recimento
Ġresul tando
ĠmÃºltip las
ic ho
Ġdis por
Ġprim Ã¡rio
Ġmod ificaÃ§Ãµes
Ġcontinu arÃ¡
Ġmant enha
Ġlib erado
ĠSai nt
Ġcansa Ã§o
qu ot
to x
Ġpr Ã©mio
est Ã¡
Ġcomp rado
av es
Ġinf raÃ§Ã£o
Ġm ord
ĠG O
ĠAmeric an
m undo
Ġpre ce
Ġcontro les
Ġcob rado
ĠSec und
Ġmus eus
func tion
i ei
t ambÃ©m
de u
Ġver ifique
Ġsa ÃŃdas
Ġdi Ã¢metro
ĠTex to
Ġtb m
ĠsatÃ©l ite
C entro
Ġcom eter
ta va
ĠL ista
ter r
Ġlib erar
Ġhor izonte
Ġaro ma
Ġf ino
Ġf usÃ£o
Ġl ida
Ġen rol
Ġficar Ã£o
ren Ã§o
Ġsemelh anÃ§a
P esso
Ã ¤
Ġc aix
ĠÃŃ ntegra
Ġconsid ero
ĠProfiss ionais
ĠJorn ada
f ato
Ġb atom
la nda
retar ias
ĠMater iais
Ġ ÃŃd
am i
ĠC rato
ce ndo
Ġverdad eiras
Ġgarraf as
ĠE is
Ġdes entup
Ġpod es
ĠVide o
Ġlas er
Ġf ocar
Ġpre p
Ġind icando
Ġve em
Ġpud eram
o ndas
ÃŃs io
Ġdi esel
Ġmant ida
Ġer vas
Ġcomprom eter
Ãĵ S
N uma
Ġf ÃŃgado
it Ã©
ĠM T
ĠD est
Ġrep leto
Ġconju ntos
Ġvar ias
Ġrevel ado
Ġpossibil itado
ĠJu nta
Ġurb an
Ġproib iÃ§Ã£o
Ġcaval os
Ġminim izar
, "
qu inhos
ob s
Ġpromo vida
Ġviv ia
ĠProgram as
Ġcomprov aÃ§Ã£o
Ġsenho res
ul ador
ĠF ORMA
Ġapre ndeu
Ġdep Ã³sitos
Ġand ando
ĠObjet ivo
Ġentusias mo
H ist
Ġpart iu
Ġimpres cindÃŃvel
ĠÃ¢ng ulo
Ġsolen idade
I l
n asc
in z
ĠV II
ĠCo nte
br icas
Ġsens acional
os amente
es ley
ĠF rida
ur t
Ġad ulta
At ravÃ©s
Ġresg atar
Ġse car
gu r
us as
ncia is
ĠAl ckmin
Ġext ensa
ĠAm st
Ġexec uta
Pro jeto
Ġcuidados amente
Ġterre nos
I MA
i Ã§as
ĠC ec
ĠM Ã©dia
iz es
Ġestrutura l
i Ã¡t
Ġc Ã©
ĠW ilson
Ġoc idental
ĠSu z
OR M
ĠMo re
Ġquart as
ĠCorre ia
Ġestrang eiras
I sto
ĠC acho
Ġno c
ĠE U
Ġdel ÃŃcia
Ġescolar idade
Ġemit ido
Ġestam pas
Ġconsent imento
Ġnote book
Ġaconcheg ante
l on
s ic
Ġg anhe
Ġpl ural
Ġmor ta
ĠPRO F
b om
ĠU E
Ġinte gram
vo ada
Es sas
Ġpretend em
T T
f ia
ud as
he im
Ġdisc ursos
Ġestrang eira
Ġroub ar
Ġbag agem
Ġa ve
Ġpara ÃŃso
Ġat entos
Ġrefer ir
Ġment ais
EST ÃĥO
ĠI deal
ĠH ard
icos e
Ġapont ar
Ġfarm Ã¡cia
Ġinsegu ranÃ§a
L uc
Ġres cis
he us
Ġdire tos
Ġautor izada
Ġresid enciais
p elo
Ġcar n
ĠAc ordo
Ġcontro la
Ġacess ibilidade
OLU ÃĩÃĥO
al dade
Ġpara f
ĠP ier
âĢ ĺ
Ġtra Ã§os
Ġenc he
Ġsom bras
Ġing les
Ġace itou
Ġla Ã§os
Ġprivil Ã©gio
Un iversidade
Ġalo jamento
S en
te g
Ġcons istente
Ġin veja
Ġreg resso
Ġexper iente
ĠPÃºbl icos
ĠRa im
Ñ ĭ
Ġ rib
ia tra
Ġres istir
co es
ĠQu eiro
Ġcomple tos
Ġtrou x
Ġtempor Ã¡ria
Ġrecol her
Ġhard ware
im ens
ĠCo utinho
rav o
Ġreceb a
Ġacontec imento
ĠcomeÃ§ amos
Ġdeput ada
ĠAmb os
Ġsignific ativas
ĠEncont re
Ġsimp atia
Ġcup om
Ġs uma
ĠC iro
Ġan ime
Ġesp a
ot ar
Ġresult ar
Ġregist radas
Ġtrabalha va
ĠJack son
Ġinterag ir
i Ã£este
v ada
Ġ Ã³sse
Ġs aga
ic ana
ĠA le
ĠO uv
ST RU
Ġobserv ou
Ġdemonst rou
Ġpasse ar
Ġescrav os
ad er
Ġlon g
vo z
OLOG IA
B RO
Ġd ren
ra st
Ġs r
inc ip
Ġfal ado
Ġnot Ã¡vel
ĠCrist iano
Ġrenov ar
Ġtribut Ã¡rio
Ġinvas Ã£o
Ġh ÃŃd
Ġgen u
Ġport fÃ³lio
Ġassin ou
Ġbata ta
Ġagric ultores
Ġimpe achment
Ġt eles
Ġf itness
ES C
Ġ8 7
Ġed itar
Ġcorre c
Ġmal ha
Ġliber taÃ§Ã£o
ĠSerg io
ĠPatr ÃŃcia
ĠBez erra
T IL
Ġe h
Ġch eias
Ġaf ro
ĠDemonst raÃ§Ãµes
Ġg rosso
Ġg ourmet
ĠO F
Ġref l
Ġret enÃ§Ã£o
ĠÂ ©
inte ndo
Ġtur mas
Ġconcent rar
Ġomb ros
Ġdirec Ã§Ã£o
( "
az ar
Ġinov adora
ebra e
Ġprivileg iada
ĠWord Press
Ġm ito
ĠL inux
Ġind ÃŃcios
Ġmelho rando
Ġsen adores
ĠVan essa
ĠSustent abilidade
Ġburoc racia
ĠD onald
ĠB rito
Ġcol ar
Ġacomp anhou
Ġder ivados
elh ado
Ġinser ido
ĠCateg oria
ĠlÃ¢mp adas
er on
Ġo d
im ental
bal ho
Ġneg ativas
Ġelet ricidade
Ġapropri ado
ĠTRA BAL
Ġ ×
ic ÃŃdios
ĠH ouve
Ġint est
ĠSe Ã§Ã£o
Ġtr ic
Ġpublic amente
Ġvir Ã¡
Ġprat icado
Ġacess os
ĠFÃ³r mula
Ġmis ericÃ³rdia
Ġadmit ir
Ġintroduz ir
c idade
ent ral
Ġque iram
Ġpres sa
Ġpens amos
ĠLe a
Ġmet er
Ġcand idata
Ġrela tou
Ġgal eria
ĠGon z
ĠE F
Ġcont emp
Ġof ert
ĠK e
Ġapresent ador
ĠAg ost
Ġperd eram
Ġlemb ranÃ§a
Ap rove
Ġdesl umbra
ĠAdo rei
f az
ÃŃ br
Ġatu ou
Ġexpl od
Ġproduz em
Ãģ RIA
Ġcient ista
ĠalcanÃ§ ou
Ġlet ivo
Ġfornec ido
Ġveg etaria
nal do
Ġorgan ismos
Ġopera dora
ĠIta Ãº
IF ICAÃĩÃĥO
ĠGon Ã§alo
ĠPrinc ÃŃp
ĠindÃŃg ena
O p
y e
ĠCom ando
Est es
Ġperc orrer
Ġ198 6
ĠsÃŃ ndrome
ĠAÃ§o res
Ġf eiras
ĠC av
Ġin duz
Ġesp eram
ĠEm p
Ġdeclara r
ĠcientÃŃf icas
ĠCri ar
Ġprovis Ã³ria
T om
Ġter Ã§o
Ġsegu rar
ĠQu art
Ġman ga
Ġdeix Ã¡
Ġcat Ã³licos
ĠNov os
Ġcic los
Ġdign o
ĠBus iness
Ġfod endo
ad ern
ĠG ru
Ġur nas
Ġeduc adores
ward s
Ġp ilares
ei Ã³
Ġra cismo
ĠAg enda
Ġresol vido
A F
al vo
Ġcar to
Ġus amos
anc ial
Ġequip as
ĠTecn ologias
Ġpoup anÃ§a
Ġconvic Ã§Ã£o
.â Ĩĳ
ar inense
tor y
ĠFut uro
Ġcrimin oso
. Â»
B a
Ġm l
ĠD ino
Ġdes do
lic e
Ġmed itaÃ§Ã£o
Ġo ita
ĠM issÃ£o
Ġfo f
Ġmu Ã§ulm
Ġab range
ĠPa y
Ġconju nta
Ġarrum ar
Ġdesag rad
ĠAmst erd
ic ional
Ġpod eremos
Ġcin emato
ĠMa uro
gn Ã³stico
aa aa
Ġo le
ĠE C
ĠB ispo
ĠF IN
Ġpra Ã§as
ĠAm igos
ĠlanÃ§ ados
Ġbar ro
Ġrevel am
Ġindivid ualmente
Ġrestaura Ã§Ã£o
Ġsaf ra
Ġcomod idade
qu io
ĠE ric
at ilde
Ġcria tura
Ġdefin itivo
Ġdiminu indo
Ġdisponibiliz ados
Ġ ido
Ġt ento
Ġ8 8
Ġsuper visÃ£o
Ġfac hada
Ġretorn a
il io
ĠL da
Ġle ituras
ĠAl imentos
Ġcol onial
ĠLe itura
ĠComp ras
ĠrÃ¡p idas
Ġdomin ar
Ġsignific ativamente
ĠCL T
c f
Ġo raÃ§Ãµes
Ġl enda
Ġprim ord
tas se
O ntem
id ent
Ã³r icas
ĠEle t
ĠLe e
Ġfer idas
ĠProc essos
Ġmund os
Ġdemoc rat
Ġcolor idos
Ġviaj antes
Ġs w
ĠR est
Ġac ert
âĢĿ )
ĠDe vido
Ġpoder osos
RI B
Ġenvi adas
pro c
Ġdesp esa
Ġdesloc amento
ĠQuad ro
T ipo
ĠA ur
ĠP lata
ĠD ifere
Ġcomp radores
Ġimp ulso
Ġplanej ados
Ġsta nd
L IA
ĠF res
Ġ9 78
ĠAm aral
Do is
Ġliter Ã¡rio
Ġlicenc iamento
Ġmagist rado
ĠSud este
Ġm p
ec os
Ġin us
ĠPol it
Ġbar reira
esqu ita
Ġpossibil itando
Ġinspira da
Ġadvog ada
ĠsÃ³l ida
Ġader ir
Ġestam pa
? âĢĿ,
ĠM ega
Ġprecis ou
ĠRos e
ĠBl oco
id ou
Ġat en
Ġaf il
IC IP
Ġobrig ados
Ġreceber Ã£o
Ġatribu iÃ§Ã£o
Ġtoc ando
rb ios
Ġgast ron
Ġchin esa
v ora
Ġn eles
ĠP ers
ĠT aÃ§a
Ġtrans ferir
ĠLe is
Ġinflu Ãªncias
ĠelÃ©t ricas
Ġcomand os
Ġcomprov ada
N essa
Ġc i
Ġre mete
Ġ1 01
Ġam en
uma Ã§a
ĠCha p
ĠLou renÃ§o
ĠEduc acional
Ġl ind
ĠM ou
Ġsent ado
Ġauto ral
Ġsens ÃŃveis
Ġvos sos
ĠSam uel
Ġprefer Ãªncias
Ġespeta cular
s ur
ĠGu edes
Ġcomb inado
ĠCrist Ã£
Ġinse tos
ĠCirc uito
Ġbast idores
v ana
es o
Ġ( -
por tante
Ġlev arÃ¡
Ġfica rem
ĠPromo toria
ĠTro ca
Ġc ine
Ġm Ãº
Ġl ap
ĠP i
ĠK m
Ãĩ OS
ĠPre para
Ġapre ndendo
Ġru p
Ã¡p olis
Ġtrabalh amos
Ġdecid ido
Ġast ro
ĠTre inamento
Ġdil ig
Ġatac ado
qu ista
in idade
ĠL am
Ġbar ras
ĠHol lywood
Ġtol erÃ¢ncia
Ġ !!!
Ġm ut
Ġqu im
ĠR H
ĠL EI
mo Ã§o
Ġ3 50
.âĢĿ âĢľ
Ġinterpre ta
Tra duÃ§Ã£o
Ġdenom inada
Ġafast ado
J u
N um
fe ituras
Ġrep ublic
Ġlocal idades
Ġtiv erem
Ġdura r
Ġdispos tos
Ġpref iro
ĠC OL
Ġmult im
Ġtestem unha
âłĢâłĢ âłĢâłĢ
Ġza gueiro
ic one
Ġno ivos
ult uras
Ġgarant ida
PS B
Ġrev og
Ġaper feiÃ§oamento
Ġan el
Ġ7 6
Ġdesv ant
Ġf ad
ro mo
en es
Ãº rbios
Ġpes ados
Ġrep Ã³rter
rÃ¡f ego
ach ing
Ġargent ino
D iv
our t
ĠAng el
Ġimpec Ã¡vel
ĠC URSO
ĠB M
Ġdesc ubra
vis ual
Ġsus pend
cho ol
Cl aro
ĠMÃ©d ica
P N
ara do
od ia
Ġpac to
** **
C IO
n eg
Ġest ariam
ĠM embro
ĠR ac
Ġexper imento
Ġcontinu aÃ§Ã£o
ĠRes erva
Ġpermit irÃ¡
ĠLemb re
es co
Ġag rup
ĠW agner
Ġdiv ino
Ġcara c
IS A
ĠX avier
Ġestre ou
Ã¡ss io
ĠPas toral
ĠdÃ© ficit
Ġproven iente
ĠOdont ologia
! ).
tes e
Ġcole Ã§Ãµes
ĠPl an
Ġacess Ã³rio
Ġexib ir
Ġbrin quedo
Ġintelec tuais
Ġnutric ionista
ĠDio go
Ġp Ãªn
ĠA DI
ĠM ace
ĠL ob
ane jo
Ġgen g
Ġvolt ei
Ġst ress
ĠtÃŃp ica
Ġevolu ir
ĠParc ela
ia bÃ¡
ĠC idades
Ġl Ãºd
Ġint estino
Ġdu vida
des co
ĠVer dade
Ġcost ura
ĠMac eiÃ³
Ġconvenc ionais
Ġconsider Ã¡vel
Ġinterm Ã©dio
Ut iliz
Ġreel eiÃ§Ã£o
Ġpara ben
Ġreconhec idos
Ġesqu ina
ĠGeral mente
ĠSon y
ĠFiguei redo
C u
y er
ĠS Ãºmula
Ġas pira
Ġdes porto
Ġres ide
AN DO
ĠProf essora
ee k
Ġbrit Ã¢nica
ĠSilv eira
em ent
Ġneg lig
Ġvo ar
Ġanim ado
Ġperd i
ĠhistÃ³r icas
ĠRa ul
Ġequilib rada
ĠPrecis amos
Ġcirurg ias
Ġcardio vasc
D EM
Ġf oda
ĠS EC
Ġcol aterais
Ġmen stru
Ġtermin ando
ĠdomÃ©st ico
Ġhol and
f eiras
Ġfre guesia
iqu etas
Ġverdad es
ĠAqu ele
Ġvid ros
ĠTho mas
Ġcont Ãªm
Ġar rem
Ġsan Ã§Ãµes
Ġacus ados
ĠfenÃ´m enos
Ġdetec Ã§Ã£o
Ġfracas so
v indo
Ġde nte
Ġpr Ã¡ticos
Ġcol unas
ĠSu porte
Ġacum ulado
Ġrodo vias
ĠRich ard
B RE
Ġreg ulaÃ§Ã£o
Ġpan orama
Ġhi erar
Ġp etro
Ġqu inze
Ġcom iss
ÃŃ za
ĠB ene
ontec e
Ġmora dor
Ġvest ibular
Ġprefer ido
Ġmenc ionado
Ġp Ãªnis
Ġconv enÃ§Ã£o
Ġofere ceu
No va
Ġtrat am
Ġmarc ados
Ġrom p
Ã³t ipo
Ġfran que
gu Ã¡
Ġent orno
ĠQu ase
abora Ã§Ã£o
Ġacred itamos
EL HO
Ġclass ificado
Ġidio mas
Ġconven iente
r imos
gra us
Ġenc arn
Ġcap as
ĠDo wnload
Ġconduz ido
ĠIB GE
ĠMost ra
er ou
Ġdo bra
Ġap ert
Ġsub ida
Para bÃ©ns
Ã©l ica
Ġdemo rar
re Ã§Ã£o
ÃŃl ico
Ġcal cular
Ġrespe itando
Ġobrig atoriedade
Ġdescob erto
Ġexpos tos
ĠP isc
ĠS essÃ£o
Ġap ura
ĠG io
ric ista
Ġsup eraÃ§Ã£o
Ġestat ÃŃstica
Ġdesigual dade
C ert
ho t
Ġ8 9
ĠGra Ã§a
mes mo
Ġanal ista
Ġproporcion am
ĠMont real
ĠBlu e
suc ed
Ã©sc imo
n h
ĠP ec
et ra
Ġtra vest
Ġpint uras
Ġciv ilizaÃ§Ã£o
ĠUR L
b el
j ou
r inhos
v eram
ar u
Ġse qÃ¼
ĠG RA
Ġ4 50
Ġobs c
Ġacompanh am
ĠMag n
ĠT ÃŃtulo
Ġesc orre
Ġdeve res
ĠTe ologia
k h
Ġm eramente
al ina
ĠC Ã©u
ĠA da
at inga
ĠD ut
mo re
Ġcam as
enta va
Ġdeix amos
Ãī CN
Ġinclu ÃŃdos
Ġviv Ãªncia
AM A
UL A
Ġcolabora dor
ĠQueiro z
l ess
w ord
Ġem enda
Ġenc ora
Ã´n ju
Ġadequ aÃ§Ã£o
ĠRa quel
ĠRel atÃ³rios
ĠSab er
Ġfantas ias
" ;
ĠM esquita
ĠQu arto
gres sÃ£o
ĠDivers os
Ġd urou
Ġv ÃŃcio
Ġb iblio
ĠT EM
ĠCam inho
ĠAc essÃ³rios
Ġdepend ente
Ġsobera nia
ĠF la
Ġcar vÃ£o
Ġval eu
Ġbase ia
Ġbat endo
re nd
ĠS mith
Ġis rael
Ġcab os
Pro cura
Ġger ir
Ġjurisprud Ãªncia
ire mos
ĠPro bl
Ġpref erem
Ã©ss emos
Ġcomb o
fo ir
RI OS
Ġelev ar
ĠIns criÃ§Ã£o
ĠSum Ã¡rio
P F
Ġ ).
Ġl entamente
Ġac Ã§Ãµes
Ġprev idÃªncia
Ġescreve ndo
ĠNut riÃ§Ã£o
B o
do is
az e
Ġab riga
ĠDes p
Ġtom e
Ġnome ado
Ġcontrol ada
Ġbater ias
ÃŃ fer
idad as
ĠV em
Ġcor das
pe Ã£o
anc er
Ġpa usa
Ġaval iados
EL A
Ġ198 5
ĠLuc iana
Ġsubmet idos
ĠCand idato
hampo o
H om
ĠNo ite
lic k
Ġlo j
tr ing
ind icaÃ§Ãµes
fo id
ĠCa io
Ġign or
ĠFemin ino
ĠAtlÃ¢nt ico
Ġdes a
Ġtelef on
Man ual
ĠGere nciamento
Ġm iÃº
an na
Ġbom bas
Ġprocess ual
Ġvolt am
Ġemoc ionais
Ġdetec tar
ĠangÃºst ia
Ġcom issÃµes
Ġl enta
Ġest ender
Ġesc ura
Ġte Ã³rico
Ġperf um
ĠVir gem
Ġporn Ã´
ĠCamar go
Ġ Ù
it amento
Ġsob ra
Ġesc ada
ĠMar ca
Ġvia bilidade
ĠJos e
ĠFil ipe
Ġbal anÃ§a
Ġcac ho
ĠComb ate
il eno
Ġte ologia
Ġsoc orro
Ġav Ã´
Ġmil agre
Ġ7 1
Ġ9 2
ĠJo ana
Ġatra ente
Ġglob ais
Cont o
j adas
Ġdisponibiliz ado
Cont udo
oo oo
iter Ã³i
Ġsoluc ionar
ĠCiv is
Ġcontrapart ida
M AR
P ar
c in
Ġde line
ol fo
ĠT ric
OS TA
one y
Ġmonito rar
Ġinsp irar
Ġtranst ornos
Ã§ Ãºcar
ĠR A
enc ar
Ġfal eceu
rim e
Ġp om
ag ismo
Ġprim eiramente
Ġra bo
ise ta
ĠOl impÃŃ
200 1
Ġy our
Ġilust raÃ§Ãµes
Ġaparec imento
Ġcosm Ã©ticos
Ġre abilitaÃ§Ã£o
Ġse io
ĠP ena
ĠR ic
Ġdes pe
Ġil usÃ£o
ĠEl iz
Ġganh aram
ĠMed eiros
ĠjurÃŃd icos
ĠBr una
Ġfoc ado
Ġpertenc em
ĠBern ard
Ġesclarec imentos
ĠFerra ri
ĠC red
ol f
ĠM is
ĠM am
ĠB D
Ġus ava
Ġloc alizar
Ġprotagon istas
ĠBÃ¡s ico
Ġomb ro
t amos
ro w
an im
ho w
Ġal me
ĠRe visÃ£o
ĠNa qu
Ġcrit ica
Ġabord ados
tem po
Ġmaravilhos as
on atos
iz ador
Ġcont Ã¡bil
ĠJ ogo
Ġcl ar
Ġol ÃŃmp
Ġgar g
Ġha ck
Ġ9 7
Ġdefin iÃ§Ãµes
ĠIntern acionais
Ġretira do
ĠComerc iais
Ġabrang ente
g il
ĠT rip
Ġfal e
ĠLe w
ĠInter ior
Ġconvoc aÃ§Ã£o
ĠRodov iÃ¡ria
ĠFED ERAL
C R
d ias
em ias
ol so
ĠN ar
ĠN intendo
Ġindic ou
Ġpan or
ĠDeput ado
le go
olog icamente
Ġap to
Ġcole tivos
ĠCidad Ã£o
ĠemprÃ©st imos
P AR
y d
Ġs anc
ÃŃ ase
ĠE nd
Ġinvest iga
Ãģ S
ĠFlo res
Ġpatroc ÃŃnio
ĠInstru Ã§Ã£o
ĠSB T
r ite
ri x
ĠF antas
Ġconv iver
no va
Ġselecion e
rog Ãªnio
Ġesport ivos
M el
Ġmat uridade
Ġespet Ã¡culos
Ġobject ivos
Ġturn Ãª
an Ã¡s
ou so
ĠF lu
Ġal ÃŃvio
ĠI van
Ġint enc
ĠUn ited
Ġju da
ch t
Ġregist ra
ĠFre guesia
Ġlevant ou
Ġgrat idÃ£o
ĠAdria na
C ara
Ġp iano
Ġn Ãĥ
Ġcom Ã©dia
Ġpres c
Ġinteress adas
Ġenfrent am
Ġbic icletas
ĠHo nda
Ġporcel anato
+ +
Ġc un
Ġem bl
ĠT ais
Ġcons istÃªncia
Ġcria ram
ĠÃ©p ocas
Ġsolic itaÃ§Ãµes
Ġlivre mente
ĠTur quia
Ġcadast rados
rod ut
d oc
l s
Ġ iam
Ġal iada
un ista
ĠLo ve
met ros
Ġsust entar
Ġpud essem
Ġartes anal
Ġconced er
ĠVide os
ar iado
Ġse ios
ĠT ay
Ġmu ro
Ã©m ios
ndere Ã§o
Ġmistura r
ĠPas sos
Ġrevol ta
ĠpÃ´ de
P ens
ent ista
ĠP orno
ĠF ram
ĠVal ent
Ġfacil itando
ĠMace do
l ation
Ġre estrutura
Ġin cis
Ġpre feitos
Ġun e
ĠEx pl
Ġprov idenc
Ġson or
Ġado tada
Ġport Ã£o
Ġprot estos
iter r
in ental
ent amos
ĠC it
ĠR at
ĠT ira
Ġconv iv
Ġins peÃ§Ã£o
Ġfre e
Ġalte rado
Ġimpress Ãµes
? ,
Ġc imento
Ġal ÃŃqu
ĠI magens
ido ras
ĠG N
ĠV isÃ£o
00 01
Ġenc her
Ġmed ie
Ġmov er
Ġintegral mente
Ġtorc edor
blogs pot
l ie
ent amento
ĠN eu
Ġper pet
Ġi ron
Ġunivers itÃ¡rio
ĠMen ezes
ĠJul iana
ĠWal ter
ĠSÃŃ ria
orn a
Ġbase adas
Ġente nda
Ġouv indo
ĠBas tos
Ġquadr ilha
ĠCientÃŃf ico
Ġestup ro
Ġmodel agem
W h
l ink
qu enta
Ġdo tado
ĠB L
ĠT ru
Ġtra rÃ¡
Ġpre ver
Ġh ero
ĠJ im
Ã¡r bara
Ġpint ar
Ġeng ano
Ġhosped ar
ĠIdent ificaÃ§Ã£o
omet ria
Ġinev itÃ¡vel
Ġvis ite
Ġdesgas te
Ġdo g
Ġg lic
ub er
ĠS Ã¡bado
Ġcon gre
AD OR
ĠDef ens
ĠAgu iar
Ġoce ano
Ġaero portos
t Ã¡
Ġp uta
ĠT ags
Ġped em
Ġadm ite
ĠXV III
Ġlux u
Ġdes g
ĠV era
ĠAl guÃ©m
Ġpes ada
ate ia
ĠRec onhec
Ġton alidade
iat ria
Ġincon stitucional
Ol ha
c her
Ġpl Ã¡stica
Ġdeix em
Ãªm icas
con hecimento
Ġson ha
ĠCap a
Ġ198 7
H P
Ġe du
ec idos
se u
Ġver bas
Ã¡g ico
Ġocorre ram
Ġfotograf ar
Ġcolor idas
Ġbrilha ntes
Ġreconstru Ã§Ã£o
Ġfilos Ã³f
A tu
Ġa ra
Ġm estres
ĠS he
ĠM orte
eg os
Ġpol ic
ĠTra d
Ġmil itantes
Ġfunc ionais
Ġapresent adora
Ġquis erem
Ġfornec idos
ut iliz
Ġ9 00
Ġperman ecem
sem ana
Ġmodern idade
ĠPrev enÃ§Ã£o
ĠRece itas
ĠO de
Ġex ac
dic ional
Ġmov iment
Ġâ ľ
Ġsepara do
ĠCha pec
ĠBel eza
ĠCÃ¢ ncer
os sa
Ġdi etas
ĠLe ve
Ġopera doras
Ġexperim ental
Ġotim izar
ĠInv erno
Ġconv enÃ§Ãµes
ĠComp art
ĠCorre io
Ġeconom ista
Ġrever ter
ĠObjet ivos
Ġmer da
Ġp ir
Ġt ria
ĠN ecess
ĠL E
Ġcont Ã¡beis
Ġlim itaÃ§Ã£o
Ġexecut iva
Ġatra i
ĠUrb ano
Ġaer on
ĠmaÃ§ Ã£
Ġespess ura
u Ã¡
Ġf erv
an co
ĠT ol
Ġesc adas
min do
Ã©s io
Ġdivid idos
Ġprot esta
ĠSER VI
Ġconselh eiro
ĠFG TS
ĠSimp Ã³sio
A perfeiÃ§oamento
S t
Ġc Ã´nju
Ġco taÃ§Ãµes
ĠS Ã©
Ġap agar
âĢĿ ;
Ġdis tantes
icas se
Ġproduto ra
adr Ãµes
Ġextra to
ĠLiv raria
Ġpedag Ã³gica
Ġmis Ã©ria
Ġaliv iar
ĠÃ¡rbit ro
Ġc it
iv ismo
Ġh ere
ĠsÃ³ dio
Ġpoder ÃŃamos
Ġori enta
Ġdesenh ar
ĠFoto grafia
Ġaprimo rar
Ġselv agem
l ina
Ġs c
Ġl iÃ§Ãµes
ĠO x
Ġdepend em
M C
ri ado
Ġreg en
Ġsub terr
ĠCont ratos
Ġcomerc iantes
ĠInstitu cional
ĠCu iabÃ¡
Ġpron uncia
ĠpÃ¡ss aros
ĠS ebrae
so m
ĠB O
Ġac tualmente
Ġcur vas
Ġceleb ra
ĠAdria no
Ġfilt ros
J ornal
il do
Ġesp ÃŃritos
rat ern
Ġneg a
Ġhum ilde
Ġsex y
ĠIm per
dio ma
En fim
Ġciv iliz
4 00
ĠS indic
ap p
ĠEm bra
Ġcri adores
Ġfer idos
cas a
Ġadequ adamente
Ġarre dores
ii ii
ĠM Ã³veis
Ġart ÃŃsticas
Ġrepresent ada
Ġatrib utos
ĠC G
Ġb ich
ĠG Ãªn
ult or
Ġpres su
Ġma jor
Ġmil ÃŃmetros
ĠPr Ã¡tica
ĠPrim avera
! ...
Ġs ort
nd i
ĠT imes
ĠF ale
ur no
Ġcontra tados
ĠTem Ã¡tica
ĠDec oraÃ§Ã£o
ĠPR ES
ĠPequ eno
Part icip
ĠExem plo
M I
Ã³ ide
Ġg rel
ut elar
ĠT at
Ġesc utar
ĠEx posiÃ§Ã£o
Ġsign o
Es pero
ĠBar reto
osp el
Ġfiz esse
Ġreserv ar
Ġcad erno
ĠExecut iva
ĠBanh eiro
Sai ba
Ġadep tos
l en
Ġj azz
Ġ8 2
ĠFer ram
ĠBer lim
Ġdia bo
Ġ7 3
Ġand am
Ġfeed back
) )
ha Ã§a
Ġcer Ã¢mica
ĠRes ultados
Ġmol des
Ġdemonst ram
Ġoferec emos
Ġobt ida
Ġorg Ã¢nicos
Ġhumil dade
l ho
o nde
Ġdo urado
ÃŃt ios
Ġreceb ida
ĠFranc a
Ġlar gada
Ġdenom inaÃ§Ã£o
ĠAcomp anha
ĠfreqÃ¼ Ãªncia
Ġs l
Ġeste nde
TA R
Ġder ram
Ġben Ã©f
g las
Ġm era
Ġco tas
oc ada
Ġal he
Ġan fitri
por que
ĠSal es
Ã©n io
Ġtub o
ĠGarant ia
Ġ ÃŃm
Ġro cha
Ġacompanh ados
ĠPres s
Ãį N
Ġconvers ando
ĠInvest imento
ĠOpera cional
ĠSar ney
Ġt ributaÃ§Ã£o
Ġf Ãªme
Ġal ic
po p
ĠEst abelec
Ġtempo ral
Ġprop ic
Ġassoc ia
Ġquestion amentos
Ġple ito
Ġc ano
im pressÃ£o
Ġi ra
va z
port ivo
Ġfac ial
Ġcorpo rativa
Ġportugu esas
ĠNeg ro
ĠGa Ãº
ilhe te
Ġbomb eiros
Ġt era
ĠC ru
ĠF RE
pl ast
Ġdia nt
ĠMar vel
Ġagra da
ID ADES
Ġplanej ado
Assoc iaÃ§Ã£o
Ġp Ã¢nico
Ġcom idas
Ġex ato
Ġresp irar
ax y
Gra nde
Ġtit ulares
ĠDesta que
Ġving anÃ§a
Ġp ico
Ġt enhamos
el aÃ§Ã£o
Ġajust ar
ĠSex ta
Ġin adim
Ġdest in
eram ento
Ġinter rupÃ§Ã£o
Ġfavor Ã¡veis
cha in
Ġdiscut e
Ġexpress amente
Ġje jum
re x
Ġg eram
ĠM edia
ĠI R
Ġmarc aram
Ġvel oc
Ġdistribu ir
ĠGil mar
Ġamiz ades
Ġapet ite
ĠTes ouro
Ġl otes
Ġl areira
ĠB eira
ĠestÃ¡ gios
Ġperson alizada
Ġtecn olÃ³gicas
Ġrespe ita
Ġdom ÃŃnios
Ġvas to
Ġterrit Ã³rios
ĠPrem ium
ĠDemoc r
Ġ ip
Ġb et
Ġperd em
it ativa
ĠG ames
Ġcomp utaÃ§Ã£o
Ġmed alha
Ġparticip aÃ§Ãµes
Ġfam ilia
ast ecimento
ĠCh in
Ġbol etim
Ġmus ica
ĠCal das
ĠSol ar
Gra du
Ġlat ino
Ġsubmet er
ĠAnal ista
Ġlava nderia
Ġv aso
ĠD Ã©
Ġsu porta
quer da
Ġha ha
ric ulares
ĠCons ervaÃ§Ã£o
Ġprest ado
Ġadminist radores
Ġbo ndade
Ġpergunt ando
Ġgl Ãº
Ġsinc eramente
Ġrs rs
ĠUrb ana
Ġneut ral
Ã§ ESTES
Ġl id
ĠD ipl
aliz ador
Ġmot iva
Ġassist indo
Ġbenefic iÃ¡rios
Ġentend i
Ġembar que
M ed
z z
Ġar ras
Ġlev Ã¡
ĠAv anÃ§
Ġdin Ã¢mico
Ġhospital ar
Ġpuri fic
re y
Ġl ente
Ġan uais
ĠEst rela
Ġfal sos
ique ta
Ġarquite to
r idades
Ġs Ã©rios
in n
Ãª a
pres sa
rat ion
Ġpag ou
ĠGu a
Ġche gue
Ġgera dos
ĠAnt igo
Ġmont ado
Ġviol Ã£o
Ġpopular idade
Ġassegu ra
Ġguer ras
an ca
Ġin Ã©dito
oc aba
Ġimp Ãµe
Ġsex to
ch es
Ġcontinu amente
Ġgen eros
ĠescÃ¢nd alo
ĠL ight
Ġpas tores
na ense
Ġdist or
ĠPl enÃ¡rio
Ġincent ivos
ĠHom ens
p io
Ġp se
er teza
ĠT endo
Ġal ug
Ġtorn ado
Ġdiss ol
Ġs ir
ic ius
ĠA grad
Ġl ament
ento res
ĠL U
ĠJ on
ern et
Ġver ba
Ġbol os
Ġviv ido
Ġcac he
Ġplant io
ĠAssu ntos
Ġcil ind
h ist
Ġs hor
it ut
ĠL ot
ric e
Ġident ific
inte gra
Ġpert inentes
ĠPesqu is
Ġsag rado
ĠLog ÃŃstica
Ġcolhe ita
oc ado
ĠL i
Ġres idente
ĠCam ila
Ġprocura do
Ġcaminho n
ĠPra ta
Ġbon itos
ĠBe to
ĠFic ou
Ġal tar
Ġma ke
Ġproduz indo
Ġmarc antes
Ġcaf Ã©s
ĠPet r
Ġtranst orno
C a
r ista
ĠF ur
Ġreg ulares
grÃ¡f icos
ĠAR T
Ġchef es
ĠFrida y
ĠAl te
Ġloc alizadas
Ġ196 4
Ġcampe Ãµes
Ġavi Ãµes
we et
ĠTeres a
ad ense
Ã³ c
Ġab a
Ġis ento
con hec
Ġpromo veu
ĠBra desco
Ġdefend em
Ġreaf irm
Ġna z
Ġcar reiras
ĠK o
Ġanim ada
ĠIl ust
Ġescal ada
ĠPÃ¡g inas
m esa
p g
er ico
iv adas
ĠM ED
ador ia
Ġgo zar
Ġfa una
ĠÃ¡lb uns
Ġincap acidade
Ġespalh ados
r ino
Ġliv ing
Ġlav abo
ĠEspecial ista
ĠC ot
ĠP ED
ab eth
ĠU MA
Ġdesc ritos
son Ã¢ncia
ĠEx p
Ġquer idos
Ex iste
Ġmodern izaÃ§Ã£o
ĠVere ador
Ġsacerdo te
ĠfÃ´ lego
Ġcontemp la
c iÃªncia
ic adas
to dos
gu ard
ĠT enha
ros pec
Ġext raÃ§Ã£o
ĠGu inÃ©
ĠEl is
Ġprete ndo
ĠComple xo
Ġd um
Ġd ali
Ġg ado
Ġpre nder
Ġpass adas
Ġ19 50
Ã©r g
Ġvel has
Ġcrit icar
Ġress usc
Ġsubmet ido
Ġvence dora
u gn
Ġf rom
iz ante
ĠV ER
Ġnum eros
Ġautor iza
Ġcur tos
Ġaprofund ar
Ġabund Ã¢ncia
Ġcens ura
P arece
ho o
ou ros
est ina
Ġvis am
Ġfac uldades
ĠNa ve
Ġenf raqu
Ġadv ocacia
ĠProced imentos
D em
n eu
Ġb ov
Ġalc anÃ§a
Ġcul min
Ġocorr Ãªncias
ĠArm adas
Ġperio dic
ĠAch ei
S ta
Ġco ca
Ġv itor
Ġr itual
Ġmed os
Ġ9 3
ĠFo x
Ġf ral
Ġpro pos
Ġsu posta
Ġesp uma
Ġ8 6
Ġcoloc adas
Ġcur ricular
ĠAt ividade
Ġcant ando
ĠTeres ina
1 01
T RE
te ndo
Ãº gio
Ġh ex
âĢĿ :
Ġen z
Ãªn ico
ĠCr Ã©ditos
Ġremo to
ĠIntegra do
Ġfavo rec
ĠeconÃ³m ico
Ġpratic ados
Qual quer
Ġrecomp ensa
em e
Ġsol tar
ĠCon segu
Ġfra ca
Ġ198 2
Ġoferec ida
eir inho
Ġliqu id
ĠResta urante
Ġreto mar
ĠclÃ¡us ula
m Ã£e
Ġ und
Ġb elos
Ã©m on
Ġtrans portar
Ã´n ias
ĠAn ual
ĠJu an
Ġadicion e
Ġplant Ã£o
Ġchuv eiro
Ġexped iÃ§Ã£o
Ġrecorre nte
ĠRena ta
os te
Ġre tal
ĠG ama
Ġar d
ĠperÃŃ metro
pot Ãªncia
D om
Ġ ),
Ġ7 9
Ġmal as
Ġpermit ida
Ġvolt aram
Ġprem iada
Ġbei jos
ĠInfra estrutura
S M
Ġ Ñģ
ĠT ran
ĠCon junto
Ġsuper ficial
op ol
Ġmov im
Ġto alha
ĠInst rum
ÃĢ s
ĠAgost inho
Ġignor Ã¢ncia
in Ãªncia
ĠB AR
Ġal v
Ġpass ados
Ġestrutura is
ĠMe us
Ġacompanha ntes
Ġd amos
Ġaf l
Ġlim itar
Ġestud ando
". "
Ġrom ances
Ġeng ol
ĠÃĵ rg
Ġconfia bilidade
I TE
Â ł
in son
ĠP om
Ġab dom
Ġdesc ol
Ġdiv er
Ġatu alizados
Ġpsic olÃ³gica
ĠPas tor
Ġcontam inaÃ§Ã£o
Ġenvel hec
ĠfilÃ³so fo
v ard
Ġc itaÃ§Ã£o
ad rez
ern e
Ġespecial idade
Ġconst rut
Com pre
Ġauto estima
Ġnome aÃ§Ã£o
Ġestabelec eu
Ġocup ado
ĠCD s
Ġcomemora Ã§Ãµes
Ġpres criÃ§Ã£o
ĠTra duzir
tr Ãªs
Ġamo res
ĠFinanc eira
Ġimper d
Ġnerv os
Ġcof res
F ac
Ġt utela
Ġre nder
ĠF IL
ĠJ UN
ens ÃŃvel
Ãªm icos
Ġinf eliz
Ġet anol
Ġvers os
Ġvel h
ĠFlorest a
t udes
Ġa x
er Ãªncia
Ġass essor
Ã§os a
Ġind ese
Ġdif usÃ£o
Ġet Ã¡ria
ĠPer ÃŃodo
Out ros
Ġpromoc ional
Ġprost itu
ri fica
ĠMas cul
Ġtecn olÃ³gicos
Ġrelacion ar
Ġdivulg adas
rea k
Ġult ima
ĠMara v
Ġsinc ron
ĠcardÃŃ aca
ĠMelho res
re p
is ma
ÃŃ rem
Ã³ quio
Ġap urar
âĢľ ,
ĠAss ista
Ġorganiz adores
Ġconden ados
ra dic
ĠS un
Ġcap ela
Ġcham ando
Ġinvest idor
ven il
Ġdesenh ada
ĠMor ro
ĠFinanc eiro
p Ã§Ãµes
ĠP ET
od es
Ġmin eiro
ÃŃst a
ĠMat riz
F iz
ĠS op
oc l
Ġres ume
Ġins ist
Ġdem orou
Ġret rat
ĠAp ro
ĠPar Ã³quia
Ġperceb emos
ĠEM PRE
che fe
Or gan
ĠSuperintend Ãªncia
P rÃ³
d el
nd ra
Ġas i
ĠAl essa
ĠDescont o
S D
c ob
ĠT ÃīCN
gre n
Ġconstitu cionais
ĠCN C
Ġperigos a
Ġrelax amento
Ġde sob
ab ela
are j
Ġmed ia
Ġ8 3
Ġcandid aturas
ĠPos so
Ġrad iaÃ§Ã£o
ĠPatric e
ĠPerman ente
c ost
iz em
Ġex ista
Ġres ort
Ġinter lig
ĠProgram aÃ§Ã£o
Ġmult in
ĠAux iliar
Ġhorr or
p ap
Ñ Į
ĠP asse
ĠS ign
Ġin forme
Ġgra d
Ġob stru
ĠEx po
Ġsec Ã§Ã£o
Ġorg Ã¢nico
Ġescond ido
Ġusufru ir
ĠC em
ĠT ime
Ġele ita
no ite
IA ÃĩÃĥO
ure za
Ġprat el
ĠSol uÃ§Ãµes
Ġsustent Ã¡veis
Ġverm elhas
Ġpubl ico
Ġgin Ã¡sio
v era
at el
he ta
ver de
ĠAp p
Ġgol pes
ĠBen ed
ĠRaim undo
j ornal
Ġt elecomunicaÃ§Ãµes
ta rem
Ġmo use
Ġimag inÃ¡rio
Ġviz inha
Ġentend em
Ġgest os
Ġprefere ncial
ĠEmpreend edor
B ook
k en
id inho
Ã¡ dios
Ġpara das
ĠR ay
if er
Ġh ÃŃbr
Ġsom b
Ġmud am
ĠLegisl aÃ§Ã£o
Ġpromete u
Ġescrav idÃ£o
ĠHT ML
Ġm eias
ic ida
ĠN iterÃ³i
Ġrec ar
Ġvis itou
Ġlev emente
Ġdig est
val do
Ġagrad ecimento
Ġsuger ir
Ġengenh eiros
ĠPrÃ³x imo
it arem
ĠP rado
Ġcont abiliz
Ġaqu is
ĠBol ÃŃvia
ĠVas conc
ĠEc lesi
Ġhomo g
Q L
w an
in adores
ĠC ra
on ho
ĠNo te
Ġol hou
ĠCl Ã¡ss
ĠX box
Ġreconhec eu
Ġbu ffet
Ġs tring
ĠC ris
ĠB ir
est im
ca ju
Ġmod ificaÃ§Ã£o
Ġform ou
Ġgost ado
Ġocorre ndo
Ġdirig ida
Ġidos o
ĠGuar ulhos
Ġpredom in
ĠB ut
pl ant
ian Ã§as
Ġcorre u
resc ente
Ġtab elas
Ġenvolv ente
ĠChe ques
ĠtÃ©r mica
itco ins
ĠEspera nÃ§a
ĠLT DA
p ha
Ġc itou
ĠA cerca
Ġsol os
Ġcha to
Ġmeta is
Ġatend idas
ĠHor Ã¡rio
et ivos
Ġcar inhos
Ġcomple tas
Ã´m icas
Ġcompet ir
Ġisol ado
ĠMP F
ĠMem Ã³ria
ĠAprend izagem
ĠIgre jas
ĠÐ ¿
Ġselecion ado
ĠPlane ta
Ġrecrut amento
ĠL GB
Ġmist ure
Ġcura r
m or
Ġd uma
Ġp c
er son
Ġas as
Ġper me
Ġconc ordar
rec he
raf t
all y
Ġanalis ados
ĠfÃ³r uns
H z
ĠP VC
Ġou tono
Ġimpor tar
Ġdiv ide
ĠCons elh
Ġet ern
Ġsubstitu ÃŃdo
Ġ197 4
Ġescrav o
Ġpris Ãµes
Ġal ong
ĠG B
enc iamento
Ġpatrim Ã³nio
ĠFram ingham
8 00
an el
ĠM AC
Ġcomp rando
Ġor to
Ġapare nte
ĠOl Ã¡
Ġrepresenta Ã§Ãµes
Ġbio logia
ĠBac harel
Ġoxig Ãªnio
ĠðŁĻ Ĥ
Ġf rig
ĠA ge
Ġdes ast
Ġtem Ã¡ticas
Ġper feitos
ess enta
Ġmar rom
ĠFin almente
ĠTerc eira
ĠSEG U
N S
ĠS IN
Ã³ grafo
ĠU r
Ġle ads
ik i
ĠJac ob
Ġrob ust
Ġresul tante
ĠESP EC
ĠdÃ©b itos
N ada
ĠR F
Ġele ger
Ġca utela
Ġav Ã³s
gan Ã§a
Ġsist emat
Ġvi Ãº
ĠCor oa
Ġcripto mo
6 00
Ġm Ã©
Ġt aÃ§a
Ġminist rado
Ġâ Ļ
ĠTro voada
ĠaÃ©re o
ĠFarm Ã¡cia
Ġterrit orial
Liv ro
ĠvÃ©s pera
Ġpern amb
S ub
ĠGu aran
Ġmor o
Ġperfe itas
Ġcruz amento
m iss
on entes
ĠD ol
Ġab af
Ġmed alhas
ĠCar la
port un
Ġ12 5
ĠOr Ã§
Ġvend em
Ġrecup era
Su per
Ġes m
ur idÃ£o
âĢĿ âĢľ
ĠH avia
Ġsegu idos
ona ve
ĠCamp ina
ĠRos Ã¡rio
Ð¸ Ð
ĠBro wn
ĠÃŃnt ima
in he
Ġab rig
Ġvir ia
Ġconseguir Ã¡
Ġdemonst rando
Ġaz uis
erior mente
Ġt Ãª
Ġpart ÃŃculas
Ġrep ouso
ĠGra ndes
RI M
Ġprem issa
Ġvin dos
Ġvende dores
S endo
Ġs ha
ad d
ĠC y
ĠM ill
Ġinstitu cionais
Ġprevis Ãµes
ENT ES
ĠCu rios
Ġvari edades
Ġencom endas
Ġesclarec imento
Ġt Ã´
ĠR PG
Ġ8 1
Ġsust enta
Ġla udo
Ġanunc iada
Ġesco nde
Ġsecund Ã¡rio
ĠWilliam s
ĠNotar izada
Ġm i
ĠAc esse
cion ar
ĠAg rÃŃc
Ġatend idos
Ġdiferenc iada
Ġst ream
ep h
ĠEr n
Ġimpro vis
K K
à ¤
um bo
ĠP OL
Ġno bres
Ġentre i
ĠAl v
Ġconf iÃ¡veis
cer ia
plic aÃ§Ã£o
Ġtan que
ĠGram ado
Ġque imar
ot s
Ġsurpre endeu
Ġfis icamente
Ġdirecion ado
Ġimig raÃ§Ã£o
Ġpoleg adas
ĠF aro
ve nda
ĠG ard
ĠPro tocol
EL L
Ġmec Ã¢nico
ĠOp Ã§Ãµes
E nte
r in
qu Ãªs
ia b
Ġman ob
Ġba ilar
Ġcomun ista
Ġprovoc ando
ĠIr landa
Ġotim izaÃ§Ã£o
ĠINF ORMA
G osto
m g
Ġm itos
Ġv ela
Ġenc ost
ĠIs land
Ġado ram
Ġ198 4
ĠCert amente
Ġy outube
Ġconcent ra
Ġcomplic ada
ĠNorm almente
Ġconven iÃªncia
ĠAst oria
Ġhorm Ã´nios
IVERS IDADE
iv ando
ut h
Ġpre parou
Ġ18 4
Ġlar go
ĠBe atriz
ĠRen an
Ġmast urb
u fa
Ã³ ias
Ġ2 20
ĠF avor
Ġol hares
Ġhon est
Ġfoc ada
Ġespecialment er
ĠBarros o
Ġeletro dom
ĠOrd inÃ¡ria
Ġs h
Ġre du
Ġpo Ã§o
Ġcond utores
Ã©r pre
Ġdesenvolv em
Ġcontinu o
ĠÂ ĵ
Ġlig eiramente
one te
Ġelim in
Ġvin das
C AM
n em
Ġe ndo
ĠL ive
Ġsin Ã´nimo
ĠTe am
Ġge om
ocal ipse
S istema
Ġs orr
ĠP io
oc up
ĠN uno
ĠSu Ã©cia
Ġimp Ã©rio
ies el
Ġbeb Ã©
Ġacomod aÃ§Ã£o
Ġtatu agem
Ġfragr Ã¢ncia
Ġv amp
Ġgra f
ĠAl ianÃ§a
Ġalim enta
Ġencer rou
Ġprotec Ã§Ã£o
Ġhorizont al
I mag
p at
s or
Ġm ato
ĠP it
at ilidade
Ġinv este
Ġlev anta
ĠCar mo
Ġpag as
ĠCor onel
Ġperf umes
ĠmÃºltip los
or s
ĠR Ã¡p
Ġtra nc
Ġapre nda
ĠAd oro
Ġdefin iu
Ġisol ada
Ġsold ado
ĠPedag ogia
az eiro
Ġcap ut
Ġ9 4
Ġrep aros
Ġpossu ÃŃa
Ġaval iado
Ġemb arca
Ġexig ido
Ġparec ida
Ġtoc ou
Ġdesenvolve dores
Ġlanc he
Ġinflam aÃ§Ã£o
P ublic
c t
et Ã¡rio
Ġra ra
Ġconv ites
Ġsatis feitos
Ġcans ado
ĠÃ¡c idos
ĠCB F
f ol
ĠBrasil eirÃ£o
iam entos
Ã©cn ico
Ġelabora da
Ġefetu ado
Ġpolit icamente
ĠAcomp anh
u rei
re las
to ras
ĠEst Ã¡gio
Ġlu tando
Ġun idos
ĠmÃ©d icas
Ġaplic Ã¡veis
ĠSen na
Ġmac io
æ Ĺ
in ville
ĠP ant
ĠT Ã¡
ĠG reg
ÃŃs se
up i
Ġdev agar
Ġinform ados
De vido
Ġpriv ativa
erva Ã§Ãµes
Ġescolh i
Ġconced eu
ĠGabri ela
Ġmoch ila
Ġporcent agem
I nte
n orm
Ġc ib
ri go
ĠL ife
pe ndendo
Ġpe guei
Ġgost amos
ĠRel aÃ§Ã£o
Ġobserva Ã§Ãµes
ĠVeter inÃ¡ria
Ġde fic
Ġac Ãºmulo
Ġcre ntes
Ġcombina Ã§Ãµes
ĠAnim al
ĠS amba
Ġsim ulaÃ§Ã£o
ĠSegu ros
ĠLa ure
ĠLim p
Ġjuris diÃ§Ã£o
ĠPorn Ã´
T M
ĠS ind
Ġtrans ando
Ġprofiss ion
Ġmant Ãªm
Ġbal cÃ£o
ĠquÃŃm ico
ĠfÃ¡ bricas
Ġcru cial
Cl ique
B IL
E qu
Ġc iente
Ġdist ra
ĠComp rar
E diÃ§Ã£o
p ode
Ġn ÃŃt
ist ar
ĠB H
igu ar
Ġautor izados
ĠMu ita
Ġimpl antar
Ġdistribu ÃŃdas
Ġresist entes
Ġpne um
ĠRog er
Ġbilh etes
per idade
Ġver so
hec o
ĠPor ta
Ġrep leta
Ã³d romo
Ġadminist ra
Ġrefer indo
ĠBN DES
er y
Ġf umaÃ§a
ĠC esar
ĠC erca
ant i
ĠH all
Ġsobre car
Ġag ronegÃ³cio
ordo u
Ġobrig atoriamente
Ġcomplex as
ĠSor ocaba
Ġmortal idade
O este
Ġesc ut
Ġrec ome
Ġsol ares
ĠInstitu iÃ§Ãµes
ĠConsidera ndo
Ġmonet Ã¡ria
A na
y right
Ħ ¢
Ġn ordeste
ĠC i
ĠC RE
Ġj us
ns es
Ġcol heres
Ġquad rado
Ġabord ado
Ġbio diversidade
Ġprovoc ou
Ġalinh amento
Ġdesperd ÃŃcio
v ou
Ġin erentes
ĠG ente
por taÃ§Ã£o
Ġesc ritas
Ġdisp utas
Ġve te
ĠPr Ã¡ticas
Ġpreocup ada
ĠMed ic
Ġcompartilh ada
ĠAmsterd Ã£
? .
S om
v Ãª
Ġv asc
ĠS outh
Ġch ec
Ġass Ã©dio
Ġcl aros
Ġfu nda
Ġfal ecido
Ġmal ign
Ġperman eceu
ĠTr indade
ĠLou is
raria mente
Î ±
ĠS ede
Ġdes b
ĠV III
Ġsobre n
Ġprim o
Ġtro pas
ux a
Ġpermit am
ĠComp ra
Ġgol e
Ġgr Ã£o
eter ia
Ġarmazen ar
ĠAur Ã©lio
w all
Ġem endas
Ġre impressÃ£o
ul antes
ĠB enefÃŃcios
ĠN ob
ĠEs s
Ġsuper intend
IN I
ĠZ ero
v isa
Ŀ ¤
Ġp ur
Ġpro feta
Ġ( +
Ġsu pre
Ġtra duÃ§Ãµes
Ġinter rog
Ġlou vor
Ġsusp enso
Ġabandon ado
Ġign orar
Ġtape te
Ġgarg anta
O O
Ġt ÃŃm
ĠT C
ĠF ato
ĠQu arta
Ġpag am
ch Ã£o
ĠPr Ã©mio
Re uters
Ġafet am
ĠquÃŃm icas
Ġaust ral
Ġasfal to
? âĢĿ.
v ai
ina res
ER C
oro este
Ġorganiz ados
Ġtelef onia
Ġarm ad
Ġgri pe
ĠHart ford
re ga
ĠA juda
Ġb ran
Ġb isco
ĠM B
ĠT ail
ag en
Ġcor da
Ġdev edor
Ġacontec eram
IN H
rÃ© ia
Ġdepend Ãªncias
Ġcorrespond entes
ĠBatal hÃ£o
B log
Ġs ar
ĠM oss
Ġser iedade
Ġmu das
ÃŃl ica
Ġpare ceu
Ġproduz iu
ĠPRO GRAMA
Ġunif orm
ĠGet Ãºlio
. ),
un e
Ġcont ente
ĠV ac
Ġreceb idas
Ġesquec ido
Ġventil aÃ§Ã£o
Ġsut il
Ġprelim inar
S ob
S elec
it ies
Ġl Ã©s
Ġab rem
Ġceleb rado
Ġensin ou
V ai
Ġp iada
Ġam ino
Ġad iv
Ġmat erno
ena u
Ġfra udes
Ġdeleg aÃ§Ã£o
Ġm ai
ĠN ig
Ġsub indo
ĠEM PRES
ĠGab inete
Ġesport ivas
Ġconselh eiros
Ġpiz za
ic Ã³p
Ġsegu imento
Ġsuc essÃ£o
ĠincÃªnd ios
Ġvulnera bilidade
ru da
Ġcump rindo
Ġtrata va
ĠSan ford
ĠGal axy
Ġsap at
ĠNorm as
ĠLanÃ§ amento
C ateg
f Ã©
it ano
ec tr
ĠF ase
ĠG roup
Ġrealiz arÃ¡
Ġcria mos
Ġbal ance
Ġmundial mente
Obrig ado
A comp
Ġe ixos
Ġb ibliotecas
ĠB ea
Ġac ne
ob ia
ĠCom arca
uc h
Ġleg alidade
Ġintegra dos
Ġpreoc upe
Ġment iras
Ġcru c
ĠDesc ob
Ġmotoc icleta
R F
ĠP EC
Ġfo fo
Ġen ver
Ġentre gas
ub atÃ©
Ġfra cos
Ġcrist ianismo
ĠPos s
ĠNew ark
Ġpassag eiro
Ġback up
Ġl amb
ol iÃ§Ã£o
do B
if f
Ã³d ia
Ġfer imentos
Ġvers Ã¡til
Ġgar gal
Ġcant inho
ĠavanÃ§ ados
Ġregular izaÃ§Ã£o
Ġmaravilhos os
Ġmonst ro
Ġp atro
Ġb ug
Ġin ver
ĠO d
Ġinf ect
ĠArt igos
Ġexib e
Ġlingu agens
ĠMora is
Ġenga jamento
B ER
ĠA V
ĠPre ta
ĠRes po
ĠPer f
Ġult imo
Ġpet iÃ§Ã£o
Ġ197 5
ĠF L
Ġtra fica
Ġam ort
ĠEst rada
Ġcria Ã§Ãµes
fic ientemente
ĠEd ifÃŃcio
Ġweb cam
Ġobed ecer
ĠSand ra
Ġadmira Ã§Ã£o
Ġmobil e
Ġterrest re
Ġprimord ial
Ġp ip
Ġque das
Ġre is
ĠP il
Ġb ig
Ġfo gÃ£o
ĠG az
Ġdecis ivo
ĠBo x
Ġalem Ã£es
Ġtransfer Ãªncias
Ġdefens or
Ġpo rem
pa po
Ġapro va
ĠLe o
Ġpromo vem
ĠArm ando
Ġs ÃŃtios
Ġes feras
Ġform ados
ron g
Ġprofissional ismo
Ġconstitu ir
Ġdelic ada
Ġalav anc
crat es
ĠPlata forma
v idar
ĠC ine
ĠP Ã©
Ġcar Ã¡c
Ġsa que
Ġav anÃ§a
Ġajud aram
ĠMin i
Ġmac ia
Ġrecomend amos
RAN ÃĩA
Ġpaul ist
Ġacolh imento
Dire ito
t ia
Ġgrande za
Ġident ificada
ĠFre nte
Ġjo elho
ĠAcad Ãªmica
Ġnutric ional
Ġexcess iva
ĠPROC ESSO
m ite
Ġs oro
ĠA Ã©cio
Ġtra to
Ġcont ag
ĠV ill
Ġpare Ã§a
ĠRec up
Ġba gu
In stituto
Ġsuje ita
Ġexclu ir
Ġencar gos
ĠSelec ione
p Ã£o
r iv
Ġp Ã³dio
ĠM ap
ĠR ess
Ãº bal
ĠJ ones
pl it
Ġcontribu iu
ĠcarÃ¡c ter
Ġm aria
Ġpro g
ĠAn na
Ġdom inante
Ġpeg ando
Ġgo ogle
ĠInvest igaÃ§Ã£o
ĠOB JET
Ġcerve jas
b il
c inco
ĠR ED
ĠF ique
Ġsobre mesa
fer son
Ġir iam
Ġespecial izadas
Ġconstru ÃŃdos
Ġaut arquia
ĠInc lusive
ÃĥÂª ncia
b urg
gu ia
Ġor n
enc iado
ĠPara ÃŃso
Ġexc ed
graf a
ik es
Ġdorm itÃ³rio
ĠImpera triz
ent s
Ġcont ados
Ġcr Ã´nicas
Est as
Ġabord agens
Ġbio grafia
ĠInc lu
Ġtrib uto
ĠinÃ©d ita
adern aÃ§Ã£o
Ġre tar
Ġb ullying
Ġpass ivo
Ġdeix arÃ¡
ws ki
Ġcompos iÃ§Ãµes
ĠCorr Ãªa
ĠContem por
N E
l ia
Ġal vos
Ġel o
Ġsab iam
Ġcap tar
ĠMar inho
Ġpal p
ĠCh ris
Ġinov adores
ĠDist ribu
Ġse cos
an ga
ver y
Ġcol oraÃ§Ã£o
Por tugal
Ġprest aÃ§Ãµes
Ġbanc Ã¡rios
Ġesto ques
Ġp iro
er b
Ġpl at
Ġrest abelec
ĠEsc ritÃ³rio
ĠÃłqu eles
A utor
Ġd iar
Ġco c
ho ra
quer que
Ġtrans f
Ġut ens
Ġequ iv
ĠAnt ec
Ġfra c
IV OS
ĠBra ganÃ§a
ĠSt udio
Ġeduc ativas
Ġsint onia
ãĢ ĳ
Ġindire tamente
ĠromÃ¢nt ica
ĠDer ivado
Ġsangu ÃŃn
Ġpesc adores
d eias
ÃŃ aco
Ġpre feita
ĠJ am
Ġprim Ã¡ria
ĠEx press
Ġrep art
Ġpot ente
Ġtrein ados
ĠCON T
ÃŃg ios
ĠclÃŃn icos
ĠResta ura
Ã¡ teis
gu er
le ans
Ġrec ado
pe nde
Ġmud aram
Ãī RIO
ĠRes ol
Ġgovern antes
ment s
Ġgas ta
Ġfest ivais
Ãĵ RIO
Ġagress Ãµes
Ġpreconc eitos
Ġdesport iva
Ġarrisc ar
ĠTod avia
A IS
M at
j es
Ġco pos
ern al
Ġsist emÃ¡tica
Ġconstru indo
Ġapo ios
ĠAcad Ãªmico
Ġindire ta
== ==
ĠESC OL
ĠTEC N
v Ã©r
al ena
ĠB I
Ġir rig
ĠCl ar
ĠRes ort
Ġsec agem
Ġobserv ados
Ġmanif estou
ĠvÃ¡l idos
Ġbic ho
ĠsuperfÃŃc ies
Ġrecip iente
Ġo missÃ£o
ĠM og
Ġpou par
Ġenvol veu
Ġ17 0
Ġunivers itÃ¡rios
Ġlegit imidade
ĠR G
Ġch oro
Ġcond ens
Ġleg almente
Ġvir tudes
Ġclass ific
ãĢ Ĳ
Ġio gur
ĠxÃŃc ara
ĠBene fic
Ġse cas
ĠQu atro
Ġop tou
ĠW ell
Ãĵ G
Ġcaminha ndo
Ġdren agem
ÃŃ am
ĠM ex
Ġos so
ĠR ica
ial is
inho u
IS BN
Ġlit ro
Ġestran hos
Ġrele vo
ĠHum anas
Ġfranc eses
Ġprem iado
Ġartic ulaÃ§Ãµes
Ġcrimin alidade
Ġdram at
Ġespiritu alidade
" ).
V ID
Ġdist Ãºrbios
ĠEl ias
IM O
ĠBen jam
Ġrus sa
ĠorÃ§ amentos
Ġques ito
S abe
Ġc rem
il s
Ġsegu idas
ĠPro nto
Ġinc Ã´m
Ġfil iados
ĠRes idencial
ĠEl ect
Ġdim ens
Ġassin aturas
ĠDom in
Ġress urreiÃ§Ã£o
Rec entemente
Ġdegrad aÃ§Ã£o
iz antes
Ġpl Ã¡sticos
Ġexpl ÃŃc
Ġbanh eira
Ã³st icos
tion s
ĠDou glas
Ġreproduz ir
ĠÃ¡ra be
ĠcÃ© le
Ġinadim pl
Ġamino Ã¡c
an Ã¡lise
ĠD ro
Ġdef ensores
Ġinter ferÃªncia
ac he
ĠL obo
Ġcont ing
Ġor gas
Ġalgu em
Ġdev idos
Ġmag o
Ġmist Ã©rios
Ġsubs ÃŃdios
Ġo ver
Ġt ig
eg al
Ġfin alizaÃ§Ã£o
Ġsa ÃŃdo
ĠMat heus
ĠAf ric
Ġquestion a
Ġchurras co
el et
Ġin e
Ġdes gra
ros e
Ġpl ateia
Ġcri e
Ġsocial ista
Ġvi Ã¡vel
Ġenerg Ã©tico
Ġating indo
ĠSt ud
Ġjud iciÃ¡rio
Ġpertenc ente
Ãºp ula
Ġdesdo b
Ġref res
ĠAss istente
ĠPS B
Ġvolunt Ã¡rio
Ġpercent uais
ĠÃŃnt imo
Ġburo cr
ĠWh ite
Ġline ar
Ġreag ir
k top
Ġ ]
ĠS AP
Ġcorpo rativos
inte t
ĠAssembl Ã©ia
Ġsuspend er
i ense
en aÃ§Ã£o
iz ed
ĠD P
Ġat entado
ĠI SS
Ġte Ã³rica
ĠCons ulte
TE L
PS L
Ġmac ro
ĠcÃ©l ula
ĠPublic idade
Ø§ Ù
Ġlum inos
l l
p m
Ġf ul
il da
Ġve ndendo
ĠmÃ©d ios
Ġfl utu
Ġrefug iados
Ġhonor Ã¡rios
ens ivo
end imento
Ġgra va
Ġpas toral
Ġvis ÃŃveis
pec t
Ġsub sequ
ĠMin eiro
Ġcert ame
Ġreal idades
ðŁ ĳ
Con v
Ġtermin ais
Ġvest uÃ¡rio
Ġaguard ando
Ġinoc ente
Ġn ord
oc os
Ġes mag
Ġim obil
for o
Ġpo eira
ĠMas sa
Ġconv idar
ĠAg r
Ġital ianos
ĠÃĤ ng
Ġevid encia
Ġinvis ÃŃvel
Ġ ~
Ġcomp uls
ĠReg ist
Ġtur ÃŃstica
Ġrod ar
inger ie
F ranc
Ġt oa
Ġf irma
Ġconhec endo
Ã¡g il
ĠCam ilo
Ġfund ado
Ġado tadas
Ġneu ro
Ġpret ensÃ£o
Ġj Ãºri
Ġal l
ÃŃc ie
00 00
ĠAl o
Ġcorre tor
Ġgera da
Ġtam anha
Ġmol Ã©c
ĠMed ida
Ġcic atriz
Ġcampe Ã£
ĠLic enciatura
Ġsenso res
Ġber Ã§o
Ġtablet s
Min istÃ©rio
w eb
ĠS ci
ĠM Ã´nica
Ġrec ordar
ĠPro vis
Ġencont rÃ¡
Ġev ite
ĠRe do
ĠOr qu
Ġreun idos
Ãºn el
ĠLoc alizaÃ§Ã£o
Ġanda va
we en
Ġde pre
Ġt ona
Ġf Ã©r
Ġv ilÃ£o
ĠP adrÃ£o
ĠS iga
ĠB iolÃ³gicas
ĠB Ã¡rbara
ig am
ĠV eg
ĠU OL
ĠQu eremos
ĠCons ol
ÃŃm etro
Ġperd idos
ĠpÃ¡g s
ĠAb aixo
alha u
Ġgay s
on ÃŃvel
ĠF OR
de ndo
ĠPro posta
Ġtempo radas
ĠDire tora
Ġlib era
ĠSil vio
Ġimposs ibilidade
Ãļ DE
Ġcorrespond Ãªncia
Ġbl ind
Ġmach uc
ĠGl Ã³ria
Ġfom entar
A mb
Ì §
ĠP iso
Ġ- --------------------------------
Ġass em
Ġprop Ã³sitos
Ġk kkkk
Ġbo ok
Ġsai b
Ġrot inas
Ġprol if
Ġrique zas
b enefÃŃcio
an ema
Ġpor ra
Ġam amos
Ġr Ãºst
ĠMas t
Ġmant idos
bo y
Ġder mato
ĠAnd re
Ġdemonst rado
Ġdign a
Ġconcess ionÃ¡ria
ĠCaracter ÃŃsticas
ĠIra que
a uto
l ist
it Ã¡veis
Ġre man
Ġmin eira
Ġinter ferir
let ismo
Ġne o
Ġlegisl ativo
à¸ ²
ĠLuz ia
G o
n ap
Ġ _
es pa
Ġf lash
Ġb ilhete
Ġcria tivas
Ġeduc ativo
Ġcomprov ado
m Ãµes
r ital
at ados
Ġan ima
ĠInt erc
Ġdel im
Ġanalis ado
Ġalmo f
Ġacredita va
Ġpedag Ã³gico
Ġc aram
en ar
Ġre it
ĠP iment
gu eiros
Ġac orda
ĠG od
Ġcl os
ing Ã¡
Ġconst ar
Ġrep ro
ĠPl at
UA ÃĩÃĥO
ĠIndepend Ãªncia
at ive
co po
Ġcor rem
Ġform ais
ĠPer gunt
Ġaud iÃªncias
Ġabus os
T ex
f ix
as on
id Ãµes
Ãĥ Âº
Ġman g
Ġsocial mente
Ġven ez
Ġadapt ado
p Ã¡
Ġsem inÃ¡rios
amb u
ato logia
Ġfuncion ou
ĠÃģ r
ater ial
Ġdetal hada
Ġlog ot
Ġlegit im
F ui
S OS
b ert
s ites
ĠM i
ac red
ĠN ACIONAL
Ġpre feituras
Ġra ras
Ġpol i
Ġativ ar
Ġmant Ãª
Ġinaugu rado
ĠServ idor
Ġescre vo
Ġbuc etinha
ĠExerc ÃŃcio
PÃ¡g ina
S I
um enau
Ġsu or
ĠJ ard
Ġgra na
ĠRe almente
ĠZ ac
reg os
Ġplane ja
Ġceleb ridades
Ġregular idade
Ġaer onave
Ġcop iar
J esus
Ġcons ultores
Ġenvol vida
Ġanal istas
Ġsaf ado
C art
U RA
Ġm obiliÃ¡rio
Ġver bal
Em presa
ER O
ĠCl ientes
Ġajud arÃ¡
Ġfirm ado
Ġpere gr
ĠS ISTE
iz adores
ir st
ĠAl an
Ġconf ratern
ĠAm aro
Ġrep asse
Ġing ressar
Ãºc leos
Ġtransmit ido
in agem
Ã³ metros
Ġg esso
eg ar
Ġsa Ãº
Ġcond utas
Ġil im
Ġmora n
ĠProc ure
Ġelev adas
ĠQU AL
z ia
Ġtra f
Ġel ast
Ġrest os
Ġfinanc iar
ĠOr leans
Ġcart Ã³rio
ĠVe ÃŃculos
Ġfix ar
Ġatribu ÃŃdo
Ġmass ac
Ġcachor ros
Ġgradu almente
Ġreemb olso
n ie
Ġv s
Ġest arei
gu ez
ĠT OD
ĠG est
Ġconf iante
Ġsal ada
Ġk its
Ġparc elamento
ĠJu azeiro
ĠtÃŃp icas
ĠTele fone
S INO
Ġpr Ã©mios
Ã´ r
hec k
ĠEm erg
Ġext rav
Ġ9 1
Ġce arense
ĠBei jos
A TO
p so
Ġn ua
st ata
ĠC atal
Ġb ras
Ġpres identes
ĠQu eria
Ġir rita
Ġcanc elar
ĠSU PER
EX O
Ġconvid ou
vide os
ĠLGB T
o pe
Ġm s
Ġest er
ĠH ob
ĠAl g
Ġfal Ãªncia
Ġfin as
Ġref erem
ĠConc elho
Ġcomum ente
Ġescolh idas
Ġchin eses
urs Ãµes
Ġsofist icaÃ§Ã£o
Ġsemif inal
n ers
qu eiros
Ġv an
il lo
ĠD Ãª
Ġsu cos
Ġcomp Ãµe
ce pÃ§Ã£o
Ġpromo tor
Ġvir gem
Ġdom ina
Ġcirc uitos
ĠestratÃ©g icos
Ġcrit icou
Ġsup rir
Ġacamp amento
Ġveloc idades
ĠC Ã¢nd
Ġno ivo
ĠT ai
ust ria
Ġpes ar
Ġmo ve
Ġengan ar
Ġdespro vido
m ulas
v ente
Ġo vel
ĠL ut
ĠV a
Ġcas ou
Ġr Ã¡dios
Ġpol o
Ġval em
Ġconstru iu
Ġaprove ita
Ġps ÃŃqu
Ġsil icone
Ġacresc entando
ĠFis ioterapia
Fern ando
is la
ĠM ON
ĠB C
ĠF ri
ĠV ÃŃdeos
Ġesp re
ÃŃc ius
Ġcontra tual
Ġinf ilt
ĠComp leto
Ġtent aram
Ġfol ga
Ġquestion Ã¡rio
in amente
ĠM C
on ista
om ento
ĠF ashion
Ġab ac
pe ras
ĠprÃ³ stata
Ġcontra tada
Ġcole tivas
ĠFa ir
Ġfort una
ĠNaz arÃ©
T endo
Ġc anta
Ġc aneta
il Ã¢ndia
Ġreg ress
Ã©t ricos
Ġret rata
ĠLu gar
Ġaval iou
Ġrefer idos
ĠLoc alizado
Ġlen Ã§
re va
ĠS chool
Ġma xim
ĠPer feito
OM E
Ġbenefic iados
ĠVin icius
ĠOfic ina
Ġo rar
era dores
Ġped imos
ch am
ĠAd am
ĠAd vent
Ġserv indo
Ġado raÃ§Ã£o
Ġmand ados
Ġren Ãºncia
cend ente
Ġdenunc iar
Marc adores
ĠDut ra
b idade
ad ec
Ġv elas
iz o
Ġsu ficientemente
Ġcump rido
ĠGost ei
ĠLÃ© o
Ġco ta
ĠM AT
Ġpor tugal
ĠG eraÃ§Ã£o
Ġpre nd
Ġus os
ĠÃº tero
Ġve jam
ĠDes porto
Ġcent ÃŃmetros
Ġfalta ndo
Ġgrav ou
Ġagrad ece
ĠHum ano
ĠSte ph
Ġfrust raÃ§Ã£o
Pod emos
ĠTay lor
S ÃĥO
ĠL G
ĠH O
Ġab d
Ġk kk
ĠFest as
Ġbatal has
Ġdistingu ir
Ġm emb
Ġo t
at ada
ig raÃ§Ã£o
Ġab at
inh ada
ĠPro t
Ġped estres
Ġtro no
Ġbar cos
Ġsuspe itas
Ã©st icos
Ġlin f
. _
as y
Ġre vi
Ġref Ãºgio
Ġconsidera Ã§Ãµes
ris os
ĠCap ac
Ġdedic ados
Ġapl ique
Ġsofist icado
Ġespalh adas
ĠAtlÃ¢nt ica
S cript
l io
to re
Ġg lam
ĠT ema
Ġac eder
Ġverm elhos
Ġtempor Ã¡rio
Ġcoron el
ĠAlbu querque
f am
Ġp Ã¡l
ĠS id
Ġg Ãªme
Ġent up
Ġconv idada
Ġlim ita
ĠIs l
Ġagrad eceu
Ġaleg ando
ĠLat ino
ogrÃ¡f ico
Ġdescobri ram
Ġhel icÃ³p
Ġstartup s
P DT
Ġn ivel
or Ã³
Ġv aca
ĠP AC
Ġno velas
ial idade
Ġfin alizou
ne Ã¡rio
Ġdu plas
Ġdetal h
UL AR
Ġdiscut ido
ĠDist Ã¢ncia
Ġatend em
ĠUs ando
ĠsÃ³l ido
Ġtrop ical
e os
ĠA i
ĠS mart
og ado
Ġim ens
ĠH igh
Ġcam iseta
Ġapro p
Ġrep aro
ĠAg ente
Ġimpl icaÃ§Ãµes
Ġdet Ã©m
Ġconquist ado
Ġadqui riu
Ġpatrim onial
ĠPetr Ã³polis
ĠM ir
iz aram
aliz am
Ġha ve
Ġlib ertar
Ġvenc ido
Ġagend amento
Ġpregu iÃ§a
em o
Ġen xa
Ġret roc
ĠEn quad
ĠSal om
Ġindic adas
IL H
Ġfemin inas
Ġtub os
ĠSta nd
ĠcÃ¢mara s
Ġimpresso ra
Ġcabel udo
z en
ria n
ĠMar x
Ġsign ificados
Ġsabe res
Ġinicia ntes
Ġaprend emos
ĠBr in
estra is
Ġgesta ntes
ĠXV II
ĠAnim ais
ÃĶ N
Ġcigar ro
Ado rei
O ri
Ġn in
ic iÃ¡ria
ĠP ab
ĠL ÃŃb
ĠV end
Ġencont rando
ĠW at
Ġfer ido
ĠAg ropecuÃ¡ria
ĠMil ton
Ġimper ial
ĠApre nda
ï¼ Į
V ia
Ġde son
ÃŃ as
Ġdes valor
Ġcons ul
Ġro tas
Ġpont es
Ã¢m icos
ingu e
Ġespera nÃ§as
Ġbol s
ece dores
Ġdirig e
Ġmarav ilhas
ĠIndepend ente
ĠESTA DO
d utos
ĠH Q
Ġus ina
Ġra tos
Ġsens ual
ation s
ĠSecund Ã¡ria
Ġf ura
it ic
ĠR EL
Ġpa ut
Ġprop ina
igu idade
Ġmens almente
Ġatribu ir
Ġsor rir
ĠÃģl varo
ĠS ystem
ĠF ogo
ĠJ azz
tu ba
Ġcump ri
Ġinterv alos
Ġdesap arecer
Ġderro tas
Ġimpres sa
ĠDou ro
Ġcomet idos
Ġintol erÃ¢ncia
Ġartesan ais
Ġb lu
ĠS ra
Ġg rito
Ġsob ranc
ĠCom and
Ġcol igaÃ§Ã£o
Ġdeix ava
ĠAm erica
Ġrecomend ada
Ġinterpre taÃ§Ãµes
Ġvira l
Ġprivileg iado
ĠCla udia
ĠClÃ¡ udia
Ġas p
ĠF ico
Ġju ÃŃza
Ġon ze
Ġpen itenc
Ġexecut ados
Ġsofre ram
ĠST P
Ġmetod ologias
Ġtemp estade
ad inhas
ĠP ris
gu inho
ĠRe y
igu ra
ĠJo inville
ĠCol eg
Ġpassa porte
Ġacel eraÃ§Ã£o
Ġdesab af
ĠRecom end
Ġoriu ndos
Ġincons ciente
Ġworksho ps
ĠGrÃ¡f ico
i Ã§os
Ġco g
ĠM ai
Ġex ata
bl oque
ĠW ood
ass im
ĠavanÃ§ adas
Ġbrin des
Ġbei j
ĠAlt ern
O ra
ul sos
Ġdes po
ĠG ERA
Ġan Ã´n
Ġutiliz ou
Ġdisc ern
ĠLu iza
ĠAssoc ia
ĠSet Ãºbal
ĠMor umbi
ÃĬNCIA S
Ġcalcul ado
ĠVerm elha
! ,
D R
J O
Ġc acau
Ġre pos
ri el
et ria
inc luindo
Ġtre vas
Ġdiscipl inar
Ġassass ino
Ġchap Ã©u
Ġa go
ad eza
em Ã¡ticas
ir c
ĠG U
Ġart ilh
Ġfe io
Ġsecret Ã¡rios
Ġglob o
ĠHo ras
ĠServ idores
Ġbru ta
ĠWar s
Ġbura cos
ĠU V
Ġesc uridÃ£o
per t
Ġinte raÃ§Ãµes
rat ividade
Ġmed e
Ġinform ativo
ĠPre gÃ£o
Ġcoloc Ã¡
ĠPal estra
Ġencom end
Ġsangu ÃŃnea
Ġerot icos
Ġterceiriz aÃ§Ã£o
Ġtriun fo
ĠTRABAL HO
F iquei
G ov
Ġc era
Ġimporta nt
Ġinteress ada
Ġep idem
IF A
Ġfr Ã¡gil
Ġfarm Ã¡cias
Ġobst ante
Ġvinc ulado
Ġconcorre nte
rov aÃ§Ã£o
Ġinfin ito
Ġbloc k
Ġdomic ÃŃlio
Ġprove ito
A val
F re
t it
w o
Ġf id
us ca
ĠB ic
Ġdistribu ÃŃdo
Ġagrad Ã¡veis
Ġsolic itou
Ġmult i
Ġsubstitu to
Ġfech adas
Ġcomplem ento
Ġplan ilha
Ġconfer Ãªncias
Ġbiol Ã³gica
Ġpront as
ĠMU ITO
! âĢĿ.
Ġt Ãªx
ro me
ĠA just
ĠP RA
Ġpro gressÃ£o
Ġadmit iu
Ġacomod ar
Ġaprimo ramento
ĠPÃļBL ICO
I r
M DB
ĠC ura
ĠB B
Ġsol ta
ĠSant uÃ¡rio
Ġsen adora
Ġpovo ado
Ġdor mindo
At enÃ§Ã£o
Ġapaixon ados
Car los
Ġtes ouro
ÃģT ICA
Red aÃ§Ã£o
F I
Ġg ene
ĠF lash
Ġim obiliÃ¡ria
Ġpres as
ĠDe v
esta b
ĠEx ecuÃ§Ã£o
VocÃª s
Ġdestac ado
Ġrem od
Ġ197 9
VE IS
! âĢĿ,
le nd
ĠB oca
ĠN esses
Ġpes ad
Ġpal Ã¡cio
Ġdi Ã¡logos
Ġcan ela
Ġdesp acho
Ġfix ado
ĠAra caju
Ġilust raÃ§Ã£o
Ġtransmit ida
Ġjo elhos
Ġacol her
l ib
Ġtod avia
eb er
rat ura
Ġinter rup
Ġbas quete
resc imento
Ġdig it
Ġassist i
Ġred ire
ĠÅ ¡
Ġpolit ica
) ?
C he
T IVA
p x
Ġt ucano
Ġap anh
est ruturas
Ġgra ma
eix a
ĠInd ivid
ĠTrans lation
Ġmedic aÃ§Ã£o
Ġ197 3
Ġimper me
D r
id entais
ĠO ntem
ĠL and
Ġan orm
Ġcomp arec
Ġpas t
Ġespec tro
Ġcham amos
AD AS
Ġreun iram
ĠBa uru
Ġvolunt Ã¡ria
ĠSara iva
izz are
p df
Ġex er
Ġrec olha
ĠMar ÃŃlia
Ġate ndeu
ĠPer ceb
Ã³n imo
ic ias
ul heres
Ġest Ã£este
et izadora
ĠL ind
Ġint Ã©rpre
ĠDes e
Ġvalor iza
nos co
uv as
Ġobserv ada
Ġcontrol ado
ĠTo y
ĠSur f
S et
ic idas
id Ã¡vel
ĠM eta
Ġes bo
Ġca ia
Ġinicia ndo
ĠBol etim
ii i
Ġeconom ias
Ġpros peridade
Ġpertenc entes
ĠMad alena
Ġreiv indicaÃ§Ãµes
VAL HO
ĠCord eiro
C IS
N inguÃ©m
g ando
ĠS l
ul adores
ĠE ucar
Ġ2 30
ĠT RE
Ġel ectr
Ġcheg arÃ¡
Ġprop Ã´s
In st
Ġband eiras
ĠSan itÃ¡ria
ĠRem o
Ġincomp at
Ġbata tas
Ġexcess ivo
o pa
Ġa gua
Ã©m ica
Ġch ip
Ġag ro
Ġrest rito
Ġtot alizando
Ġet iqueta
ĠDoc e
TAN TE
J ul
t ri
ta c
ĠL il
Ġim unidade
Ġcorre ria
Ġperson alizadas
Ġtro nco
Ġprest ÃŃgio
Ġnaqu ilo
Ġviab ilizar
Ã§ om
ĠN orma
Ġpre nde
Ġh ier
Ġpos tou
Ġdiz iam
Ġace itam
Nos sos
ĠVol unt
Ġdiferenc iados
ĠIr Ã£
ĠUt ilizaÃ§Ã£o
Ġatras os
Ġmister ioso
ĠCoop eraÃ§Ã£o
ĠInqu Ã©ritos
G rupo
ĠT AM
ĠInt el
Ġapre cia
Ġrepres sÃ£o
Ġmo ram
Ġsign ificar
Ap enas
tec a
Ġdeco rado
Ġarran jos
ĠCAP ÃįTULO
) ...
b ust
u res
il able
ec eram
te nd
ĠF orte
Ġex postas
ĠAr ra
Ġapo iado
Ġimport ados
bre cht
Res umo
Ġinterna utas
ĠAma nda
Ġeurop eias
Ġfraque za
Ġg oste
Ġcheg ava
Ġ/ >
Ġcaracter izada
fo im
ED ITAL
Ġleve za
Ġge ografia
Ġment ir
ãĥ »
ĠFab ric
Ġcomet ido
Ġsacerdo tes
Ped ro
- )
Ġm ural
Ġn etos
Ġf rios
Ġproc uro
Ġins umos
Ġw h
graf ias
Ġdel ito
Ġarm ado
ĠInvest imentos
Ġcompens ar
an izzare
ĠS UA
ĠM ÃŃdia
Ġmar g
Ġsub missÃ£o
ĠCar ga
Ġcorpo rativo
ĠCol or
ĠSol ic
ĠInc lusÃ£o
Ġintens amente
ĠSab emos
Ġexpres so
Ġdid Ã¡tico
ĠPrincip ais
Ġworksho p
ĠSco tt
Ġcarac teres
A i
C amp
Ġ xo
ĠR AM
ĠB apt
Ġca po
Ġso zinhos
Ġ198 3
Ġnut rit
Ġans iosa
Ðµ Ð½
ĠContra taÃ§Ã£o
ĠHuman idade
O n
n is
ĠS H
se v
ĠR astre
Ġi i
Ġgost em
Ġace ite
Ġdetal hadas
PS D
ĠTecn olÃ³gica
Ġbusc ou
Ġrequis ito
Ġviaj ando
ĠrelÃ³g ios
Ġtamp ouco
Ġde fer
Ġs intet
ÃŃ nt
Ġant ibi
Ġpes os
Ġtor res
ĠTÃ©cn icos
Ã©st er
can Ã£
Ġviab iliz
D OR
i Ãĥ
â Ħ¢
em Ã¡ticos
ĠPa iva
Ġins ulina
Ġconta va
iol Ã³gico
Ġmora va
Ġassum indo
Ġrod adas
ĠSO BRE
Ġvib raÃ§Ã£o
Ġdesped ida
ĠRecom endo
cand idato
Ġ \
ios idade
Ġtrans c
ĠFac il
Ġadap ta
Ġprefer ida
ĠSag rada
Ġpromoc ionais
Ġbor bol
ĠcÃ¡ps ulas
j oso
ar s
ĠC anc
Ġpod erem
Ġjog ado
ĠCar ibe
para r
Ġbenefic ia
Ġencaminh ados
ĠBat man
cond icionado
Ġco is
Ġg ross
ĠM issa
ĠJ O
Ġmar x
Ġpergu nto
Ġquad ras
ĠInd ic
Ġdesign ado
ĠInf Ã¢ncia
ĠPRO DU
Ġarm ados
Ġvin agre
Ġrepara r
Ġpinc el
Ġeg ÃŃp
s ab
Ġp u
Ġb orda
ĠS AL
on Ãªs
Ġes vaz
Ġ( âĢ¦)
ac es
Ġis l
tu o
Ġsol id
ĠAm Ã©ricas
Ġcal do
Ġdeclara do
Ġconclu ÃŃda
Ġcontempl ar
Ġprecios o
Fin almente
ĠNatura is
l ass
Ġcam ar
Ġrealiz amos
ĠMar ingÃ¡
ĠCas c
ĠJos eph
ach el
Ġcaracter izaÃ§Ã£o
ival do
Ġacum ular
ĠPier re
so bre
Ġdes ve
Ġcor pus
Ġpass iva
ĠRes erv
Ġinvestig ado
Ġagu da
Ġcurios idades
amar ca
ĠCir urgia
ĠJurÃŃd ica
ĠBrand Ã£o
Ġsatura Ã§Ã£o
ĠAdolesc ente
V OL
[ ...]
c abe
el eg
ĠP in
ul ite
Ġat rativos
Ġimp rov
ge is
Ġobjet ivas
ĠDO C
let ter
Ġconver g
Ġsepara das
Ġgo zo
yl ist
Ġemail s
ressa nte
ISS ÃĥO
Ġamig Ã¡vel
U MO
t icas
Ġm entes
Ġv ivas
). âĢľ
Ġcham as
ĠIm Ã³vel
Ġperceb ido
Ġautom obil
ðŁ ı
Ġavis ar
ĠDani ela
Ġmilag res
F C
Ġe cl
Ġs osse
idera nÃ§a
ws er
Ġhid rat
Ġ196 8
Ġassass inado
Ġfur to
Ġaeron aves
F onte
Ġp Ã£es
Ġdo ar
Ġna val
Ġcon nosco
EN DA
Ġdist Ã¢ncias
Ġdep artamentos
Ġganh ei
ĠÃ³t ica
Ġadquir ida
Ġsap ato
Ġesmal tes
D ADE
Ã§ aram
ĠP ES
Ġb izar
ĠS OL
la v
Ġesc asse
ex Ã£o
Ġcert ificar
Ġdema nd
Ġexib ida
ĠEqu ador
Ġdesm ont
ĠC ano
Ġl os
ĠG am
ĠAl encar
Ġatrav essa
Ġsuper ou
Ġvac inas
ĠsÃŃ nd
Ġacr Ã©scimo
ĠEscrit ura
Ġf ashion
ÃŃ sa
ut er
ĠO pt
ĠG le
iss ional
ÃŃn o
Ġoc or
Ġma x
ĠCol lor
Ġprest adores
ĠLei ria
Ġestudo u
Ġsair Ã¡
Ġfornec em
Ġprefer idos
Ġentend ido
Ġconso me
ĠsÃ©t imo
REG ULAMENTO
Ġstream ing
S ILVA
a e
s ecret
ion adas
ens iva
Ġfal tas
ĠCo nde
ĠCh Ã¡
Ġexplica ndo
ĠCri ador
Ġtransm ite
ĠAlf redo
Ġerot ico
Ġwhat sapp
æĹ ¥
b etes
k in
Ø ±
Ġp aix
qu Ãªncia
ent Ã£o
Ġsu ite
Ġped iram
Ġinst abilidade
ill on
Ġatend ido
Ġjapon eses
Ġalien aÃ§Ã£o
Ġparad igma
ĠBab y
D an
ĠS Ã£este
Ġg iro
ĠD ura
ĠT elecomunicaÃ§Ãµes
Ġap t
ros Ã£o
and as
Ġpo us
Ġcal mo
Ġcontro vÃ©r
Ġprivil Ã©gios
Ġafric anos
Ġblus a
m ega
Ġc int
al d
Ġf atal
Ġre Ãºn
ĠM apa
Ġin jet
ĠB ag
ĠB BC
Ġcor ro
Ġval idaÃ§Ã£o
Ġsec reto
ill y
Ġgovern amental
Ġult imamente
Ġimped indo
Ġconserv ador
Ġgre ga
ĠbÃŃbl ica
n ect
Ġem anc
ec ho
ut i
ĠT ST
ĠF Ã¡cil
Ġap osto
Ġpart indo
Ġpo usada
Ġatu alizadas
ĠGal eria
ĠJa gu
Ġress ec
Ġfum ar
ĠM ine
ĠM anhÃ£
ĠR ez
Ġap rim
Ġve ndeu
ric h
Ġur ina
Ġpint or
Ġderru bar
Ġnotur no
ĠEstud antes
ĠapÃ³st olo
Ġedu ca
ic le
ĠFor ma
ĠSol uÃ§Ã£o
ace te
Ġdefe ndendo
ĠSuc esso
L ev
T o
Ġc Ã³r
Ġb ico
Ġal us
ria no
ria na
Ġra ros
Ġdig amos
ĠFranc is
Ġcapital ista
Ġconsol e
Ġplan etas
ĠEDI TAL
Ġreman esc
ĠO C
ĠCom um
Ġconc reta
Ġvis l
Ã¡g eno
br Ã¡s
Ġrepet iÃ§Ã£o
Ġcompat ÃŃveis
Ġhorr ÃŃvel
Ġc itada
Ġl ema
ul eiro
ĠN orth
Ġat enta
ĠAl as
ĠIn Ãªs
Ġtrans vers
Ġtorn Ã¡
ĠCh Ã¡c
Ġden gue
Ġcaminh adas
Ġrenov ado
Ġfran quias
Ġec lesi
Ġ00 1
Ġsindic ais
ĠNet work
ĠDocum ento
ĠSA ÃļDE
Ġacion istas
Ġincomp et
Ġinsu ficiÃªncia
Ġpente ado
F e
R od
s che
Ġativ amente
ĠUm anizzare
ĠRec entemente
Ġpropor Ã§Ãµes
Ġmencion ados
ĠOrig inal
Ġau ge
it ador
ĠS iqueira
Ġpor tu
ha i
ĠL um
Ġmen Ã§Ã£o
ĠPa u
EN CIA
Ġajud ado
Ġbal e
Ġconsequ ente
ĠAmor im
Ġacostum ado
ĠPiment el
D essa
Ġ Ï
Ġ !!
Ġp neu
ra taÃ§Ã£o
re mo
Ġl igue
ĠM ix
art h
ĠCam a
Ġet ernidade
Ġpap ai
Ġpreenc he
Ġfornec idas
Ġsor vete
Ã¢nt ica
Ġdesap arece
Ġimagina va
Ġmetropol itana
I d
qu ÃŃm
es is
âĢĿ ?
ĠAp artamentos
Ġpublic itÃ¡rio
Ġfemin inos
ĠAlb ert
Ġang ol
Ġhidra tante
Ġliqu ido
urec imento
Ġgros sa
ĠTric olor
l Ã©
Ġf on
ĠR ora
ĠT Ãªnis
ĠF I
ch en
ĠmÃºs culo
ĠReg ionais
ĠIm obiliÃ¡ria
ĠDo enÃ§as
RI G
Ġapont ado
Ġcanto res
Ġselecion adas
ĠDi rig
Ġ196 9
ĠTex t
ĠDefin iÃ§Ã£o
isf aÃ§Ã£o
i Ã§
ra z
ro cos
Ġfil as
ĠLu x
Ġlemb ram
Ġarqu iv
Ġdescar ga
D oc
er Ã¡vel
Ġre ndeu
Ġequip ados
ulos o
Ã´m icos
etro it
Ġinov ar
Ġconsult Ã³rio
Ġameric anas
Ġprejud icial
Ġplanej ada
Ġcans ada
Ġcere ais
Ġdisput ado
z el
Ġm isto
ito ramento
ĠN ational
Ġconc ertos
Ġro taÃ§Ã£o
gar ida
Ã³r dÃ£o
Ġlev aria
Ġfund adores
Ġbanc Ã¡rias
ĠFont es
n io
s ua
Ġex or
ĠJ ane
Ġass embl
Ġjog adas
Ġacab amos
Ġexig ente
Ġvoc alista
Ġproteg idos
Ġinsc rito
ĠLar go
ĠEspanh ol
Ġc itadas
em on
Ġal ter
Ġdes mo
gra du
ĠCom m
AN C
Ġmus ic
ĠEnc adernaÃ§Ã£o
Ġsubst ancial
ĠtÃ©r reo
Ġdespre z
à¸² à¸
! ),
B l
Ġd icionÃ¡rio
Ġpos teriores
ez er
Ġju nte
gua io
Ġhum ilh
ĠIm obil
ĠEsp ÃŃrita
ect ivo
ĠCat edral
our nal
Ġnaqu eles
ĠfÃ³r mulas
Ġexped iente
Ġobed iÃªncia
atom ia
Ġcare ntes
ĠExtra ord
i Ã³n
Ġf atia
Ġl amento
ag ora
Ġesp ere
ĠH ay
Ġch ate
lo rest
orr ida
Ġprocess ar
Ġperman entes
Ġcampe onatos
ĠTex as
Ġcaptura r
Ġdesigual dades
ĠE ndereÃ§o
Ġdes astre
Ġres f
ĠAs pec
Ġcr ista
Ġliv ra
RA C
Ġmed iaÃ§Ã£o
ĠPol o
Ġsust entaÃ§Ã£o
Ġmorre ndo
ĠBal anÃ§os
Ad visor
Ġpress ionar
Ġengra Ã§ados
Ġsimp Ã¡tico
Ġmig raÃ§Ã£o
Ġbiol Ã³gico
Ġdescend entes
Ġs og
ĠB ang
ĠT RAN
Ġforma Ã§Ãµes
Ġ[ "
Ġdel aÃ§Ã£o
Ġmeta b
pag anda
Ġdesres peito
ĠHam ilton
A pres
ei jo
Ġpo etas
ĠAr ruda
des de
ĠAc ess
ĠCent ros
Ġtransform ado
Ġobserv adas
Ġapont ando
Ãĵ RIA
Ġ197 8
ĠBl umenau
ĠtÃ©r mico
Ġsant idade
ĠUber lÃ¢ndia
ĠÃ³sse a
Ġrup tura
id antes
Ġpor os
ĠB erg
ĠF en
ĠEst rang
Ġtom aram
Ġlib erais
Ġche que
Ġaleg ou
Ac essÃ³rios
Ġcarreg amento
pons Ã¡vel
Ġrapaz es
Ġrelemb rar
Ġcine asta
Ġde va
ĠM AS
ĠN ele
Ġsab ore
Ġespecial idades
Ġinvest ido
Al i
Ġfra ud
Ġesqu ece
Ġdetal les
ĠInd Ãºstrias
arg ento
ĠMara canÃ£
Ġileg ais
Ġcircunst Ã¢ncia
Ġespecialment em
Ġhorm Ã´nio
d on
g i
Ġsegu ras
Ġconst atou
Ã¡c uo
ric k
ĠAp Ã³st
Pro mo
ĠdÃ©c imo
ĠEcon om
gov ern
ĠglÃº ten
Ġo nd
Ġv eremos
ĠT este
ag er
Ġor iental
Ġvis Ãµes
ÃŃf icos
Ġconsidera velmente
Ġdirig iu
ĠDan ilo
Ġsuje itas
ĠUF C
ĠFinanc iamento
ĠVasconc elos
n ge
Ġc ess
ĠM OD
Ġpart id
-- -
Ġtr il
Ġcorre tores
Ġconstru ÃŃdas
Ġpreocup ados
Ġdecid imos
Ġcompartilh ado
Ġbara tas
Ġdin Ã¢micas
Ġespal har
Obrig ada
inde x
Ġmedie val
Ġb rev
ĠM iller
Ġna taÃ§Ã£o
de pois
Ġqual ificada
itos a
Ġro lo
Ġind ec
Ġti j
ĠDire trizes
ĠCap ela
Ġtor cer
Ġlic enÃ§as
Ġfis io
Ġdesm at
ĠAutor idade
ĠfotÃ³ grafos
Ġacolh edor
ĠVin ÃŃcius
Ġalar me
ĠTrip Advisor
u jÃ¡
Ġt witter
Ġap ara
ĠJ OS
Ġen gren
Ġass ento
Ġpas tas
Ġad orm
ĠPro duz
Ġcontinu ada
Ġrequ erer
Ġvos sas
Ġsurpre ende
Ġale ga
Ġdil u
Ġemisso ras
ĠSAN TOS
ĠBatal ha
C ria
ĠC oral
Ġap ps
ant ino
Ġtra Ã§o
ĠL ine
Ġcria tivos
Ġapres ente
ĠRe view
Ġpal cos
Ġimp erador
Est Ã£o
ĠBe at
ĠCer rado
atem po
ĠTec hn
Ġclos et
7 00
m im
Ġp ix
Ġc ate
ĠD etroit
ĠV Ã¡rios
ĠH it
ĠNo el
Ġnot ificaÃ§Ãµes
Ġcompet itiva
ren as
ĠtÃ¡ xi
Ġincom oda
i jos
ĠD inheiro
Ġw e
Ġcresc em
Ġsan itÃ¡rio
Ġdelic ia
Ġapl icando
Ġach amos
Ġpratica ntes
Ġautent icidade
Ġtravess ia
a qui
Ġt irei
Ġf Ã³s
Ġv ais
Ġin al
ĠT ive
ĠL embro
Ġesta tais
anc ho
Ġident ificadas
ĠZ en
Ġtro fÃ©u
ĠCap it
Ġne w
rel les
Ġinternacional mente
Ġleva va
ĠAN O
ĠFut sal
wit ch
Ġpio rar
Ġrent abilidade
ĠorÃ§ament Ã¡ria
Ġutens ÃŃlios
S AN
S ecret
g adas
Ġp isto
Ġdo n
ĠM our
Ġsu d
Ġim posiÃ§Ã£o
ap enas
Ġcl ich
Ã³t icas
Ġinterpre tado
Ġafet ados
Ġreflex os
Ġferro vi
F ull
L P
ndo min
ĠF rio
ĠI X
ĠG ESTÃĥO
ĠSoc orro
ĠIntern a
Ġtran qÃ¼
unda nte
Ġcolor ida
Ġmex endo
Ġequilib rado
ĠRespons Ã¡vel
ĠChrist ian
ĠTribut Ã¡rio
ĠDesaf io
c at
ä º
Ġt entaÃ§Ã£o
Ġv arej
ĠS ing
ĠB ack
Ġac lam
Ġemp atia
Ġesco va
Ġnar rativas
Ġfornec endo
ĠAqu eles
Ġincorpo raÃ§Ã£o
ĠÃ©t ico
Ġgin Ã¡stica
Ġresponsabiliz a
ĠPisc ina
Ġs cript
ic ismo
ac iais
ĠAl go
Ġag regar
Ġinform al
ĠSt an
Ġsepara da
ĠFam iliar
Ġingred iente
ĠLit er
ogrÃ¡f ica
b b
ĠF r
ĠG aro
ĠJ og
Ġpo Ã©tica
Ġcam isas
Ġpol ar
Ġaf im
Ġcham ava
Ġcole t
Ġvi er
Ġmarc ador
Ġarre nd
Ġsignific ativos
ĠOc idental
Ġdesaparec imento
L anÃ§
Ġv adia
Ġl omb
Ġpl Ã¡sticas
Ġano taÃ§Ãµes
Ġfoto grÃ¡fica
emp enho
Ġport Ã¡til
Ġconsol idar
ĠFred erico
ĠDet ran
Ġhipert ensÃ£o
k u
im ed
ĠR urais
ig mas
Ġmu r
Ġfaz endas
ĠÃ¡ gil
Ġinf o
Ġcab ine
Ġdist anc
Ġindivid u
Ġanalis ando
pla y
Ġsubmet idas
Ġtransfer ido
ĠOlÃŃmp icos
ĠMUN ICIP
Tr Ãªs
oster ona
Ġl ant
ĠP Ã¡t
Ġpor tos
ĠD esse
Ġat rativo
Ġsoc iet
ĠPa es
Ġsub t
ĠDou torado
Ġultrap assa
ĠPens ando
http s
Ġcem itÃ©rio
Ġcomete u
Ġindign aÃ§Ã£o
ĠPok Ã©mon
ĠOde brecht
M ont
Ġo pos
Ġv ent
ĠM eg
Ġin cond
ĠG ro
ĠCon ven
Ġlemb rei
Ġdemonst raÃ§Ãµes
Ġabra Ã§ar
organ izaÃ§Ã£o
Considera ndo
Ġex ub
Ġac to
Ġcont rib
TA MENTO
ĠRec urso
Ġmov imentar
ĠSim one
Ġbac ia
Ġroub ado
Ġgram ado
ĠBaix ada
Ġdevo Ã§Ã£o
Ġchup ando
ĠRoy al
ĠB aixa
Ġdes ma
he y
Ġposs ivel
pe u
Ġestar mos
Ġet n
ĠEsp ÃŃritos
Ġaprov adas
Ġcump riu
ress ados
ĠRos si
Ġfortal eza
ĠHot Ã©is
Ġpros pec
ĠEstratÃ©g ia
ĠPot ter
ĠAutom aÃ§Ã£o
d isp
z entos
z inhas
ĠP U
ĠP erc
ĠF ach
Ġconc ede
Ġvis itando
Ġequ aÃ§Ã£o
ĠK en
Ġmal es
ĠEl em
Ġconver te
ator ial
Ġrevoluc ionÃ¡rio
Ġafe to
V ÃŃdeo
Ġde itar
ĠN E
Ġprofiss Ãµes
ĠAn jos
Ġvot ado
ĠFic ha
Ġmete ndo
ĠNenh uma
Ġliquid ificador
Ġg ata
Ġtempo rariamente
Ġconf uso
Ġdef lag
Ġtom ei
Ġpriv atizaÃ§Ã£o
Ġagra v
In formaÃ§Ãµes
ĠMat t
Ġmarav ilha
ĠSÃ³ crates
Ġpesquis adora
ĠvÃª em
Ġdesper di
Ġderro tado
Ġbrin ca
ĠAD MINIST
Ġcen oura
ĠSag rado
ĠLink s
ĠZel Ã¢ndia
D AS
E ducaÃ§Ã£o
b ury
ĠA tos
Ãº rio
ĠG E
ĠMil Ã£o
ÃŃg enas
Ã³t ipos
Ġgar otos
ĠSint ra
a utor
â ĸ
re ceu
ul has
ĠT ou
Ġan estes
Ġmult if
Ġgr itar
Ġfrequ entar
Ġ197 2
Ġelabora dos
ĠSte ve
Ġtenta va
ĠTiju ca
Ġvera cidade
ĠE ta
ĠF an
Ġex posta
po nto
Ġad missÃ£o
aix ar
Ġvol to
Ġant rop
Ġdev idas
ĠPre ciso
ron es
Ġnenhum as
Ġtec las
Ġquil Ã³metros
Ġbac harel
Ġvaz ia
Ġflorest al
Ġequilib rar
Ag Ãªncia
Ġpenet raÃ§Ã£o
Ġparalis aÃ§Ã£o
ĠautÃªnt ico
Ġarom as
ĠEliz abeth
Ð ²
it ariamente
ei rense
ram as
Ġar car
Ġrep Ãºblica
Ġimpre vis
Ġpreenc ha
Ġimagin ou
Ġcalc inha
Ġcoinc idÃªncia
Mel hor
N et
s ch
as co
ĠC ÃŃvel
Ġdest em
Ġind isc
Ġinter loc
Ġespera da
Ġhon esto
Ġantecip aÃ§Ã£o
Ġresulta ntes
put ado
Ġingles es
D i
Ġn elas
Ġdes in
Ġcal Ã§ada
Ġe jac
Ġp ular
Ġt erei
ĠL ara
Ġfal tou
ĠCo isas
Ġcole tar
Ġanim ados
ĠFranc esa
Ġviol ento
ĠHum berto
ĠtÃŃp icos
ĠPac heco
Ġput aria
Ñ ĩ
ĠA y
ĠA ns
ĠD este
ĠF ala
du coes
ific amente
ĠEst ar
ĠK an
Ġinvest indo
Ġvend idas
ĠEN SINO
Ġhe in
ĠGer Ãªncia
ĠJurÃŃd ico
Ġorel ha
Ġecoss istema
h u
Ġn ec
Ġo it
ÃŃ ns
ĠN ik
Ġac ertou
Ġper u
Ġcomp ressÃ£o
IS E
Ġanal ise
ĠJust in
Ġexp Ãµe
ĠAud itÃ³rio
ĠDeix ar
ĠCampe Ãµes
c lo
as a
ĠC ov
Ġin und
rat or
Ġ/ /
Ġbar ba
Ġmol ec
isse x
Ġadqui ri
Ġfen Ã³m
Ġreche io
Ġhomossex uais
ĠgeogrÃ¡f ica
" ...
Ġl ec
ĠM BA
Ġsu jeira
Ġcons Ã³rcio
Ġ10 5
Ġaut u
ĠRo ta
Ġlabora tor
ĠUlt ra
Ġfad iga
e ndendo
or tal
in stein
at Ã¡rios
ĠB all
ĠG irl
ĠestÃ¡ s
Ġant igamente
ĠAg ro
ĠIta ba
Ġproteg ida
ĠiP ad
Ġbru to
Ġsolt eiro
ĠrÃŃg ido
Soc ial
Î ¿
ar de
ia nce
Ġest abiliz
Ġcont ador
Ġpra nc
ĠCo f
Ġca ÃŃram
Ġtrat adas
ĠSal Ã¡rio
Ġocup am
Ġfug iu
Ġpratic am
Ġfasc inante
Ġinoc Ãªncia
ĠFarm acÃªut
âĢĿ ),
Ġinc erteza
Ġcria n
ĠRe quisitos
ĠAn jo
Ġcat iv
Ġfun k
Ġfun gos
Ġ24 0
Ġexig indo
ĠCap acidade
Ġexecut ada
Ġtraduz ido
Ġdirec tamente
Ġdeslig ar
mon ar
Ġarrepend imento
ĠMobil e
Ġcaminhon eiros
[ âĢ¦]
er da
im ente
ĠP DT
ĠM L
Ġal arg
Ġro chas
ĠQu int
ĠMar isa
ĠDE M
ass agem
Ã©cn ica
Ġed ificaÃ§Ã£o
Ġmont ada
Ġpost ado
Ġcost umo
Ġrom ano
Ġpert inente
Ġprol on
ks w
Ġarra y
Ġinjust iÃ§a
Ġmonst ros
Ġperif eria
ĠLea gue
ĠRora ima
F G
G ab
R et
u ki
Ġp in
Ġc v
as sou
ĠP enso
ol es
ĠD orm
ĠÃ Ķ
ur sÃ£o
Ġass ina
Ġ19 30
Ġcapac itados
Ġmara nh
Ġampl ia
Ġment alidade
ĠMod elos
Ġequival e
ĠDesc ubra
Ġhigi en
ĠJava Script
Ġdetr imento
D ez
Ġl Ã£
if y
ĠV Ã¡
Ġdesc ritas
Ġloc aliza
Ġprecis e
ĠX II
ĠLo ren
Ġdelic iosas
Ñģ ÑĤ
Ġindispens Ã¡veis
Ġcontex tos
Acred ito
C ursos
e res
t enho
Ġp ureza
Ġn Ã³
ĠL an
ĠL emos
Ġdest inaÃ§Ã£o
Ġdec ad
Ġtex turas
Ġnot icia
ĠIm obiliÃ¡rio
Ġsepara damente
Ġgl icose
Ġsinc ero
Ġsimp at
Ġqueb rado
Ġarran jar
Ġdesempenh ar
Ġrescis Ã£o
ĠO range
ĠN BR
Ġnov inhas
ĠRe produÃ§Ã£o
ĠPara l
Ġx adrez
Ġsac rific
ĠBo as
Ġcarreg ado
ĠTon y
ĠTub os
Ġescasse z
Ġf rigor
id iano
an hec
Ġat estado
ĠL es
Ġle io
Ġinv al
rit amente
Ġbo quete
Ġtent ado
Ġenfrent ando
Ġbrinc ando
ĠDoc ente
Ġcorrespond em
ĠGio van
B ras
F ic
ic i
om en
Ġ- >
Ġag lom
pira nga
Ġrefer iu
Ġcicl istas
ĠGuar ujÃ¡
Ġpreced entes
ĠEMPRE GO
I OS
S ei
f atos
Ġb iqu
Ġtra go
Ġcomp aixÃ£o
agem ent
Ġcol ecÃ§Ã£o
Ġvia turas
ĠAd em
ĠX P
Ġgen Ã©tico
Ġdesemp enha
Ġesco po
Ġport ador
Ġvere adora
vent ura
rot Ã³x
Ġvinc ulada
Ġsuger iu
ĠComun icaÃ§Ãµes
Ã¡ut ica
ĠrÃ³t ulos
Ġhierar quia
D os
b ec
c ro
ed y
ĠV ira
Ġus inas
Ġma j
Ġcorre ios
ĠCol l
Ġtrabalh adora
Ġsec retarias
Ġfavor ita
Ġvoltar Ã¡
ĠRib eira
ĠLoc aÃ§Ã£o
Ġapos entados
ev in
Ġrespond em
ĠEp is
Int roduÃ§Ã£o
ĠSelec ionar
ĠPel otas
Ġveter inÃ¡rio
PrÃ³ ximo
Ġsuperintend ente
d ate
Ã§ Ã£os
Ġsab Ã£o
ĠW eek
cion alizaÃ§Ã£o
Ġfalta va
Ġsatis feita
Ġfavo recer
c emos
Ġm ero
ĠC ip
ĠF rei
po ol
inha ndo
Ġfaz end
Ġinv enÃ§Ã£o
Ġfre el
ĠAm ar
Ġtur ista
Ã³p ia
Ġfilho tes
Ġquis esse
Ġadequ ar
Ġpsic Ã³loga
Ġ197 6
ĠCN J
inf lam
Ġorden amento
dire ito
Ġespect adores
Gost ei
Ġdescump rimento
Ġlub rifica
j an
ĠC ER
ĠC UR
ri es
iz amos
ac ar
Ġdes vios
ĠAl ente
Ã¡g ica
Ġdeter io
AR ES
ĠPer fil
ze res
Ġconver sou
dem oc
ĠVis ual
ĠCL I
Ġconect ados
ĠTam anho
Ġrefrig eraÃ§Ã£o
ĠDefens oria
Ġhonest idade
it ter
us p
lo ok
Ġcab ÃŃveis
ĠPar lam
Ġade re
Ġbon eca
Ġros as
Ġcarta zes
Ġneut ro
rÃ³p ole
Ġsele Ã§Ãµes
k el
Ġco e
Ġv ern
ĠM M
Ġtra tou
ĠJ onas
Ġel Ã©c
ver m
orn ar
Ġext remos
Ã¡l ias
Ġfix os
ĠAgra deÃ§o
od ge
ist es
ĠV inc
pe to
Ġdisp aros
Ġestud ado
Ġcur te
Ġapresenta va
ĠEncont ra
ĠDu que
Ġabsor ver
Ġsimp Ã¡tica
Ġconquista ndo
Ġcirurg iÃ£o
ĠgaÃº cho
Ġpetro l
ĠBenjam in
Ġpaix Ãµes
G estÃ£o
em un
ĠT ag
Ġcont amos
ĠV IP
Ġenc aixa
Ġaqu ecer
Ġinst Ã¢ncias
Ġtom am
ĠCont ribu
ÃŃg ena
Ġpsic Ã³logo
Ġcult ivar
ĠChe v
ĠTerap ia
ĠFerram entas
C erca
p rimas
ĠA wards
Ġest ere
ĠM anch
ĠB ert
ĠF ant
Ġpres ÃŃdios
pe ndo
Ġfal aram
olog y
Ġhab eas
Ġgovern anÃ§a
Ġla ta
ĠPen itenc
Ġantecip ada
Ġdisput ada
Ġproje Ã§Ãµes
Ġcicl ov
ĠCorr ida
c ab
qu are
ad uais
Ġt Ãºnel
it ute
on ais
Ġconsum ido
Ġcontr Ã¡ria
Ġband ido
ĠÅ ¾
ĠViol Ãªncia
ĠOrqu estra
" :"
M AS
p ing
Ġco erente
Ġal a
ib ra
ĠAl ma
Ġalte rada
ĠAb astecimento
Ġelim ina
ĠÐ ½
Ġsel f
ĠMod el
ĠEvang el
Ġdesres pe
ĠCount y
Ġhier Ã¡rqu
t Ã³rias
Ġt ensÃµes
it ativo
Ġfor o
Ġenc anto
Ġcontra taÃ§Ãµes
Ġcaus adas
ĠPal mas
Ġeduc ar
Ġenfrent amento
ĠPont os
Ġacum ula
Ġperigos os
Ġpress Ãµes
Ġreestrutura Ã§Ã£o
ĠLimp eza
ĠreÃºn em
D entro
M al
c amp
em es
ĠG A
Ġab ran
Ġr ituais
lu ÃŃdo
ĠJo e
Ġapresent amos
Ġer va
ĠMo ta
ĠJohn son
Ġrob Ã´s
Ġarrecad ar
Ed itor
ĠEngenh eiro
S B
l ish
ar ro
en idas
Ġb ando
ip er
Ġam amentaÃ§Ã£o
Ġexig entes
ĠIN D
ĠAb ertas
Ġimped imento
Ġrs rsrs
ĠEmb aix
ĠaperfeiÃ§o ar
ĠMob ilidade
ĠOrÃ§ ament
p en
al ismo
ĠC Ã¡l
Ġb ike
te to
ĠO bra
Ġal ianÃ§as
Ġfo ge
Ġfal ecimento
Ġcham o
Ġcoloc o
Ġinstal adas
ĠConc eito
Ġ196 7
Ġretorn ou
Ġconsecut ivo
ĠRad io
Ġmergul har
ĠDipl oma
ksw agen
D L
Ġt elhado
Ġl iso
Ġl ances
Ġun ha
Ġutiliz amos
Ġconst atar
Ġempre it
ĠPol icia
Ġsec reta
RI ÃĩÃĥO
Ġprem ium
Ġpad res
ĠCacho eira
ho je
ĠR GB
he te
ĠIn icia
Ġdisc reto
19 98
Ġpeg o
Ġgran ito
ĠmÃ¡scara s
etermin ado
ĠconseqÃ¼ Ãªncias
Ġalgor itmo
A v
ĠP osto
ĠS Ã©c
ul p
ĠR ia
ĠO R
ĠT ap
Ġal ertar
ĠV ers
Ġdesc rit
Ġdev ast
ĠRec lam
ĠÃģ ustria
ĠPer d
Ġata ca
Ġglob alizaÃ§Ã£o
Ġdesper ta
Ad minist
ĠÃ³b ito
Ġimun olÃ³gico
Ġdiferencia is
d ico
Ġn ativos
Ġag indo
int age
RA DO
Ġimp ugn
Ġgovern ar
ðŁ Ĵ
Ġimedia Ã§Ãµes
Ġfemin ismo
ĠMine ola
u Ã¡rios
Ġf aremos
Ã³ ides
Ġr icas
Ġret rospec
Ġcaracter izado
ĠSim on
Ġaux iliares
Ac ab
Ġvenez uel
o per
ic ket
Ġf ax
ĠB uda
Ġcol omb
Ġdesc entral
Ġcu idad
Ġreporta gens
Ġmotoc icl
Ġprogress iva
Ġprossegu ir
D isc
O P
em an
ĠN ight
Ġtem or
Ġcas ual
me to
Ġcons ign
ema il
Ġca em
Ġparticip ado
Ġext enso
Ġrepres entou
Ġsolic itados
Ġsubstitu i
fl s
ÃŃns ula
F ab
f azer
ic amp
il ado
Ġfor um
Ġra cial
ĠEm enda
Ġvend ida
Ġreal ista
Ġperceb o
Ġorganiz adas
Ġunivers itÃ¡ria
Ġfl oral
Ġsug erem
Ġmanifesta ntes
ĠMetod ologia
r rog
ĠP inh
Ã³s copo
Ġver bo
Ġconst rÃ³i
ola res
Ġcoloc amos
Ġestud iosos
Ġacred ite
Ġestre ita
Ġrem ont
ĠPRO MO
Ġmicro fone
Ġinser idos
Ġimposs ibil
Ġencaminh ada
ĠFal ta
v aÃ§Ã£o
Ġp ess
Ġp ilhas
Ġp Ã´s
ar qu
ĠF IFA
ĠN acionais
Ġpr ud
Ġtra Ã§ar
ver ton
and ra
Ġdesc rita
Ġrealiz aÃ§Ãµes
ĠMar te
IS MO
Ġperd emos
Ġord inÃ¡ria
ribun a
Ġsolic itando
eir inhas
Ġadap taÃ§Ãµes
Ġprovoc ado
ĠAval iaÃ§Ãµes
Ġagend ar
Ġtrad utor
hot mail
k an
m entes
Ġm adr
ha Ã§o
Ġman gas
ĠCont ato
ĠÃģ ra
Ã³p icos
sem pre
pla nte
Ġinaugu rada
Ġcav erna
iclo p
Ġteat ral
P at
h em
h ua
Ġque ijos
ĠN Y
ĠL ÃŃqu
ai i
ĠK ong
Ġsom ar
ĠCont os
Ġto alhas
Ġcad eias
ĠOc up
ĠOc idente
O F
Ã¡ rea
Ġcom a
Ġv Ã¡cuo
ĠP Ã£o
ĠF Ã¡
Ġcomp acto
Ġch ute
Ġintern amente
Ġcal ibre
Ġfinal idades
In ÃŃcio
ĠFlorest al
ĠlegÃŃt imo
) -
N asc
Ġtra iÃ§Ã£o
Ġag ulha
Ġed itoras
Ġaum entado
Ġrom per
ĠVir g
Ġconsta taÃ§Ã£o
ĠTerc eiro
Ġcafe ÃŃna
j c
qu ÃŃmica
Ġre ac
ĠC ora
ĠA nc
ĠM aca
Ġpor Ã§Ãµes
ĠL ong
ĠH an
Ġle ito
ĠOs w
âĢ¦ âĢ¦
ĠCar ioca
Ġadicion ado
ĠSho p
acab ana
N enh
ĠF im
ĠJ U
Ġpres ÃŃdio
Ġlim pos
ĠGra du
Ġba ile
Ġconcent rado
Ġhistor iador
ĠPalav ras
Ġcup ons
Ġtras eiro
POR TARIA
ĠilÃŃc ito
ĠSalom Ã£o
b ac
ĠC og
Ġno minal
ul Ã¡rios
ĠB os
ĠF iat
ĠL ig
Ġh eter
ĠQu est
jet ivo
Ġpe gue
anÃ§ ar
Ġcin quenta
Ġrevel ando
Ġpergunt ei
ĠTer rit
Ġpris ion
Ġdefic iÃªncias
E UA
c ama
Ġo de
ĠA to
at ra
Ġesp ant
Ġint ro
Ġesc ultura
fer ta
ceb ispo
Ġexper t
Ġcorpo raÃ§Ã£o
Ġsocial ismo
ĠÃģ reas
Ġselec Ã§Ã£o
Ġbat ida
ĠeletrÃ´n icas
Ġacel erado
ĠExcel Ãªncia
Ġfres ca
Ġrecus ar
ĠMÃ©to do
am ina
Ġin jeÃ§Ã£o
ĠN Ã£este
Ġim potÃªncia
Ġdire tas
lo ween
Ġassoc iar
ĠPe Ã§a
ĠapÃ³st olos
Ġrum ores
Ġd itado
ĠP enha
ut y
ĠB ell
ĠJ unt
Ġim ensas
Ġcor ta
Ġr ivais
Ġinv entar
ĠK al
ĠCar reira
Ġfre io
Ġinic iaÃ§Ã£o
Ġacab ando
Ġperson alizar
Ġcic at
ĠavanÃ§ ou
Ġcruz eiro
ĠIntegra l
ĠBus ca
ÃĤ N
Ġiogur te
Ġno Ã§Ãµes
Ġpre ca
Ġsegu iram
Ġsub m
ĠAr naldo
Ġdem arc
Ġapo iando
ĠFranc Ãªs
ĠArt ur
IT OS
Ġabandon ou
ĠJul ia
Ġph p
C an
Ġp us
Ġg ent
Ġos cil
Ġdes il
ĠCar to
Ġcir co
Ġfoto grÃ¡fico
Ġviv ida
Ġbal a
Ġrastre amento
Ġsocio econ
ĠalÃŃqu ota
ĠProvis Ã³ria
j Ã£o
t ron
Ġf adas
Ġv anta
ĠM ike
Ġpor co
ĠF ull
Ġat entamente
Ġtra Ã§Ã£o
ĠL apa
Ġtr Ã¢m
Ġfacil idades
ĠestratÃ©g icas
Ġalmo Ã§ar
Ġagress ivo
ĠHonor ifico
>< /
Ġaudio visual
ara das
ĠP eixe
Ġcomp uta
âĢĿ ).
ĠDe ad
Ġed itado
ĠSoc iologia
Ġparc eiras
Ġdig itar
Ġocup ando
Ġdor me
Ġconduz ida
Ġgl Ã¢nd
Ġshopping s
ĠMÃ¡r cia
ĠBi enal
ĠWik ip
g am
Ġd ubl
Ġv inham
ĠP ouco
at ite
et icamente
Ġac idez
ab orou
tu re
Ġmin as
Ġconst am
Ġba iano
Ġtransform am
ĠSim Ãµes
ĠÐ ²
lig ht
ĠFunc ional
Ġacord ado
Ġdid Ã¡tica
Ġd ama
Ġg regos
ĠB E
ĠF lex
de fin
unc iar
Ġfac tos
ulos a
des envol
ĠEnt rada
Ġvag ab
Ġsac os
Ġinteress ar
Ġmad ura
Ġassass in
Ġrol ar
ĠTrabalh ista
lin es
Ġpromet ido
Encont ro
Ġcoopera tivas
Ġnotur na
ĠterapÃªut ica
I ÃĥO
N ovo
m ia
Ġdes ce
ĠL itoral
art s
ce to
bal l
Ġab r
Ġcol unista
ĠCo re
Ġconv Ãªnios
Ġru gas
Ġsuc essor
Ġmora da
ĠPal ma
Ġclass ificada
Ġmanif esto
Ġ198 1
Ġdesf iles
Ġcomem orou
Ġplanej ando
Ãºl ia
fin anc
Col oque
ĠMinist ros
ĠObserv atÃ³rio
Ġp df
Ġal ÃŃnea
Ãº dios
ade u
mas sa
Ġestrutura do
Ġincr ivelmente
Ġfabric ados
Ġespanh Ã³is
Ġartific iais
Ġhomossex ual
R om
Ġest ufa
ĠD etal
se te
la nte
Ġdis posta
Ġr itmos
Ġcontra st
ES A
ĠSegu e
Ġer rar
Ġrespo ndendo
Ġaud itor
Ex per
Ġeduc ativa
Ã¡r m
cr Ã¢nia
Ġestiv essem
Ġsusp ensa
ĠðŁ Ĵ
Ġfabric ado
ĠMÃ©d icos
ĠAtu alizaÃ§Ã£o
Ã¡ut ico
Ġvulner Ã¡veis
ĠGru pos
) !
g ost
Ġc Ãºpula
Ġs Ã©rias
io leta
ĠD if
ac ha
Ġfor Ã§ado
Ġha vido
ass i
Ġserv irÃ¡
Ġcandid atar
Ġama rel
ĠNot as
Ġmascul inos
Ġresist iu
Ġpreferencial mente
U E
Ġal uc
Ġmu ros
ĠJ AN
ĠRes erve
Ġrespe itado
ĠEv ento
rup amento
Ġpav imento
Ġconfund ir
Ġfresc os
Ġsali entar
Ġmusc ulares
Ġm oc
Ġre ad
ĠS ed
le tos
ma x
Ġh et
ĠUn i
ĠÃī vora
Ġped ida
Ġdisc urs
reg at
Ġmor tais
ograf ias
Ġretira dos
ĠÃĵ leo
eto oth
Ġculp ado
Ġda nÃ§as
ĠP ente
Ġap tos
enc h
Ġfer mento
nta in
ĠAnt ropologia
ĠDo ut
Ġder iva
Ġsan Ã§Ã£o
ĠSim Ã£o
Ġefetu ada
ĠRodov ia
Ġv angu
il Ãµes
ĠS aneamento
ec Ã§Ãµes
Ġen jo
Ġpl antar
ĠAss ist
Ġalun a
Ġcomun itÃ¡ria
Ġmag ra
Ġconsc ientes
ĠEv ite
ĠInc ent
Ġinser ida
urament adas
Ġbloque ar
ĠPag amento
Ġcoca ÃŃna
ĠPab lo
ÃŃ be
ĠT ob
Ġcons ist
Ã¢m ina
ĠEnt idade
inte rest
Ġ: :
Ġpreocup ante
IV EIRA
Ġtec la
Ġanalis adas
ĠCOM O
Res oluÃ§Ã£o
Ð¾Ð ²
ĠTele f
ĠTR T
Ġrebaix amento
ĠvÃ¡lv ula
u ÃŃc
} ,
Ġc rav
ĠM EI
Ġas se
ĠG ERAL
Ġfor ro
ĠAl ugu
ĠW ay
Ġed ificaÃ§Ãµes
Ġexig idos
ĠSecret Ã¡ria
Ġencaminh amento
Ġprofund os
Ġentend emos
Ġabri gar
Ġabrang Ãªncia
Ġenvia ndo
Ġfom ento
ĠrÃ³t ulo
Ġtelem Ã³vel
ĠC od
ĠD ub
ag eiro
ĠG i
Ġent or
Ġfin aliza
Ġmin uc
Ġlemb ranc
Ġprejud ica
Ġemit ida
Obs ervaÃ§Ãµes
Ġï Ĥ
Ġnotic ias
ĠbÃªn Ã§Ã£o
Ġcriptomo edas
b aixo
u jo
Ġn m
ĠJ BS
ĠDe ver
ĠAm Ã©lia
op le
des ign
ĠCas al
Ġep id
Ġ08 00
ĠAma pÃ¡
Ġmagist rados
Ġgentil eza
Ġprorrog aÃ§Ã£o
ĠTail Ã¢ndia
Ġde pressa
id ir
en za
Ġl endas
ĠP OS
Ġent es
ĠCom entÃ¡rio
Ġca ÃŃdo
Ġmat rim
ĠInt erv
ĠLe al
Ġemb as
ĠmÃŃn imas
Ġpeg ada
Ġaltern ativo
Ġpsic olÃ³gicos
Ġpsic Ã³logos
ĠPas sa
ĠRom ano
Ġterror ismo
Ġafas ta
Ġtram itaÃ§Ã£o
Ġtritura dor
C B
F EI
ĠP Ã³
ĠP atroc
era ba
que z
ib ir
Ġad ren
ĠEx plo
Ġaval iada
ph p
Ġterror istas
Ġpav imentaÃ§Ã£o
ĠbÃŃbl ico
ĠÃ©t icos
Pl ano
ĠconseqÃ¼ Ãªncia
ĠDim ensÃµes
Ġcamis etas
Ġvist oria
ĠTax a
qu inze
Ġb eta
ĠR iv
ĠG R
Ġesc uros
Ġcol Ã¡geno
ER N
Ġcust ar
Ġclass ificar
ĠLa ud
ĠCP I
ĠNO V
merc ado
ĠPet rÃ³leo
ĠestÃŃm ulos
Ġplug ins
Ġdisf unÃ§Ã£o
g ed
or Ã¡vel
Ġre bo
Ġl ama
ho to
ĠD IS
ve ta
ĠPl ant
Ġreun indo
Ġcontribu ÃŃram
Ġdig estÃ£o
ĠConc eitos
Ġviol enta
Ġne ur
ĠRo que
ans en
ĠPS L
Ġcast igo
Ãºrg ica
Ġplen itude
Ġvet or
p ic
Ġdes viar
Ġra par
ard i
Ġamor osa
Ġcomun istas
Ġcomun itÃ¡rio
Ġmon op
Ġatribu ÃŃda
ĠMus ical
Ġrenov Ã¡veis
Ġaus ente
Ġarmazen ados
Ġfis ioterapia
book s
ĠAust ral
ĠMei relles
G ente
Ġest al
Ġal ergia
Ġreg imes
Ġprof etas
Ġcan adense
Ġminist Ã©rios
Ġgen es
Ġsolic itada
Ġ197 7
Ġespont Ã¢nea
ĠAva ilable
Ġtril ogia
G al
um inaÃ§Ã£o
ĠS ÃŃtio
Ġpos itivamente
ivers Ã¡rio
ĠW a
Ġcontinu ava
Ġtecn icamente
Ġcob ertas
Esc ola
Ġadiant ou
ĠfarmacÃªut ica
Ġhomog Ãªne
Ġmanob ras
Ġb ispos
iz er
ĠB ull
ig ante
Ġman obra
uda nte
Ġdesf echo
cr itas
Ġescrit ura
ĠDemoc racia
A ch
H AR
T EN
m icas
ro let
Ġpara m
ĠP B
ĠB it
ĠlanÃ§ ando
Ġpresente ar
Ġgar ot
Ġfemin ista
Ġfel ic
Ġprolong ado
plast ia
A V
Ġ uva
ara nt
ĠE th
ĠM Ã¡
Ġsegu rando
ĠSe p
ÃŃn ia
ĠRe paraÃ§Ã£o
ĠCont ribuiÃ§Ã£o
Ġdific ulta
Ġentrar Ã¡
ĠChe f
ĠBro ok
Ġpromet em
ref regat
cand id
Ãºr bio
ĠcÃ´nju ge
b ela
g ol
m Ã¡tica
Ġp anc
le v
Ġcomp ensa
ĠH unt
ĠDe vemos
ĠAs h
Ġident ificou
Ġmor rem
ĠclÃ¡ss icas
Ġsaf adinha
Ġvisu alizaÃ§Ãµes
Ġcompromet ida
ĠTR F
Ġenver gon
" ),
b ens
Ġc land
ĠP rud
ĠR ang
ĠL our
ĠBar reiro
Ġto tais
Ġdesign ers
ĠLa w
Ġlat im
Co nd
Ġefetu adas
Ġsuced ido
ĠImag ine
Ġhex adec
9 00
Ġde ficientes
Ġse Ã§Ãµes
ĠS y
ĠM inho
Ġter ÃŃamos
Ġsua ves
Ġdiv Ã³rcio
Ġhom icÃŃdios
Ġinform ada
ĠGu an
ĠCons elhos
ĠGra u
Ġmara tona
Ġdelic iosos
ĠConv ers
Ġemerg entes
Ġrastre ar
ĠRecup eraÃ§Ã£o
D im
u an
Ġco erÃªncia
am Ã¡
[...]
