{"<s>":0,"<pad>":1,"</s>":2,"<unk>":3,"<mask>":4,"!":5,"\"":6,"#":7,"$":8,"%":9,"&":10,"'":11,"(":12,")":13,"*":14,"+":15,",":16,"-":17,".":18,"/":19,"0":20,"1":21,"2":22,"3":23,"4":24,"5":25,"6":26,"7":27,"8":28,"9":29,":":30,";":31,"<":32,"=":33,">":34,"?":35,"@":36,"A":37,"B":38,"C":39,"D":40,"E":41,"F":42,"G":43,"H":44,"I":45,"J":46,"K":47,"L":48,"M":49,"N":50,"O":51,"P":52,"Q":53,"R":54,"S":55,"T":56,"U":57,"V":58,"W":59,"X":60,"Y":61,"Z":62,"[":63,"\\":64,"]":65,"^":66,"_":67,"`":68,"a":69,"b":70,"c":71,"d":72,"e":73,"f":74,"g":75,"h":76,"i":77,"j":78,"k":79,"l":80,"m":81,"n":82,"o":83,"p":84,"q":85,"r":86,"s":87,"t":88,"u":89,"v":90,"w":91,"x":92,"y":93,"z":94,"{":95,"|":96,"}":97,"~":98,"¡":99,"¢":100,"£":101,"¤":102,"¥":103,"¦":104,"§":105,"¨":106,"©":107,"ª":108,"«":109,"¬":110,"®":111,"¯":112,"°":113,"±":114,"²":115,"³":116,"´":117,"µ":118,"¶":119,"·":120,"¸":121,"¹":122,"º":123,"»":124,"¼":125,"½":126,"¾":127,"¿":128,"À":129,"Á":130,"Â":131,"Ã":132,"Ä":133,"Å":134,"Æ":135,"Ç":136,"È":137,"É":138,"Ê":139,"Ë":140,"Ì":141,"Í":142,"Î":143,"Ï":144,"Ð":145,"Ñ":146,"Ò":147,"Ó":148,"Ô":149,"Õ":150,"Ö":151,"×":152,"Ø":153,"Ù":154,"Ú":155,"Û":156,"Ü":157,"Ý":158,"Þ":159,"ß":160,"à":161,"á":162,"â":163,"ã":164,"ä":165,"å":166,"æ":167,"ç":168,"è":169,"é":170,"ê":171,"ë":172,"ì":173,"í":174,"î":175,"ï":176,"ð":177,"ñ":178,"ò":179,"ó":180,"ô":181,"õ":182,"ö":183,"÷":184,"ø":185,"ù":186,"ú":187,"û":188,"ü":189,"ý":190,"þ":191,"ÿ":192,"Ā":193,"ā":194,"Ă":195,"ă":196,"Ą":197,"ą":198,"Ć":199,"ć":200,"Ĉ":201,"ĉ":202,"Ċ":203,"ċ":204,"Č":205,"č":206,"Ď":207,"ď":208,"Đ":209,"đ":210,"Ē":211,"ē":212,"Ĕ":213,"ĕ":214,"Ė":215,"ė":216,"Ę":217,"ę":218,"Ě":219,"ě":220,"Ĝ":221,"ĝ":222,"Ğ":223,"ğ":224,"Ġ":225,"ġ":226,"Ģ":227,"ģ":228,"Ĥ":229,"ĥ":230,"Ħ":231,"ħ":232,"Ĩ":233,"ĩ":234,"Ī":235,"ī":236,"Ĭ":237,"ĭ":238,"Į":239,"į":240,"İ":241,"ı":242,"Ĳ":243,"ĳ":244,"Ĵ":245,"ĵ":246,"Ķ":247,"ķ":248,"ĸ":249,"Ĺ":250,"ĺ":251,"Ļ":252,"ļ":253,"Ľ":254,"ľ":255,"Ŀ":256,"ŀ":257,"Ł":258,"ł":259,"Ń":260,"Ġd":261,"Ġe":262,"Ġa":263,"Ġp":264,"ra":265,"os":266,"Ġde":267,"Ġc":268,"nt":269,"re":270,"Ġs":271,"as":272,"er":273,"Ã£":274,"qu":275,"es":276,"Ġm":277,"Ã£o":278,"Ġco":279,"is":280,"ad":281,"Ġn":282,"or":283,"Ġo":284,"ar":285,"Ã§":286,"in":287,"Ġt":288,"al":289,"Ġqu":290,"ent":291,"ic":292,"ia":293,"Ġf":294,"ro":295,"id":296,"Ġque":297,"nd":298,"um":299,"Ã¡":300,"em":301,"Ã©":302,"it":303,"Ġcom":304,"st":305,"Ġv":306,"Ã§Ã£o":307,"Ġdo":308,"am":309,"el":310,"im":311,"ara":312,"io":313,"Ġum":314,"en":315,"Ġem":316,"Ġre":317,"Ġda":318,"Ġse":319,"ÃŃ":320,"il":321,"ĠC":322,"an":323,"ĠA":324,"Ġl":325,"Ġpara":326,"res":327,"iv":328,"ĠP":329,"ta":330,"Ġb":331,"to":332,"Ġno":333,"ol":334,"ado":335,"ndo":336,"ĠS":337,"ul":338,"ei":339,"Ã³":340,"nc":341,"ĠE":342,"so":343,"ente":344,"Ġest":345,"Ãª":346,"ec":347,"od":348,"ais":349,"ĠÃ©":350,"aÃ§Ã£o":351,"Ġg":352,"ho":353,"ĠM":354,"âĢ":355,"Ġpro":356,"Ġin":357,"at":358,"ut":359,"idad":360,"ri":361,"Ġuma":362,"Ġpor":363,"gu":364,"on":365,"iz":366,"oc":367,"om":368,"ento":369,"Ġas":370,"us":371,"Ġes":372,"Ġna":373,"ĠD":374,"do":375,"Ġ(":376,"te":377,"Ãµ":378,"Ġos":379,"ir":380,"Ġcon":381,"se":382,"Ãµes":383,"ha":384,"nte":385,"ica":386,"Ġsu":387,"ĠnÃ£o":388,"ada":389,"idade":390,"ist":391,"ou":392,"le":393,"ĠÃ":394,"ito":395,"Ġ1":396,"ĠR":397,"Ġ2":398,"ĠB":399,"ĠO":400,"ĠT":401,"ras":402,"Ġj":403,"ĠF":404,"Ġal":405,"ac":406,"Ġex":407,"era":408,"Ġap":409,"ion":410,"Ġser":411,"ig":412,"ant":413,"ĠN":414,"ed":415,"et":416,"Ġmais":417,"Ã§Ãµes":418,"un":419,"ando":420,"ura":421,"..":422,"Ġdes":423,"Ġat":424,"ma":425,"Ġpel":426,"Ġac":427,"ĠI":428,"po":429,"ve":430,"ados":431,"Ġdos":432,"ab":433,"Ãº":434,"Ġpr":435,"ĠâĢ":436,"Ġcomo":437,"ag":438,"Ġfo":439,"Ġtra":440,"ĠL":441,"Ġmu":442,"da":443,"Ġou":444,"ico":445,"Ġcont":446,"ncia":447,"Ġtem":448,"Ã©m":449,"ai":450,"rio":451,"ido":452,"if":453,"ont":454,"ĠG":455,"ur":456,"Ġao":457,"Ã§a":458,"Ġan":459,"ria":460,"Ġpre":461,"de":462,"ip":463,"ob":464,"Ġper":465,"ida":466,"Ġh":467,"sa":468,"mo":469,"og":470,"Ġi":471,"Ġpod":472,"eg":473,"ros":474,"est":475,"ĠJ":476,"Ġnos":477,"va":478,"ĠÃł":479,"ial":480,"du":481,"Ġ20":482,"Ġcomp":483,"ens":484,"ĠV":485,"art":486,"esso":487,"Ġent":488,"ram":489,"ias":490,"Ãªncia":491,"Ġim":492,"ce":493,"Ġdas":494,"az":495,"eira":496,"Ġ-":497,"vel":498,"nde":499,"Ġres":500,"Ġme":501,"Ġfor":502,"eiro":503,"Ġtod":504,"la":505,"amento":506,"Ġesp":507,"Ġter":508,"co":509,"Ġsem":510,"Ġsua":511,"âĢĿ":512,"mente":513,"ern":514,"imento":515,"bl":516,"ocÃª":517,"ns":518,"ru":519,"Ġdis":520,"por":521,"amente":522,"Ġfoi":523,"ere":524,"for":525,"Ġpos":526,"Ġmas":527,"Ġseu":528,"pres":529,"adas":530,"que":531,"pl":532,"go":533,"Ġout":534,"ess":535,"ĠU":536,"ĠâĢľ":537,"ap":538,"amb":539,"Ġsob":540,"Ġam":541,"Ġar":542,"entos":543,"inha":544,"ez":545,"Ġho":546,"ov":547,"ĠH":548,"Ã¡rio":549,"ÃŃc":550,"Ġmes":551,"Ã¢":552,"Ã§o":553,"Ġen":554,"Ġch":555,"Ġfaz":556,"ot":557,"ĠvocÃª":558,"end":559,"Ġsegu":560,"Ġint":561,"pre":562,"ina":563,"aliz":564,"Ġ201":565,"Ġcas":566,"Ġpelo":567,"are":568,"Ġele":569,"ios":570,"ĠsÃ£o":571,"ambÃ©m":572,"bal":573,"Ġsobre":574,"ire":575,"ers":576,"ita":577,"ista":578,"ja":579,"Ġesc":580,"...":581,"ud":582,"Ġgra":583,"pos":584,"ional":585,"ib":586,"icas":587,"rar":588,"rios":589,"ivo":590,"Ġob":591,"Ġmuito":592,"Ġqual":593,"00":594,"rasil":595,"iÃ§Ã£o":596,"me":597,"Ġ3":598,"ult":599,"amos":600,"Ġentre":601,"Ġab":602,"Ġpela":603,"ntes":604,"ĠtambÃ©m":605,"Ġass":606,"Ġpas":607,"he":608,"ca":609,"ĠestÃ¡":610,"ade":611,"per":612,"itu":613,"Ġrec":614,"ific":615,"entes":616,"ĠEst":617,"Ġpesso":618,"Ġcons":619,"Ġcor":620,"Ġpart":621,"icos":622,"av":623,"gra":624,"Ġdia":625,"anto":626,"Ġis":627,"ite":628,"Ġpode":629,"itos":630,"Ġcl":631,"ador":632,"idades":633,"),":634,"inda":635,"ĠjÃ¡":636,"ĠCom":637,"Ã³s":638,"Ġel":639,"ver":640,"iva":641,"Ġdest":642,"Ã´":643,"je":644,"ost":645,"ora":646,"inh":647,"Ġ\"":648,"aria":649,"idos":650,"Ġtrabal":651,"ĠâĢĵ":652,"Ġver":653,"ulo":654,"Ġeu":655,"Ġor":656,"Ġenc":657,"ĠatÃ©":658,"ĠÃ¡":659,"Ġle":660,"udo":661,"Ġpar":662,"ust":663,"vol":664,"Ġcar":665,"emb":666,"Qu":667,"vi":668,"Ġpres":669,"Ġad":670,"este":671,"Ã¡t":672,"Ġte":673,").":674,"enc":675,"ima":676,"iss":677,"ing":678,"and":679,"orn":680,"ÃŃt":681,"Ġpra":682,"Ġaqu":683,"Ġnov":684,"Ġanos":685,"Ġmel":686,"ĠDe":687,"tu":688,"erc":689,"Ġnas":690,"hec":691,"ÃŃs":692,"Ġreg":693,"Ġbem":694,"Ġmesmo":695,"ira":696,"Ġprim":697,"Ġposs":698,"mos":699,"ĠAl":700,"cis":701,"ÃŃvel":702,"ĠPro":703,"min":704,"Ġdire":705,"anh":706,"fe":707,"Ã¡rios":708,"pe":709,"Ġproc":710,"Ġvez":711,"tos":712,"ter":713,"Ġisso":714,"agem":715,"Ġeste":716,"Ġpo":717,"Ġainda":718,"Ãªs":719,"inc":720,"ĠPor":721,"ran":722,"ilh":723,"Ġfu":724,"ix":725,"iliz":726,"Ġinc":727,"ĠEs":728,"Ġmar":729,"Ġus":730,"hor":731,"eb":732,"Ġquando":733,"Ġfal":734,"ons":735,"Ġmod":736,"aix":737,"Ġrel":738,"idas":739,"Ġseus":740,"Ã§as":741,"Ġtodos":742,"almente":743,"ato":744,"Ġcam":745,"lo":746,"Ġr":747,"ert":748,"Ġ4":749,"ĠBrasil":750,"eral":751,"ivers":752,"nto":753,"ĠprÃ³":754,"Ġconc":755,"Ġtempo":756,"Ġesta":757,"ĠAs":758,"indo":759,"aram":760,"ĠSe":761,"ino":762,"veis":763,"Ġfazer":764,"Ġempres":765,"Ġpass":766,"Ãºbl":767,"ana":768,"Ġespec":769,"ub":770,"ga":771,"Ġof":772,"Ġaos":773,"up":774,"enas":775,"ĠÃº":776,"ema":777,"icip":778,"Ġro":779,"Ġ5":780,"Ã©c":781,"imo":782,"Ġfin":783,"inho":784,"Ġprof":785,"Ġcol":786,"Âº":787,"quer":788,"Ġpessoas":789,"ĠIn":790,"ilidade":791,"Ġpl":792,"Ġsa":793,"Ã©d":794,"gum":795,"ĠQu":796,"rias":797,"Ġforma":798,"iais":799,"Ġsab":800,"ĠsÃ³":801,"Ġra":802,"ase":803,"rib":804,"Ã§os":805,"form":806,"anc":807,"Ġcontra":808,"enta":809,"Ġ19":810,"rem":811,"sos":812,"Ġvida":813,"esta":814,"Ã¡vel":815,"Ġpoder":816,"ian":817,"iu":818,"ela":819,"Ġlu":820,"raÃ§Ã£o":821,"ivos":822,"âĢĿ,":823,"Ã¡s":824,"Ġdesc":825,"Ġcr":826,"igo":827,"01":828,"adores":829,"Ġind":830,"emos":831,"fer":832,"Ġdif":833,"dos":834,"Ġpol":835,"Ġmen":836,"Ġid":837,"Ġpa":838,"iÃ£o":839,"Ġvis":840,"Ġsoc":841,"Ġval":842,"Ġrealiz":843,"stitu":844,"Ġtrans":845,"Ġano":846,"ero":847,"ÃŃn":848,"nda":849,"Ã³ria":850,"Ġop":851,"ceb":852,"Ġinte":853,"duÃ§Ã£o":854,"ior":855,"Ġfil":856,"ĠEm":857,"Ġcap":858,"ĠCo":859,"Ãĥ":860,"lu":861,"--":862,"Ġtr":863,"Ġag":864,"Ġencont":865,"ĠTra":866,"ele":867,"ual":868,"eiros":869,"Ġconhec":870,"ĠPa":871,"aior":872,"ĠW":873,"ord":874,"tar":875,"Ġir":876,"Ġvai":877,"Ġloc":878,"ula":879,"Ġsol":880,"ĠÃłs":881,"ular":882,"Ġprecis":883,"Ġalgum":884,"itas":885,"ĠhÃ¡":886,"Ã©s":887,"ĠUn":888,"Ġsuas":889,"Ġmaior":890,"elo":891,"ano":892,"Ġonde":893,"Ġimpor":894,"iente":895,"Ġcria":896,"Ġsempre":897,"Ġut":898,"Ġescol":899,"Ġev":900,"Ġman":901,"entar":902,"Ġdiz":903,"Ġun":904,"Ġjog":905,"orre":906,"ncias":907,"ecess":908,"jet":909,"Ġcer":910,"Ġsim":911,"Ġcada":912,"istas":913,"Ġvol":914,"pois":915,"itar":916,"Ġfic":917,"enh":918,"uto":919,"eu":920,"Ġmelhor":921,"Ġequ":922,"Ġca":923,"utos":924,"Ġapres":925,"Ġha":926,"antes":927,"Ġtudo":928,"ĠSÃ£o":929,"erv":930,"isa":931,"Ġprinc":932,"envol":933,"Ġconf":934,"Ġtrabalho":935,"embro":936,"Ġaf":937,"ismo":938,"ĠNo":939,"endo":940,"ES":941,"Ġart":942,"gar":943,"Ġela":944,"Ġutiliz":945,"Ġoutros":946,"Ã¡ria":947,"Ġnecess":948,"Ġfe":949,"segu":950,"Ġdeix":951,"iar":952,"Ġliv":953,"forma":954,"Ġinv":955,"Ġera":956,"ÃŃl":957,"int":958,"ĠÃī":959,"Ġpe":960,"Ġsal":961,"Ġav":962,"ĠRe":963,"ĠserÃ¡":964,"Ġmin":965,"Ãªm":966,"rat":967,"Ġgrande":968,"Ġapenas":969,"Ġservi":970,"ĠMar":971,"rig":972,"ĠPara":973,"rado":974,"Ġparte":975,"ign":976,"urso":977,"erno":978,"Ã´n":979,"za":980,"Ġ6":981,"imentos":982,"Ã³r":983,"rav":984,"Ġmundo":985,"Ġpou":986,"pa":987,"iÃªncia":988,"iam":989,"ĠestÃ£o":990,"tas":991,"fic":992,"ĠOs":993,"olog":994,"dade":995,"ĠpÃºbl":996,"son":997,"enho":998,"ionais":999,"Ġassim":1000,"ĠCon":1001,"Ġant":1002,"izaÃ§Ã£o":1003,"tante":1004,"RA":1005,"Ġporque":1006,"urante":1007,"Ġpes":1008,"Ġseja":1009,"Ãªncias":1010,"Ġdifere":1011,"iÃ§Ãµes":1012,"Ġhist":1013,"Ġforam":1014,"pec":1015,"Ġalgu":1016,"ital":1017,"Ġesse":1018,"Ġoc":1019,"ne":1020,"ju":1021,"Ġma":1022,"lic":1023,"Ġped":1024,"Ġquem":1025,"Ġinf":1026,"ĠK":1027,"Ġcheg":1028,"Ġmat":1029,"uro":1030,"unc":1031,"Ġform":1032,"arÃ¡":1033,"Ġ0":1034,"orm":1035,"lt":1036,"Ġ200":1037,"Ġpont":1038,"Ġcond":1039,"Ġqualquer":1040,"acional":1041,"tor":1042,"of":1043,"Ġsent":1044,"utor":1045,"Ġreceb":1046,"ĠÃ¡re":1047,"Ġtodo":1048,"enÃ§Ã£o":1049,"gem":1050,"Ġdisp":1051,"amentos":1052,"log":1053,"Ġespecial":1054,"inu":1055,"ine":1056,"Ġdesenvol":1057,"hos":1058,"Ġcome":1059,"oa":1060,"Ġconst":1061,"Ġbrasil":1062,"Ġmil":1063,"gan":1064,"Ġprincip":1065,"Ġdev":1066,"Ġnum":1067,"Ġminha":1068,"âĢ¦":1069,"aÃ§Ãµes":1070,"Ã©r":1071,"ÃŃcio":1072,"das":1073,"ĠDE":1074,"ĠMas":1075,"Ġmed":1076,"sas":1077,"ral":1078,"Ġconv":1079,"Ġdeve":1080,"ubl":1081,"Ġaqui":1082,"her":1083,"Ġdois":1084,"Ġessa":1085,"Ġdec":1086,"Ġlev":1087,"idente":1088,"no":1089,"unic":1090,"Ġins":1091,"cer":1092,"201":1093,"Ġequip":1094,"ĠpaÃŃs":1095,"con":1096,"Ġtorn":1097,"Ġneg":1098,"Ġsub":1099,"gora":1100,"Ġperm":1101,"Ġdias":1102,"Ġmeu":1103,"Ġ7":1104,"eraÃ§Ã£o":1105,"Ġdiv":1106,"Ġhom":1107,"Ġapro":1108,"orte":1109,"lus":1110,"entaÃ§Ã£o":1111,"com":1112,"Ã¢ncia":1113,"rada":1114,"Ġdu":1115,"Ġju":1116,"Ġcasa":1117,"ena":1118,"ĠprÃ³p":1119,"inas":1120,"ĠNÃ£o":1121,"ivas":1122,"ass":1123,"ĠAr":1124,"gua":1125,"Ġdef":1126,"duc":1127,"Ġti":1128,"ard":1129,"Ġcaso":1130,"anÃ§":1131,"ribu":1132,"Ġpodem":1133,"Ġparticip":1134,"eiras":1135,"Ġmom":1136,"Ġamb":1137,"Ġprodu":1138,"erg":1139,"Ġmul":1140,"Ġdem":1141,"jeto":1142,"Ġinst":1143,"Ġsendo":1144,"Ġ8":1145,"Ġdepois":1146,"Ġempresa":1147,"ranc":1148,"estÃ£o":1149,"Ġ10":1150,"ĠEx":1151,"eram":1152,"Ã©t":1153,"Ġexc":1154,"imos":1155,"Ġext":1156,"ĠCar":1157,"ientes":1158,"Ġconsegu":1159,"port":1160,"Ġmeio":1161,"Ã³rio":1162,"Ġsist":1163,"esse":1164,"Ã¢m":1165,"Ġ9":1166,"har":1167,"Ã¡c":1168,"ĠÃºlt":1169,"feira":1170,"Ġfam":1171,"Ġpal":1172,"uc":1173,"Ã³g":1174,"ÃŃp":1175,"Ġpois":1176,"Ġcidade":1177,"âĢĿ.":1178,"ie":1179,"tal":1180,"Ã¡l":1181,"ĠPaulo":1182,"Ġatu":1183,"und":1184,"edade":1185,"iaÃ§Ã£o":1186,"Ãºde":1187,"red":1188,"isc":1189,"Ġve":1190,"ontec":1191,"para":1192,"nÃ§a":1193,"Ġcu":1194,"Ġfre":1195,"ologia":1196,"ĠAm":1197,"plo":1198,"Ġcab":1199,"Ġnosso":1200,"Ġtodas":1201,"na":1202,"Ġeles":1203,"Com":1204,"Ġprobl":1205,"Ã£este":1206,"taÃ§Ã£o":1207,"agens":1208,"EN":1209,"nder":1210,"Ġhoje":1211,"atura":1212,"elec":1213,"ranÃ§a":1214,"ĠDes":1215,"Ã©cn":1216,"Ġintern":1217,"Ġprod":1218,"ultura":1219,"Ã¡tica":1220,"jo":1221,"Ġprofiss":1222,"Ġatrav":1223,"Ġoutras":1224,"oria":1225,"Ġpag":1226,"Ġinter":1227,"!!":1228,"Ġacontec":1229,"rei":1230,"Ġsuper":1231,"rut":1232,"Ġdurante":1233,"sÃ£o":1234,"Ã¡rias":1235,"Ġdisc":1236,"ordo":1237,"Ġfac":1238,"Ġprimeiro":1239,"Ġvia":1240,"Ġpare":1241,"alidade":1242,"ast":1243,"Ġref":1244,"formaÃ§Ãµes":1245,"anha":1246,"Ġsom":1247,"Ġoutro":1248,"Ġmenos":1249,"ÃŃst":1250,"Ġgov":1251,"idera":1252,"Ġquer":1253,"uÃ§Ã£o":1254,"ĠalÃ©m":1255,"Ġnossa":1256,"Ġcomple":1257,"\",":1258,"aro":1259,"ate":1260,"ÃŃlia":1261,"ĠmÃ©d":1262,"Ãĩ":1263,"emas":1264,"OS":1265,"Ġresp":1266,"ient":1267,"Ġalguns":1268,"ÃŃveis":1269,"ĠSu":1270,"Ġhum":1271,"ĠpolÃŃt":1272,"ublic":1273,"Ġcham":1274,"vis":1275,"Ġauto":1276,"uso":1277,"Ġmost":1278,"elho":1279,"ulos":1280,"ric":1281,"ÃŃd":1282,"gram":1283,"via":1284,"iver":1285,"Ġol":1286,"Ġexper":1287,"Ġed":1288,"Ġinteres":1289,"ĠDeus":1290,"esa":1291,"Ġfunc":1292,"Ġimp":1293,"ĠEle":1294,"ÃĥO":1295,"Ġconta":1296,"Ġdesenvolv":1297,"igos":1298,"Ġativ":1299,"ursos":1300,"Ġmerc":1301,"ĠprÃ³x":1302,"Ġbom":1303,"Ġnem":1304,"Ġ#":1305,"Ġinic":1306,"enha":1307,"Ãºm":1308,"Ġinvest":1309,"Ġnovo":1310,"Ġestava":1311,"ĠatravÃ©s":1312,"rim":1313,"irm":1314,"Ġdisse":1315,"Ġprimeira":1316,"ge":1317,"Ġorgan":1318,"dic":1319,"ive":1320,"Ġgru":1321,"Ġsex":1322,"Ġdivers":1323,"Est":1324,"Ġvezes":1325,"ante":1326,"Ġdesta":1327,"Ġdist":1328,"ret":1329,"isas":1330,"rit":1331,"ch":1332,"Ġvalor":1333,"osto":1334,"Ãºs":1335,"Ġpouco":1336,"ĠInt":1337,"Ġobjet":1338,"ilo":1339,"ĠÃ¡rea":1340,"Ġresult":1341,"ane":1342,"Ġcri":1343,"Ġdent":1344,"ses":1345,"rou":1346,"les":1347,"Ġlon":1348,"Ġagora":1349,"Ġdesde":1350,"inal":1351,"Ġduas":1352,"Ġtom":1353,"Ġ,":1354,"Ġantes":1355,"Ġmelho":1356,"ederal":1357,"Ġinform":1358,"cional":1359,"Ġprocesso":1360,"ĠinformaÃ§Ãµes":1361,"Em":1362,"ĠPre":1363,"osa":1364,"ecn":1365,"minist":1366,"tura":1367,"Ã´m":1368,"Ġpartir":1369,"Ġnome":1370,"ola":1371,"Ġcal":1372,"iedade":1373,"Ġmomento":1374,"Ġpelos":1375,"Ġexem":1376,"Ġtoda":1377,"enda":1378,"Ġofere":1379,"Ġprop":1380,"IA":1381,"Se":1382,"Ã¡g":1383,"inhas":1384,"Ġgara":1385,"Ġaj":1386,"Ġestar":1387,"grama":1388,"Ġleg":1389,"igu":1390,"ĠSant":1391,"ER":1392,"ĠAn":1393,"ĠapÃ³s":1394,"Ġ12":1395,"Ã©rio":1396,"âĢľ":1397,"Ġrep":1398,"Ġlim":1399,"TA":1400,"oca":1401,"Ġ15":1402,"Os":1403,"Ġate":1404,"Ġsite":1405,"ĠAss":1406,"Ġfinal":1407,"Ġret":1408,"cio":1409,"ĠCam":1410,"ĠtrÃªs":1411,"Ġ|":1412,"br":1413,"feito":1414,"ducaÃ§Ã£o":1415,"erra":1416,"issÃ£o":1417,"Ġpens":1418,"iado":1419,"Ġacab":1420,"Ġcontinu":1421,"Ġ/":1422,"Ã³d":1423,"Ġpossu":1424,"Ġcent":1425,"atro":1426,"ĠCh":1427,"As":1428,"Ġaplic":1429,"Ġw":1430,"ĠCont":1431,"Ġacordo":1432,"nteÃº":1433,"Ġsistema":1434,"Ġbas":1435,"ĠcomeÃ§":1436,"Ġexpl":1437,"Ġcara":1438,"Ġbus":1439,"Ġdi":1440,"ĠtÃ£o":1441,"ulaÃ§Ã£o":1442,"Ġautor":1443,"ĠCl":1444,"Ġtal":1445,"Ġapre":1446,"ĠRio":1447,"ĠAp":1448,"Ġaum":1449,"Ġlo":1450,"Ġpesqu":1451,"Ã£os":1452,"emente":1453,"Ġ[":1454,"Ġcorre":1455,"Ġgu":1456,"IC":1457,"Ġpequ":1458,"Ġsegundo":1459,"Ġprov":1460,"op":1461,"ime":1462,"ba":1463,"Ġrespons":1464,"Ġprodutos":1465,"odo":1466,"rito":1467,"Ġdoc":1468,"ĠhistÃ³ria":1469,"ene":1470,"ok":1471,"ĠentÃ£o":1472,"Ġsitu":1473,"af":1474,"ise":1475,"Ġuso":1476,"Ġmud":1477,"anos":1478,"Ãī":1479,"Ġempre":1480,"Ġcaus":1481,"nÃ§as":1482,"acion":1483,"Ġnada":1484,"Ġfuncion":1485,"ĠnÃ³s":1486,"OR":1487,"Ġrepres":1488,"Ġdeste":1489,"Ġsimpl":1490,"omp":1491,"ĠtÃ©cn":1492,"ĠEstado":1493,"rÃ¡":1494,"Ġpop":1495,"Ġqualidade":1496,"ĠlÃ¡":1497,"ava":1498,"car":1499,"Ġecon":1500,"ĠpossÃŃvel":1501,"des":1502,"Ġbase":1503,"aneiro":1504,"ilhÃµes":1505,"enÃ§a":1506,"unca":1507,"ĠAc":1508,"Ġsur":1509,"erto":1510,"Ġ18":1511,"Ġsof":1512,"ores":1513,"----":1514,"Ġtinha":1515,"aÃ§o":1516,"aixo":1517,"ĠNa":1518,"Ġmant":1519,"tes":1520,"Ġdar":1521,"No":1522,"has":1523,"ĠserviÃ§os":1524,"Ġfica":1525,"ĠEn":1526,"las":1527,"iste":1528,"ĠÂ":1529,"soc":1530,"Ġprojeto":1531,"Ġtipo":1532,"Ġcorpo":1533,"Ã¡veis":1534,"Ġmercado":1535,"Ġmot":1536,"Ġ.":1537,"Ġmo":1538,"atos":1539,"Ġnova":1540,"Ġrest":1541,"Ġexist":1542,"Para":1543,"Ġconstru":1544,"Ġlado":1545,"IS":1546,"ure":1547,"ĠAd":1548,"Ġcoloc":1549,"Ġpessoa":1550,"ificaÃ§Ã£o":1551,"Ġlugar":1552,"ĠÃ³":1553,"los":1554,"resc":1555,"Ġdentro":1556,"ĠLe":1557,"Ġtot":1558,"Ġfim":1559,"Ġdispon":1560,"Ġdados":1561,"Ġimportante":1562,"ĠUnivers":1563,"zo":1564,"quanto":1565,"Ġmet":1566,"Ġfut":1567,"Ġmodo":1568,"tiva":1569,"Ġalgumas":1570,"unidade":1571,"Ġlocal":1572,"leg":1573,"icamente":1574,"Ġexemplo":1575,"Ġgost":1576,"Ġide":1577,"Ġpublic":1578,"Ġfund":1579,"ativa":1580,"ique":1581,"ĠnÃºm":1582,"ĠtÃªm":1583,"ÃŃcia":1584,"nteÃºdo":1585,"ĠGu":1586,"tores":1587,"ifica":1588,"Ġdever":1589,"ÃŃde":1590,"dores":1591,"tou":1592,"Ãªn":1593,"ÃŃf":1594,"Ġfer":1595,"IN":1596,"abilidade":1597,"Ġcontro":1598,"ĠrelaÃ§Ã£o":1599,"Ġoutra":1600,"Ġapare":1601,"duz":1602,"ĠFederal":1603,"Ġlivro":1604,"inhos":1605,"ingu":1606,"Ġsimples":1607,"Ġmuitas":1608,"ĠÃ¡gua":1609,"ĠÃºn":1610,"ON":1611,"Ġneste":1612,"Âª":1613,"ibilidade":1614,"Ġempresas":1615,"posta":1616,"ĠCons":1617,"pera":1618,"dad":1619,"ĠmÃºs":1620,"alizaÃ§Ã£o":1621,"Ġdep":1622,"Ġsocial":1623,"oi":1624,"iores":1625,"ulg":1626,"Ġet":1627,"ĠEu":1628,"Ġente":1629,"ĠEnt":1630,"ĠpÃºblico":1631,"ĠX":1632,"Ġdese":1633,"iga":1634,"ĠJo":1635,"Ġquanto":1636,"uma":1637,"Ġ2018":1638,"Ġtre":1639,"TO":1640,"Ġmuitos":1641,"isco":1642,"Ġcoisas":1643,"ex":1644,"Ġpromo":1645,"De":1646,"Ġcoisa":1647,"Ġru":1648,"ĠmÃ¡":1649,"Ã¢n":1650,"Ġsaber":1651,"Ġens":1652,"Ġcin":1653,"Ġnesta":1654,"Ġespera":1655,"ĠsaÃºde":1656,"tamente":1657,"Ġconsidera":1658,"ĠGra":1659,"Ġajud":1660,"ide":1661,"unicip":1662,"Ġgrupo":1663,"osta":1664,"Ġdisso":1665,"abora":1666,"ĠLu":1667,"Ġdireito":1668,"Ġnunca":1669,"AS":1670,"Ġmal":1671,"ris":1672,"rir":1673,"iqu":1674,"Ġestud":1675,"Ã¡tico":1676,"Ġident":1677,"Ġdocum":1678,"ĠUm":1679,"Ġgarant":1680,"Ġhoras":1681,"ÃĩÃĥO":1682,"Ġcomb":1683,"ĠlanÃ§":1684,"Ġ30":1685,"Ġdeter":1686,"heres":1687,"ĠReg":1688,"Ġ11":1689,"Ġsemana":1690,"ĠperÃŃ":1691,"Ġtanto":1692,"AR":1693,"ĠZ":1694,"AN":1695,"Ġcan":1696,"rom":1697,"ĠMin":1698,"Ġperson":1699,"ogo":1700,"dor":1701,"\".":1702,"ament":1703,"cos":1704,"anho":1705,"ilha":1706,"Ġgoverno":1707,"ĠMa":1708,"ĠIs":1709,"Ġcur":1710,"ĠAt":1711,"Ġpresidente":1712,"ĠPol":1713,"ĠSegu":1714,"Ġapresent":1715,"ĠNacional":1716,"Ġprote":1717,"Ġer":1718,"lam":1719,"Ġtrat":1720,"ĠserviÃ§o":1721,"Ġvo":1722,"Ġacomp":1723,"ĠDire":1724,"graf":1725,"ĠEsc":1726,"Ġmesma":1727,"RO":1728,"Ġtex":1729,"Ġcat":1730,"adora":1731,"cion":1732,"cas":1733,"Ġgente":1734,"ĠCas":1735,"Ġalgo":1736,"inte":1737,"Ġtecn":1738,"Ġnossos":1739,"cri":1740,"Ġinclu":1741,"ĠSa":1742,"tugu":1743,"Ġsuc":1744,"oso":1745,"Ġk":1746,"unicÃŃp":1747,"ndes":1748,"ĠCent":1749,"ĠSer":1750,"Ġfato":1751,"icial":1752,"Ġregist":1753,"âĢĻ":1754,"vo":1755,"iÃ§a":1756,"Ġsido":1757,"Ġboa":1758,"Ġconsum":1759,"onhec":1760,"ua":1761,"ferÃªncia":1762,"Ġorig":1763,"ĠseguranÃ§a":1764,"ĠAg":1765,"gue":1766,"ila":1767,"ĠRec":1768,"ÃŃm":1769,"ĠfamÃŃlia":1770,"Ġdesenvolvimento":1771,"Ġnenh":1772,"ort":1773,"Ġsegunda":1774,"Ġcust":1775,"Ġfez":1776,"Ġsign":1777,"Ġprev":1778,"Ġficar":1779,"Ġtro":1780,"aixa":1781,"encial":1782,"eza":1783,"Ġtenho":1784,"Ġprocura":1785,"ĠUniversidade":1786,"ĠregiÃ£o":1787,"Ġdizer":1788,"iol":1789,"Ġlib":1790,"jam":1791,"eric":1792,"Ġ13":1793,"Ġalun":1794,"nos":1795,"Ġ14":1796,"Ġing":1797,"Ġconfor":1798,"inar":1799,"erta":1800,"Ġpap":1801,"eno":1802,"Ġcel":1803,"line":1804,"izar":1805,"itaÃ§Ã£o":1806,"mas":1807,"AL":1808,"Ã³rios":1809,"Ġcob":1810,"Ġdefin":1811,"Es":1812,"rutura":1813,"Ġbr":1814,"Ġtur":1815,"10":1816,"eles":1817,"ice":1818,"ĠmilhÃµes":1819,"Ġpac":1820,"olÃ³g":1821,"Ġapo":1822,"Ã©g":1823,"ĠnÃºmero":1824,"Ġrelacion":1825,"Ġbar":1826,"Ġjogo":1827,"essa":1828,"Ġproduto":1829,"Ġamor":1830,"Ġtraz":1831,"Ã¡b":1832,"ulho":1833,"ron":1834,"inheiro":1835,"Ġgeral":1836,"itura":1837,"ĠComo":1838,"ĠBar":1839,"ĠMu":1840,"ĠserÃ£o":1841,"anÃ§a":1842,"Ã©ri":1843,"raÃ§Ãµes":1844,"Ġcert":1845,"Ġnatura":1846,"Ġba":1847,"Ġmov":1848,"ĠespaÃ§o":1849,"bo":1850,"ĠproduÃ§Ã£o":1851,"ovo":1852,"posiÃ§Ã£o":1853,"Ġson":1854,"ĠRes":1855,"Ġaval":1856,"ativo":1857,"Ġpalav":1858,"Ġmater":1859,"Ġdez":1860,"ĠperÃŃodo":1861,"Ġquar":1862,"Ġ16":1863,"ĠTraduÃ§Ã£o":1864,"Ġdecis":1865,"Ġvolta":1866,"Ġenquanto":1867,"Ġobjetivo":1868,"Ġprograma":1869,"icar":1870,"Ġprecisa":1871,"Ġhomem":1872,"Ġquase":1873,"Ġnuma":1874,"Ġemb":1875,"Ġfora":1876,"Ġenvol":1877,"19":1878,"eliz":1879,"anda":1880,"xo":1881,"ĠPar":1882,"Ġjov":1883,"Ġnot":1884,"Ġequipe":1885,"Ġcole":1886,"ornal":1887,"ĠCol":1888,"ST":1889,"Ġcultura":1890,"Ã¡p":1891,"Ġcompet":1892,"Ġrespe":1893,"Ġpelas":1894,"ensÃ£o":1895,"porte":1896,"Ġfeito":1897,"Ġhora":1898,"adr":1899,"Ġvem":1900,"nta":1901,"Ġand":1902,"Ġmulheres":1903,"Ġinstitu":1904,"ĠIm":1905,"Ġfun":1906,"Ġmeses":1907,"ĠcrianÃ§as":1908,"Ġfinanc":1909,"rando":1910,"Ġtrabalh":1911,"Ġcand":1912,"unicipal":1913,"Ġanim":1914,"Ġpasso":1915,"Ġlig":1916,"Ġevento":1917,"Ġnorm":1918,"Ġto":1919,"Ġef":1920,"AD":1921,"ites":1922,"abelec":1923,"Por":1924,"Ġon":1925,"ĠmÃªs":1926,"Ġ2017":1927,"Na":1928,"iados":1929,"Ġquais":1930,"Ġgrandes":1931,"Ġjust":1932,"ĠOr":1933,"istÃ©rio":1934,"Ġfav":1935,"ona":1936,"ĠVocÃª":1937,"Ġbol":1938,"Ġverdade":1939,"Ġcir":1940,"rica":1941,"Ġmelhores":1942,"dio":1943,"ndimento":1944,"ĠPr":1945,"Ġteve":1946,"ĠSoc":1947,"Ġserv":1948,"Ġbrasileiro":1949,"Ġponto":1950,"osp":1951,"Ġ17":1952,"tanto":1953,"Ġprogram":1954,"Ġprest":1955,"Ġbene":1956,"Ġvi":1957,"11":1958,"Ġvir":1959,"orr":1960,"elas":1961,"gas":1962,"gre":1963,"....":1964,"Ġsec":1965,"uta":1966,"Ġintegra":1967,"RE":1968,"ivamente":1969,"ĠÃģ":1970,"Ġlhe":1971,"Ġacesso":1972,"Ġdiferentes":1973,"Ġperd":1974,"inos":1975,"Ġpriv":1976,"gal":1977,"Ġil":1978,"NÃ£o":1979,"elos":1980,"ĠdÃ¡":1981,"Ġmulher":1982,"Ġexec":1983,"Ġadminist":1984,"Ġpontos":1985,"Ġproblema":1986,"mes":1987,"Ġnoite":1988,"one":1989,"Ġresol":1990,"ĠUma":1991,"ĠvÃŃde":1992,"erem":1993,"Ġado":1994,"ĠJos":1995,"Ã³l":1996,"Ġseria":1997,"Ġmaneira":1998,"Ġcart":1999,"Ġhab":2000,"ĠPl":2001,"Ã£e":2002,"Ġinstal":2003,"ax":2004,"ÃŃcios":2005,"Ġatividades":2006,"Ġvend":2007,"uras":2008,"Ġpen":2009,"ĠTrabal":2010,"ulas":2011,"esar":2012,"omia":2013,"ins":2014,"Ġproblemas":2015,"Ã³p":2016,"vio":2017,"Ġmim":2018,"Ġtemos":2019,"Ġz":2020,"Ġfrente":2021,"Ġcurso":2022,"ividade":2023,".âĢľ":2024,"ĠvÃ¡rios":2025,"Ġfoto":2026,"ĠinÃŃcio":2027,"qui":2028,"Ġpresente":2029,"unho":2030,"Ġenerg":2031,"ĠY":2032,"lex":2033,"hes":2034,"Ġtenha":2035,"reve":2036,"Ġche":2037,"Ġestado":2038,"Ġgera":2039,"Ġfiz":2040,"ĠAnt":2041,"Ġmens":2042,"Ġ2016":2043,"ĠexperiÃªncia":2044,"ĠSal":2045,"Ġ25":2046,"Ã©rie":2047,"Ġoport":2048,"Ġdetermin":2049,"ificar":2050,"Ġestabelec":2051,"Al":2052,"iano":2053,"Ġcapac":2054,"Ġfilme":2055,"Ġdinheiro":2056,"Ġdevem":2057,"Ġblog":2058,"ĠLei":2059,"inaÃ§Ã£o":2060,"Ġestou":2061,"icion":2062,"Ġtar":2063,"Ġusar":2064,"cter":2065,"itor":2066,"Ġbo":2067,"atal":2068,"Ġmora":2069,"Ã§Ã£este":2070,"ceu":2071,"ĠVal":2072,"vida":2073,"000":2074,"iram":2075,"ecer":2076,"Ġreun":2077,"Ġsabe":2078,"avam":2079,"ux":2080,"Ġsou":2081,"Ġpossui":2082,".\"":2083,"ump":2084,"reira":2085,"ĠpÃ¡g":2086,"30":2087,"Ġobs":2088,"ĠEste":2089,"ubro":2090,"onst":2091,"Ġcontribu":2092,"Ġquatro":2093,"anhÃ£":2094,"Ġopera":2095,"Ġconju":2096,"ĠprÃ³pria":2097,"ance":2098,"Ġagra":2099,"Ġpermit":2100,"ww":2101,"Ġafirm":2102,"ĠprÃ³prio":2103,"ĠpoderÃ¡":2104,"Ġusu":2105,"TE":2106,"ĠnegÃ³":2107,"eito":2108,"Ġenf":2109,"ĠIntern":2110,"istÃªncia":2111,"esc":2112,"Ġfalar":2113,"Ġambiente":2114,"tr":2115,"Ġ...":2116,"Ġocorre":2117,"ĠSen":2118,"Ġacred":2119,"izado":2120,"Ġsi":2121,"ĠAlÃ©m":2122,"Ġpassado":2123,"Ġpergu":2124,"ĠvÃ£o":2125,"Ġquant":2126,"ĠEd":2127,"Ġlemb":2128,"ĠJaneiro":2129,"bra":2130,"Ġ24":2131,"ind":2132,"ĠEl":2133,"Ġ2015":2134,"idores":2135,"cia":2136,"Ġban":2137,"ĠPÃºbl":2138,"Ġmuita":2139,"Ġrelat":2140,"Ġaju":2141,"Ġvar":2142,"Ġprofissional":2143,"vista":2144,"ĠMo":2145,"Ġencontrar":2146,"Ġjur":2147,"ĠsituaÃ§Ã£o":2148,"Ġtele":2149,"Ġalguma":2150,"ay":2151,"Ġlongo":2152,"uais":2153,"riz":2154,"ĠfÃŃs":2155,"Ġobrig":2156,"Ġbastante":2157,"Ġproduz":2158,"20":2159,"ĠComp":2160,"Ġprocess":2161,"Ġparc":2162,"iada":2163,"ques":2164,"rÃ¡f":2165,"imas":2166,"Ġimpl":2167,"Ġsen":2168,"Ġclientes":2169,"Ġsociais":2170,"Ġprofissionais":2171,"reiro":2172,"ĠSec":2173,"inta":2174,"Ġdescob":2175,"Ġnovos":2176,"Ġdesse":2177,"Ġexerc":2178,"Ġencontra":2179,"Ġviv":2180,"Ġmarca":2181,"ĠEsp":2182,"Ap":2183,"Ġrecursos":2184,"Ġprincipais":2185,"idÃªncia":2186,"asse":2187,"ipl":2188,"Ġsociedade":2189,"iÃªncias":2190,"Ġcomunic":2191,"ĠmunicÃŃp":2192,"ĠOl":2193,"ang":2194,"Ġminutos":2195,"ĠvÃ¡rias":2196,"ĠSil":2197,"Ġarqu":2198,"Ġcomerc":2199,"Ġcerca":2200,"ĠEducaÃ§Ã£o":2201,"Ġdig":2202,"Ġrece":2203,"ĠprÃ³ximo":2204,"II":2205,"Ġdessa":2206,"Ġdeixar":2207,"ves":2208,"ĠNe":2209,"ÃŃtulo":2210,"iana":2211,"ĠSem":2212,"ĠSul":2213,"ĠpolÃŃtica":2214,"Ġreconhec":2215,"Ġvers":2216,"Ġfalta":2217,"Ġdele":2218,"ĠMaria":2219,"cios":2220,"Ġx":2221,"Ã©l":2222,"aÃ§a":2223,"ies":2224,"reg":2225,"ĠaÃ§Ã£o":2226,"Ġprepara":2227,"entemente":2228,"Ġforn":2229,"Ġfavor":2230,"Ġquest":2231,"Ġvag":2232,"Ġ199":2233,"Ġfra":2234,"Ġ2014":2235,"Ã¡cil":2236,"Ġplane":2237,"ect":2238,"ĠcondiÃ§Ãµes":2239,"Ġtotal":2240,"ĠnecessÃ¡rio":2241,"ĠnÂº":2242,"Ġpesquisa":2243,"ach":2244,"Ġalte":2245,"gres":2246,"Ġartigo":2247,"Ġresultado":2248,"Ġindic":2249,"pt":2250,"lob":2251,"aca":2252,"__":2253,"val":2254,"ater":2255,"essor":2256,"Ġmarc":2257,"Ġacompanh":2258,"Ġbeb":2259,"ĠnÃŃvel":2260,"entou":2261,"Ġprat":2262,"ilhos":2263,"Ġcontato":2264,"ĠJosÃ©":2265,"Ġlei":2266,"Ġprojet":2267,"Ġcaracter":2268,"Ġcresc":2269,"ĠTem":2270,"ĠVer":2271,"pend":2272,"ĠPer":2273,"Ġhavia":2274,"ÃŃdo":2275,"esus":2276,"artamento":2277,"tugal":2278,"ĠaÃ§Ãµes":2279,"Ġterc":2280,"ube":2281,"edor":2282,"Ġcomun":2283,"Ġpapel":2284,"Ġreceber":2285,"12":2286,"ece":2287,"Ġesses":2288,"AM":2289,"Ġmaioria":2290,"ificado":2291,"jas":2292,"Ġdemais":2293,"antas":2294,"Ġanter":2295,"ĠPed":2296,"Ġindiv":2297,"Ġanal":2298,"Ġprova":2299,"icaÃ§Ãµes":2300,"Ġtiv":2301,"iÃµes":2302,"Ġfec":2303,"ĠmÃºsica":2304,"Ġprincipal":2305,"ID":2306,"Ġalunos":2307,"ĠOut":2308,"Ġimport":2309,"Ġimporta":2310,"Ġfos":2311,"Ġficou":2312,"Ġmont":2313,"Ġfazendo":2314,"Ġrede":2315,"rec":2316,"Ġsus":2317,"Ġrela":2318,"Ġassu":2319,"Ġnovas":2320,"ĠCor":2321,"Ġpot":2322,"Ġnacional":2323,"Ġcamp":2324,"Ġnatural":2325,"ĠJust":2326,"Ġsai":2327,"ill":2328,"ÃŃda":2329,"anas":2330,"eix":2331,"Ġreal":2332,"Ġesqu":2333,"Ġajuda":2334,"Ġmodelo":2335,"izada":2336,"ÃŃnio":2337,"Ġbusca":2338,"Ġalta":2339,"Ġresultados":2340,"Ġvou":2341,"Ġur":2342,"Ġsucesso":2343,"ĠfÃ¡cil":2344,"ĠÃ¡reas":2345,"ĠdÃº":2346,"Ġcriar":2347,"Ġpassa":2348,"ĠinformaÃ§Ã£o":2349,"Ġamigos":2350,"Ġsens":2351,"Ġigu":2352,"Ġacess":2353,"Ġestudo":2354,"Ġcasos":2355,"Ġgol":2356,"ivil":2357,"Ġpassar":2358,"SP":2359,"Ġcabe":2360,"ume":2361,"ĠrÃ¡p":2362,"Ġpreciso":2363,"ĠQuando":2364,"zinha":2365,"Ġord":2366,"Ġemp":2367,"Ġmor":2368,"ĠterÃ¡":2369,"Ġusando":2370,"Ġadv":2371,"Ã¡st":2372,"Ġmus":2373,"Ġelas":2374,"ton":2375,"Ġpropor":2376,"ense":2377,"ĠJesus":2378,"ĠsÃ©rie":2379,"Ġescola":2380,"ĠPod":2381,"ĠMunicipal":2382,"Ġexig":2383,"ĠquestÃ£o":2384,"fo":2385,"Ġtexto":2386,"ĠFac":2387,"ĠconteÃºdo":2388,"ĠJoÃ£o":2389,"ĠSaÃºde":2390,"ruz":2391,"ame":2392,"Ġminist":2393,"Ġcoment":2394,"Ġapoio":2395,"ratÃ©g":2396,"ik":2397,"Ġalim":2398,"Ãģ":2399,"Ġpais":2400,"Ã¢mara":2401,"Ġace":2402,"Ġprincipalmente":2403,"ĠProf":2404,"Ġ100":2405,"Ġassoc":2406,"Ġperceb":2407,"Ġpropri":2408,"Ã¡lise":2409,"Ġconhecimento":2410,"ĠDo":2411,"ĠmÃ£e":2412,"Ġsentido":2413,"Ġder":2414,"Ġhomens":2415,"Ġaprov":2416,"Ġsomente":2417,"Ġajudar":2418,"Ġdific":2419,"Ġdetal":2420,"Ġvista":2421,"Ġpost":2422,"Ġtarde":2423,"Ġobra":2424,"Ġganh":2425,"ĠÃ©p":2426,"Ġcausa":2427,"RI":2428,"Ġ21":2429,"ket":2430,"ĠgestÃ£o":2431,"Ãºst":2432,"ntos":2433,"Ġlogo":2434,"ulares":2435,"Ġessas":2436,"alizado":2437,"itado":2438,"ĠOb":2439,"Ġportugu":2440,"Eu":2441,"xim":2442,"odos":2443,"Ġentanto":2444,"ĠAnd":2445,"Ġexcel":2446,"ĠBa":2447,"Ġdom":2448,"ĠprÃ¡tica":2449,"Ġjornal":2450,"ĠFranc":2451,"ĠatenÃ§Ã£o":2452,"Ġrealmente":2453,"Ġenergia":2454,"adeira":2455,"Ġinclus":2456,"press":2457,"Um":2458,"MA":2459,"eros":2460,"ĠConc":2461,"ĠPortugal":2462,"ĠIN":2463,"Ġ2013":2464,"Ġ:":2465,"Ġhor":2466,"Ġprazo":2467,"Ġdomin":2468,"ĠpopulaÃ§Ã£o":2469,"Ġfilho":2470,"Ġvit":2471,"ĠpreÃ§o":2472,"ĠNos":2473,"Ġexiste":2474,"ink":2475,"Ġetc":2476,"Ã³n":2477,"ĠMinistÃ©rio":2478,"Ġdim":2479,"OL":2480,"ĠvocÃªs":2481,"Ã³rias":2482,"Ġmanter":2483,"Ġinternet":2484,"Ġabaixo":2485,"Ġvel":2486,"pressÃ£o":2487,"Ġso":2488,"ĠeducaÃ§Ã£o":2489,"Ġverdad":2490,"Ġexclus":2491,"Ġrevel":2492,"tt":2493,"ĠTrabalho":2494,"Ġmon":2495,"Ġexp":2496,"Ġjunto":2497,"Ġtest":2498,"Ġade":2499,"Ġtent":2500,"Ġtratamento":2501,"Ġdivulg":2502,"visÃ£o":2503,"ĠediÃ§Ã£o":2504,"anta":2505,"idor":2506,"ribun":2507,"Ġ50":2508,"rados":2509,"Ġquad":2510,"Ġcaminho":2511,"arem":2512,"Ġestrutura":2513,"Ġcontrole":2514,"vam":2515,"Ġpreoc":2516,"Ġdiversos":2517,"emp":2518,"tando":2519,"Ġdecl":2520,"ebol":2521,"ws":2522,"pÃ§Ã£o":2523,"Ġgovern":2524,"ature":2525,"Ġrespeito":2526,"ĠpaÃŃses":2527,"200":2528,"maz":2529,"Ġlinha":2530,"gos":2531,"isso":2532,"Ġdeu":2533,"Ġata":2534,"Ġgrav":2535,"Ġ2012":2536,"Ġnesse":2537,"genh":2538,"ĠCap":2539,"Ġcost":2540,"Ġdireitos":2541,"ĠporÃ©m":2542,"Ġden":2543,"Ã¡ticas":2544,"Ġdiversas":2545,"ĠJÃ¡":2546,"ĠPart":2547,"inado":2548,"ĠalguÃ©m":2549,"erais":2550,"Ġproced":2551,"Ġdata":2552,"Ġparece":2553,"uldade":2554,"vez":2555,"ĠPres":2556,"ĠdecisÃ£o":2557,"ĠCentro":2558,"ome":2559,"Ġsei":2560,"Ġcinco":2561,"Ġoferece":2562,"ĠGrande":2563,"Ġmeus":2564,"ĠInstitu":2565,"mail":2566,"ĠÃºltima":2567,"Ġsan":2568,"Ġcomprar":2569,"Ġtendo":2570,"ĠveÃŃc":2571,"etro":2572,"posto":2573,"Ã³veis":2574,"EL":2575,"ment":2576,"Ġviol":2577,"pira":2578,"OM":2579,"Ġisto":2580,"Ġperman":2581,"vidas":2582,"Ġcampo":2583,"ĠJustiÃ§a":2584,"Ġrespo":2585,"ĠÃºltimo":2586,"ĠIsso":2587,"ÂŃ":2588,"ze":2589,"orden":2590,"Ġset":2591,"Ġconstitu":2592,"emin":2593,"iÃ¡rio":2594,"Ġpagamento":2595,"aval":2596,"ĠFil":2597,"Ġenvi":2598,"criÃ§Ã£o":2599,"Ġinicia":2600,"ĠÃ³t":2601,"ĠPal":2602,"--------":2603,"tro":2604,"pro":2605,"Ġdeles":2606,"Ġ22":2607,"ĠÃ©poca":2608,"Ġchegar":2609,"EM":2610,"ÃŃstica":2611,"ender":2612,"EI":2613,"Ġgen":2614,"ĠconstruÃ§Ã£o":2615,"Ġpreocup":2616,"atureza":2617,"Ġestre":2618,"Ġtransform":2619,"Ġtema":2620,"leo":2621,"Ġcateg":2622,"ĠâĢĺ":2623,"ĠEuro":2624,"Ġsin":2625,"edia":2626,"Ġcump":2627,"Ġvalores":2628,"Ġapresenta":2629,"ĠTe":2630,"ĠLo":2631,"ĠSuper":2632,"ival":2633,"Ġrealizar":2634,"Ġpessoal":2635,"ĠProgram":2636,"Ġpovo":2637,"Ġensino":2638,"Ġalc":2639,"ĠSanta":2640,"ĠMan":2641,"Ġnecessidade":2642,"ĠformaÃ§Ã£o":2643,"uv":2644,"idar":2645,"EC":2646,"Ġfundament":2647,"Ġirm":2648,"ĠprÃ©":2649,"ĠforÃ§a":2650,"Ġdecid":2651,"Ġcerto":2652,"Ġnenhum":2653,"ĠvÃŃdeo":2654,"Ġconhecer":2655,"isl":2656,"feitos":2657,"ĠEstados":2658,"Ġcirc":2659,"tec":2660,"Ġfotos":2661,"Pro":2662,"Ġtecnologia":2663,"50":2664,"Ġcompra":2665,"par":2666,"rum":2667,"ĠAo":2668,"Ġcarro":2669,"Ġimagem":2670,"Ġobserv":2671,"IL":2672,"Ġperf":2673,"ĠAb":2674,"Ġprojetos":2675,"inguÃ©m":2676,"ĠpÃºblica":2677,"ĠmanhÃ£":2678,"Ġinde":2679,"eias":2680,"iou":2681,"Ġabs":2682,"ÃŃsticas":2683,"Ġcre":2684,"Ġjogos":2685,"Ġfazem":2686,"gens":2687,"Ġpat":2688,"Ġlit":2689,"Ġrepresent":2690,"Ġaprove":2691,"Ġraz":2692,"Ġtran":2693,"estre":2694,"ama":2695,"ell":2696,"Ġclass":2697,"Ġinvestig":2698,"Ġestamos":2699,"ĠDO":2700,"Ġsala":2701,"ack":2702,"Ġnossas":2703,"Ġmostra":2704,"Ġcompanh":2705,"isÃ£o":2706,"IV":2707,"Ġpai":2708,"adamente":2709,"Ġfacil":2710,"Ġpoderia":2711,"Como":2712,"Ġcompre":2713,"QU":2714,"Ġefet":2715,"man":2716,"Ġouv":2717,"ĠfÃ©":2718,"Ġvont":2719,"ĠestratÃ©g":2720,"Ġacho":2721,"ĠirÃ¡":2722,"Ġsetor":2723,"Ġatual":2724,"anÃ§as":2725,"Ġcomum":2726,"ĠpresenÃ§a":2727,"Ġideia":2728,"Ġtax":2729,"Ġmand":2730,"iel":2731,"Ġcentro":2732,"hia":2733,"ĠEla":2734,"ĠimportÃ¢ncia":2735,"Ġfeita":2736,"Ġtam":2737,"Ġdistribu":2738,"Ġmaiores":2739,"Ġlivros":2740,"Ġatividade":2741,"itando":2742,"Ġbrasileira":2743,"eta":2744,"ĠparticipaÃ§Ã£o":2745,"ĠFo":2746,"ĠaÃŃ":2747,"Ġacima":2748,"Ġdesaf":2749,"Ġterra":2750,"Ġclaro":2751,"ĠCal":2752,"Ġmaterial":2753,"ertura":2754,"lor":2755,"Ġresta":2756,"Ġprofesso":2757,"Ġdaqu":2758,"Este":2759,"Uma":2760,"ĠmÃ¡x":2761,"rap":2762,"Ġbenef":2763,"Ġsac":2764,"ĠCat":2765,"ĠSecret":2766,"tivas":2767,"raf":2768,"Ġfilhos":2769,"rest":2770,"Ġdura":2771,"Ġhosp":2772,"teza":2773,"Ġonline":2774,"arm":2775,"Ġagrad":2776,"Ġdiferente":2777,"Ġgas":2778,"Ġautom":2779,"Ġcapital":2780,"Ġpele":2781,"eios":2782,"ĠmÃŃn":2783,"Ġps":2784,"ĠÃºnico":2785,"Ġvontade":2786,"Ġluz":2787,"Ġmorte":2788,"col":2789,"Ġali":2790,"Ġ+":2791,"met":2792,"Ġating":2793,"oco":2794,"oje":2795,"ger":2796,"ĠcoraÃ§Ã£o":2797,"Ġlevar":2798,"//":2799,"Ġutilizando":2800,"ĠCÃ¢mara":2801,"Ġforte":2802,"Ġsho":2803,"Ġ'":2804,"ĠsÃ¡b":2805,"UL":2806,"ĠPo":2807,"vereiro":2808,"Ġcapacidade":2809,"Ġconqu":2810,"Ġ2011":2811,"ugu":2812,"ĠmÃ£o":2813,"essÃ£o":2814,"Ġlista":2815,"ipe":2816,"iliar":2817,"ĠInd":2818,"ĠRod":2819,"Ġsuperior":2820,"Ġoficial":2821,"Ġpalavras":2822,"Ġit":2823,"Ġfeliz":2824,"ÃŃcil":2825,"ÃŃcias":2826,"ĠresponsÃ¡vel":2827,"our":2828,"enos":2829,"ativas":2830,"oro":2831,"ĠâĢĶ":2832,"duaÃ§Ã£o":2833,"Ġrecom":2834,"Ġ23":2835,"Ġquis":2836,"Ġdela":2837,"Ġestran":2838,".âĢĿ":2839,"ĠConteÃºdo":2840,"ecimento":2841,"ĠProc":2842,"Ġrap":2843,"Ġvamos":2844,"ril":2845,"irma":2846,"Â»":2847,"Ġpodemos":2848,"Ġoutubro":2849,"ĠTV":2850,"ribunal":2851,"Ġelev":2852,"Ġcliente":2853,"ĠeconÃ´m":2854,"Ġess":2855,"mit":2856,"ĠcriaÃ§Ã£o":2857,"su":2858,"mento":2859,"Ġaleg":2860,"15":2861,"asc":2862,"ĠPorto":2863,"Ġserem":2864,"Ġassist":2865,"Ġsejam":2866,"ede":2867,"Ġtrabalhar":2868,"Ġeleito":2869,"Ġreduz":2870,"Ġorganiz":2871,"Ġdeb":2872,"postas":2873,"eiÃ§Ã£o":2874,"Ġconseguir":2875,"ĠDa":2876,"ndeu":2877,"Ã©ria":2878,"mar":2879,"Ġeram":2880,"ĠBol":2881,"itivo":2882,"Ġsust":2883,"Ġnovembro":2884,"rÃ¡s":2885,"Ġsolic":2886,"let":2887,"jar":2888,"Ġoportunidade":2889,"ĠPra":2890,"ĠÃºnica":2891,"Ġmult":2892,"jos":2893,"Ġne":2894,"ĠdifÃŃcil":2895,"Ġaquele":2896,"Ġnatureza":2897,"Ã¡ss":2898,"ĠpÃ¡gina":2899,"Ġtermos":2900,"Ġlivre":2901,"gn":2902,"keting":2903,"Ġrealidade":2904,"Ã³digo":2905,"Ġidade":2906,"Ġpla":2907,"Ġalto":2908,"ĠSilva":2909,"Ġexecut":2910,"ĠFern":2911,"Ġsat":2912,"Ġinteress":2913,"Ġsexta":2914,"ttp":2915,"Ġpermite":2916,"Ġren":2917,"Ġdevido":2918,"Ġpena":2919,"Ġrisco":2920,"Ġmag":2921,"adual":2922,"Ġsexo":2923,"Ġbanc":2924,"Ġbal":2925,"Ġadequ":2926,"Ġalt":2927,"Ġrom":2928,"Ġfosse":2929,"Ġatendimento":2930,"remos":2931,"Ġcha":2932,"ĠIgre":2933,"Ġseguir":2934,"Ġferram":2935,"ĠConf":2936,"ĠÃºltimos":2937,"Ġpassou":2938,"reto":2939,"idÃ£o":2940,"Ġentrar":2941,"Ġobras":2942,"ED":2943,"elha":2944,"Ġcrescimento":2945,"Ã³vel":2946,"ĠfunÃ§Ã£o":2947,"idado":2948,"Ġimag":2949,"Ġbon":2950,"ðŁ":2951,"ĠÃ³r":2952,"18":2953,"ĠÃŃ":2954,"Ġ40":2955,"Ġmara":2956,"Ġfuturo":2957,"2018":2958,"Con":2959,"Ġaumento":2960,"ĠMais":2961,"Ġespecialmente":2962,"Ġcho":2963,"Ã£es":2964,"Ġviagem":2965,"://":2966,"ĠespecÃŃf":2967,"Ġestim":2968,"gresso":2969,"Ġanterior":2970,"Ġ2010":2971,"tual":2972,"AC":2973,"ficiente":2974,"Ġassunto":2975,"ĠSim":2976,"ĠAssim":2977,"Ġcerteza":2978,"ĠNova":2979,"pas":2980,"tado":2981,"Ġâ":2982,"Ã©is":2983,"ĠDia":2984,"ificada":2985,"Ãµe":2986,"ardo":2987,"Ã¢ne":2988,"ĠanÃ¡lise":2989,"ĠcomunicaÃ§Ã£o":2990,"ĠcabeÃ§a":2991,"Ġredes":2992,"Ġpergunt":2993,"ook":2994,"Ġseguinte":2995,"Ġjaneiro":2996,"rimento":2997,"Ġparcer":2998,"Ġbranc":2999,"Ġtermin":3000,"Ġjunho":3001,"Ġdezembro":3002,"Ġcrim":3003,"Ġcapaz":3004,"Ġvenda":3005,"antar":3006,"ĠGo":3007,"Ġdesign":3008,"Ġsaud":3009,"Des":3010,"Ġaud":3011,"Ġquarta":3012,"ĠmunicÃŃpio":3013,"ress":3014,"Ġampl":3015,"ĠopÃ§Ã£o":3016,"Ġpadr":3017,"ĠGov":3018,"ĠQue":3019,"Ġcandid":3020,"Ġsetembro":3021,"ÃŃss":3022,"Ã©dio":3023,"Ġler":3024,"iro":3025,"bol":3026,"Ġgr":3027,"ibil":3028,"Mas":3029,"esqu":3030,"Ġmist":3031,"ades":3032,"Ġtelef":3033,"Ġmol":3034,"ndendo":3035,"ipos":3036,"ĠArt":3037,"risto":3038,"ativos":3039,"ĠCr":3040,"Ġcomunidade":3041,"Segu":3042,"Ġvest":3043,"Ġsair":3044,"Ġprete":3045,"Ġpeg":3046,"Ġcomercial":3047,"ĠsÃ©c":3048,"quia":3049,"Ġcomprom":3050,"Ġgosto":3051,"Ġdeco":3052,"Ġcompart":3053,"Ġrelig":3054,"Ġdescont":3055,"Ġmanif":3056,"Ġimagens":3057,"Ġelem":3058,"ĠorganizaÃ§Ã£o":3059,"Ġ&":3060,"Ġcient":3061,"ĠFor":3062,"ĠMe":3063,"ĠFoi":3064,"Ġdocumentos":3065,"uz":3066,"Ġjulho":3067,"irro":3068,"Ġacontece":3069,"erna":3070,"Ġfase":3071,"radas":3072,"Ġtor":3073,"Ġproposta":3074,"Ġpedido":3075,"Ġchegou":3076,"Ġfesta":3077,"vimento":3078,"ilia":3079,"ĠcomeÃ§ou":3080,"Ġmaio":3081,"Ġhot":3082,"usa":3083,"Ġconforme":3084,"Ġinteresse":3085,"ÃŃdu":3086,"acionais":3087,"ental":3088,"Ãį":3089,"Ġjovens":3090,"ĠServi":3091,"13":3092,"Ġrefere":3093,"rever":3094,"obre":3095,"ĠCarlos":3096,"Ġrealizado":3097,"Ġaqueles":3098,"ĠEsta":3099,"ĠMed":3100,"ĠSenhor":3101,"tivo":3102,"Ġpossa":3103,"feitura":3104,"cionais":3105,"sal":3106,"Ġtais":3107,"Ã©tica":3108,"Ġdesemp":3109,"Ġconjunto":3110,"ÃŃtica":3111,"Ġocup":3112,"ĠAdminist":3113,"Ġestilo":3114,"VocÃª":3115,"cel":3116,"ramento":3117,"isp":3118,"Ġfab":3119,"mb":3120,"Ġaprend":3121,"Ġgratu":3122,"Ġinflu":3123,"ĠSocial":3124,"ĠIgreja":3125,"Ġcolocar":3126,"Quando":3127,"Ġdestac":3128,"ĠEntre":3129,"ĠProgramÃ¡tico":3130,"ĠdeverÃ¡":3131,"Ġolhos":3132,"Ġperc":3133,"ĠEntÃ£o":3134,"ilhas":3135,"uros":3136,"ich":3137,"voluÃ§Ã£o":3138,"Ġpossibilidade":3139,"rea":3140,"Ġfol":3141,"ĠmÃ©dia":3142,"ĠRep":3143,"ĠÃ³rg":3144,"Ġtrein":3145,"ke":3146,"Ġconte":3147,"ĠninguÃ©m":3148,"gon":3149,"uÃ§Ãµes":3150,"ÃŃrito":3151,"ĠInstituto":3152,"trÃ´n":3153,"Ġestes":3154,"idados":3155,"Ġplano":3156,"ĠcrianÃ§a":3157,"Ġfrequ":3158,"enso":3159,"idamente":3160,"ĠSantos":3161,"Ġmedida":3162,"Ġpensar":3163,"cul":3164,"jamento":3165,"Ġcrit":3166,"In":3167,"Ġextra":3168,"ĠSist":3169,"Ġproporcion":3170,"UA":3171,"Ġbel":3172,"Ġprocessos":3173,"Ġfutebol":3174,"ĠUnidos":3175,"Ġmomentos":3176,"ĠAv":3177,"Ġtrabalha":3178,"Ã´nio":3179,"Ġopin":3180,"Ġdemonst":3181,"ware":3182,"ĠÂ«":3183,"ĠtÃŃtulo":3184,"ionar":3185,"Ġperto":3186,"16":3187,"Ġros":3188,"iciais":3189,"uda":3190,"14":3191,"Ġunivers":3192,"vido":3193,"Ġlocais":3194,"Ġquinta":3195,"Ġ28":3196,"icidade":3197,"ham":3198,"Ġtend":3199,"Ġentrada":3200,"!!!":3201,"IM":3202,"umo":3203,"ĠCasa":3204,"Ġconver":3205,"Ġaproxim":3206,"Ġdeput":3207,"elig":3208,"ĠSol":3209,"Ġfisc":3210,"Ġimportantes":3211,"Ġprofessor":3212,"ensa":3213,"Ġloja":3214,"utenÃ§Ã£o":3215,"Ġafirmou":3216,"ĠHist":3217,"Ġagosto":3218,"Ġrealizada":3219,"ĠversÃ£o":3220,"Ġaux":3221,"Ġ198":3222,"Ã§ar":3223,"ĠespÃ©c":3224,"urg":3225,"rita":3226,"Ġpert":3227,"ĠCON":3228,"ĠAssoc":3229,");":3230,"ĠCurso":3231,"erva":3232,"iza":3233,"enÃ¡rio":3234,"ĠhistÃ³r":3235,"ĠCa":3236,"Ġbaix":3237,"Ġsofre":3238,"Ġconfirm":3239,"Ġdeclara":3240,"fa":3241,"Ġconsc":3242,"Ġdomingo":3243,"ĠMat":3244,"Ġquantidade":3245,"tra":3246,"Ġmenor":3247,"Ġep":3248,"ĠCristo":3249,"UN":3250,"ĠEST":3251,"Ġhou":3252,"PS":3253,"ĠLiv":3254,"Ġtime":3255,"Ġjovem":3256,"ertas":3257,"ĠbÃ¡s":3258,"eter":3259,"Ġroup":3260,"Ġnessa":3261,"ritÃ³rio":3262,"lÃªs":3263,"Ġrem":3264,"ĠcomeÃ§a":3265,"ĠsÃ¡bado":3266,"ork":3267,"Ġcontr":3268,"Ġvig":3269,"Ar":3270,"Ġinclusive":3271,"Ġdiretor":3272,"Ġcompro":3273,"Ġrot":3274,"Ġencontro":3275,"ibiliz":3276,"ĠcomeÃ§ar":3277,"ĠDepois":3278,"Ġlar":3279,"orno":3280,"ĠLa":3281,"Ġtec":3282,"Ġmund":3283,"otos":3284,"ĠMil":3285,"genharia":3286,"Ġrev":3287,"Ġ27":3288,"ren":3289,"Ġcampanha":3290,"Ġeconomia":3291,"ĠprÃ³xima":3292,"ĠAinda":3293,"Ġsignifica":3294,"Ġmac":3295,"alizar":3296,"Ġtradic":3297,"Re":3298,"Ġdel":3299,"Ġcompara":3300,"Ġenfre":3301,"iante":3302,"ĠConselho":3303,"Ġcres":3304,"ĠprincÃŃp":3305,"ĠNov":3306,"iental":3307,"kk":3308,"ude":3309,"Ġliber":3310,"Ġvisita":3311,"Ã©rica":3312,"Ġmovimento":3313,"Ġtomar":3314,"Ġpartic":3315,"azer":3316,"Ġhaver":3317,"ĠmarÃ§o":3318,"Ã´nia":3319,"acto":3320,"ioso":3321,"ÃŃg":3322,"ĠSecretaria":3323,"Ã©u":3324,"Ġdirig":3325,"Ġ26":3326,"ĠmÃ£os":3327,"Ġefeito":3328,"Â§":3329,"Ġcul":3330,"Ġdesp":3331,"terior":3332,"ianÃ§a":3333,"ck":3334,"Ġresposta":3335,"Ġcidades":3336,"idato":3337,"ĠdÃ©c":3338,"Ġquarto":3339,"amp":3340,"Ġescolha":3341,"una":3342,"Ġcozinha":3343,"ical":3344,"obil":3345,"Ã©to":3346,"ĠrealizaÃ§Ã£o":3347,"Ġaspec":3348,"âĢ¦]":3349,"Ġcidad":3350,"Ex":3351,"rÃ©":3352,"ĠAmb":3353,"itam":3354,"Ġporta":3355,"Ġbaixo":3356,"ĠÃ¢":3357,"ĠVe":3358,"Ġhip":3359,"ĠTribunal":3360,"eiÃ§Ãµes":3361,"Ġrefer":3362,"Ġteria":3363,"Ġdorm":3364,"17":3365,"Ġpossibil":3366,"tora":3367,"Ġindepend":3368,"atÃ³rio":3369,"Ġarte":3370,"ĠPrograma":3371,"ĠSegundo":3372,"Ã¼":3373,"ulta":3374,"Ġdedic":3375,"Ġjunt":3376,"iso":3377,"ĠpreÃ§os":3378,"onato":3379,"Ġrepresenta":3380,"Ent":3381,"Ġsatis":3382,"ĠatrÃ¡s":3383,"Ġtrabalhos":3384,"Ã©dito":3385,"Ġapresentar":3386,"ĠaplicaÃ§Ã£o":3387,"isb":3388,"Ġcima":3389,"encia":3390,"enham":3391,"sem":3392,"ĠDireito":3393,"Ġseis":3394,"Ġnenhuma":3395,"Ġfl":3396,"Ġconvers":3397,"Ã³t":3398,"ĠopÃ§Ãµes":3399,"Ġeventos":3400,"ĠRob":3401,"ĠpeÃ§as":3402,"dades":3403,"rÃŃc":3404,"ĠInf":3405,"ĠTrans":3406,"Ġaut":3407,"Ġoferec":3408,"Ġexcelente":3409,"Ġimedia":3410,"ĠDA":3411,"orrer":3412,"Ġformas":3413,"ĠBra":3414,"Ġquero":3415,"gues":3416,"Ġconse":3417,"Ġentender":3418,"Ġcores":3419,"Ġresponsabilidade":3420,"Ġthe":3421,"Ġanimais":3422,"Ġmem":3423,"eir":3424,"grafia":3425,"lusÃ£o":3426,"ĠCultura":3427,"ndia":3428,"ĠTer":3429,"Ġtrata":3430,"Ġrecup":3431,"ĠPolÃŃcia":3432,"Ġabril":3433,"rel":3434,"uito":3435,"ĠGeral":3436,"Ġpeso":3437,"DO":3438,"Ġq":3439,"vendo":3440,"Ġdispos":3441,"Ġviver":3442,"ĠEnc":3443,"Ġgar":3444,"ICA":3445,"ĠThe":3446,"Ġdefesa":3447,"orias":3448,"oma":3449,"Ġfest":3450,"Ġmedic":3451,"Ġparceria":3452,"ĠInst":3453,"ĠRo":3454,"ĠSt":3455,"Ġ60":3456,"Ġlic":3457,"Ġcursos":3458,"etas":3459,"Ġparticipar":3460,"Ġuns":3461,"ĠDec":3462,"ĠPe":3463,"Ġinterv":3464,"Ġapesar":3465,"ĠPÃºblico":3466,"Ġafirma":3467,"Ġatra":3468,"iadas":3469,"Ġmarav":3470,"Ġgarantir":3471,"Ġtab":3472,"Ġvenc":3473,"Ġindivid":3474,"Ġestavam":3475,"Ġhttp":3476,"Ġperder":3477,"ace":3478,"Ġcant":3479,"Ġbrasileiros":3480,"ff":3481,"Segundo":3482,"Ġapont":3483,"Ġimpos":3484,"pecial":3485,"Ã©rcio":3486,"Ġselec":3487,"iosa":3488,"Ãºstria":3489,"Ġcolabora":3490,"Ġtipos":3491,"ĠrazÃ£o":3492,"arda":3493,"eleÃ§Ã£o":3494,"ĠtÃ©cnica":3495,"oraÃ§Ã£o":3496,"alizada":3497,"lÃ¡":3498,"Ġdesf":3499,"velmente":3500,"Ġobt":3501,"ĠDesenvol":3502,"Ġdor":3503,"Ġinteressa":3504,"¿½":3505,"ĠnegÃ³cio":3506,"Ġtotalmente":3507,"ĠHÃ¡":3508,"ï¿½":3509,"elh":3510,"ficiÃªncia":3511,"Ġ2009":3512,"ht":3513,"ĠPedro":3514,"Ġfala":3515,"intes":3516,"Ġdelic":3517,"dia":3518,"Ġinternacional":3519,"ĠterÃ§a":3520,"Ġcategoria":3521,"Ġcrist":3522,"Ġla":3523,"Ġcomput":3524,"Ġfemin":3525,"Ġleva":3526,"all":3527,"olesc":3528,"Ġult":3529,"Ġcic":3530,"ames":3531,"ndere":3532,"Ġempreg":3533,"Ġagu":3534,"SO":3535,"itada":3536,"Ġsurg":3537,"Ġdicas":3538,"Ġpequeno":3539,"ĠquestÃµes":3540,"ĠTur":3541,"Ġdiminu":3542,"Ġcomem":3543,"ĠposiÃ§Ã£o":3544,"Ġevitar":3545,"aran":3546,"Ġamigo":3547,"Ġcomport":3548,"iquei":3549,"bio":3550,"Ġgrupos":3551,"ĠmudanÃ§a":3552,"Ãĵ":3553,"ET":3554,"Ġmostrar":3555,"ĠjurÃŃd":3556,"Ġordem":3557,"Ġinov":3558,"Ãºblica":3559,"Ġtentar":3560,"ĠavaliaÃ§Ã£o":3561,"ĠFer":3562,"isboa":3563,"Ġfundo":3564,"ĠmÃ¡qu":3565,"ificados":3566,"ĠSanto":3567,"Ġfamos":3568,"Ġaconteceu":3569,"ĠFre":3570,"Ġeduc":3571,"Ġeta":3572,"unt":3573,"Ġentrega":3574,"Ġfui":3575,"Ġsubstitu":3576,"Ġ[âĢ¦]":3577,"ĠSP":3578,"Ġconsult":3579,"Ġflo":3580,"Ġfundamental":3581,"Ġembora":3582,"ĠsoluÃ§Ã£o":3583,"ĠdiferenÃ§a":3584,"ala":3585,"Ġdiante":3586,"ence":3587,"ĠnegÃ³cios":3588,"ĠBr":3589,"Ġinterior":3590,"abo":3591,"logia":3592,"ĠdisponÃŃvel":3593,"Ġcelular":3594,"Ġdesses":3595,"Ġmotor":3596,"embros":3597,"omos":3598,"Ġvoltar":3599,"erar":3600,"Ġanunc":3601,"Ġbanh":3602,"ĠFund":3603,"Ġesfor":3604,"pp":3605,"??":3606,"Ġacontecer":3607,"Ġcaf":3608,"Ġlink":3609,"Ġexistem":3610,"PR":3611,"Ġsentir":3612,"Ġ=":3613,"estes":3614,"wn":3615,"Ġpalavra":3616,"Ġvale":3617,"ĠEssa":3618,"ĠEv":3619,"ebook":3620,"Ġori":3621,"undo":3622,"Ġweb":3623,"riga":3624,"Ġaquela":3625,"ĠCan":3626,"Ġvisto":3627,"Ġlegal":3628,"Ġama":3629,"25":3630,"ndas":3631,"loc":3632,"ĠvÃŃt":3633,"ĠdoenÃ§a":3634,"igre":3635,"cho":3636,"Ġtornar":3637,"Ġcompleta":3638,"ĠBras":3639,"Ġequipamentos":3640,"Ġameric":3641,"Ġcontar":3642,"enÃ§as":3643,"lhe":3644,"ĠEsse":3645,"ĠBo":3646,"Ġfech":3647,"Ġdeixa":3648,"ĠmanutenÃ§Ã£o":3649,"ĠDep":3650,"Ġnegoc":3651,"Ġrequ":3652,"itantes":3653,"Ġideal":3654,"Ġ29":3655,"Ġassum":3656,"ramos":3657,"roduÃ§Ã£o":3658,"ĠapresentaÃ§Ã£o":3659,".;":3660,"ĠSÃ³":3661,"Ġtempos":3662,"Ġabord":3663,"ĠelÃ©t":3664,"Ġcadas":3665,".-":3666,"into":3667,"ĠAf":3668,"entas":3669,"be":3670,"Ġvaria":3671,"Ġnorte":3672,"Ġsecret":3673,"ĠcontrÃ¡rio":3674,"ĠUS":3675,"ĠFrancisco":3676,"Ã£s":3677,"Ġvagas":3678,"Ġestudos":3679,"Ġperde":3680,"peonato":3681,"Ġescolher":3682,"rop":3683,"Ġigual":3684,"Ġprimeiros":3685,"ĠdireÃ§Ã£o":3686,"Ã¡r":3687,"ĠEns":3688,"itivos":3689,"Ġcoorden":3690,"Ġmateriais":3691,"Ġmedo":3692,"apa":3693,"ĠalcanÃ§":3694,"ĠPA":3695,"ĠutilizaÃ§Ã£o":3696,"Ġada":3697,"Ġhid":3698,"AlÃ©m":3699,"Ġaltern":3700,"Ġfix":3701,"Ġtorna":3702,"Ġconsumo":3703,"ĠTecn":3704,"Ġesco":3705,"Ġolhar":3706,"ĠtÃ©cnico":3707,"antil":3708,"Ġgosta":3709,"ront":3710,"Ġregul":3711,"cha":3712,"Ġnasc":3713,"ĠEscola":3714,"Gra":3715,"Ġbairro":3716,"ĠAgora":3717,"ĠSet":3718,"ago":3719,"ĠII":3720,"Ġpesquis":3721,"Ġsepara":3722,"ĠusuÃ¡rios":3723,"Ġanalis":3724,"ipo":3725,"Ġcasamento":3726,"ardim":3727,"ĠGoverno":3728,"Ġprofessores":3729,"ĠCamp":3730,"Ġpagar":3731,"Ġdando":3732,"Ġsistemas":3733,"Ġpraz":3734,"Ġincr":3735,"ĠPRO":3736,"ĠsÃ©culo":3737,"ego":3738,"etros":3739,"Ġescolh":3740,"Ġcusto":3741,"iamento":3742,"Ġqueria":3743,"TU":3744,"zes":3745,"CA":3746,"Ġexplic":3747,"ĠmÃ©to":3748,"Ġnovamente":3749,"Ġorigem":3750,"ĠLuc":3751,"22":3752,"ĠTambÃ©m":3753,"Ã³st":3754,"Ġnecessidades":3755,"Ġcompartilh":3756,"Ġceleb":3757,"var":3758,"ĠOu":3759,"ĠNot":3760,"ĠCivil":3761,"Ġenfrent":3762,"itou":3763,"leta":3764,"Ġobter":3765,"sto":3766,"Ġtransporte":3767,"Ġpoucos":3768,"Ġacad":3769,"ĠproteÃ§Ã£o":3770,"Ġconhecido":3771,"ans":3772,"Ġfilmes":3773,"estra":3774,"Ġcontrato":3775,"ĠpÃºblicos":3776,"Ġtalvez":3777,"Ġdesempenho":3778,"Ġbat":3779,"ĠmÃ©dico":3780,"US":3781,"Ġport":3782,"Ġpequena":3783,"Ġposso":3784,"Ġdetalhes":3785,"ĠLisboa":3786,"Ġalimentos":3787,"JÃ¡":3788,"ĠTÃ©cn":3789,"Ġlegisl":3790,"ug":3791,"oda":3792,"Ġrua":3793,"ramente":3794,"Ġquart":3795,"Ġefeitos":3796,"Ġgere":3797,"Ġlidera":3798,"til":3799,"itais":3800,"Ġmudar":3801,"ĠreferÃªncia":3802,"ĠPesso":3803,"rupo":3804,"Ġconclu":3805,"ÃŃr":3806,"ĠNorte":3807,"Ġseguida":3808,"Ġincluindo":3809,"Ġestas":3810,"Ġlat":3811,"logo":3812,"icro":3813,"ese":3814,"Ġplata":3815,"age":3816,"24":3817,"ĠSou":3818,"ĠBan":3819,"IO":3820,"Ġnaqu":3821,"ĠmudanÃ§as":3822,"ĠRepÃºblica":3823,"ilar":3824,"à¸":3825,"ĠParticip":3826,"Ġ01":3827,"Ġjulg":3828,"ĠInternacional":3829,"out":3830,"Ġchamado":3831,"ĠJu":3832,"Ġoferecer":3833,"Ġminhas":3834,"ĠTr":3835,"eda":3836,"Ġrecomend":3837,"Ġhumano":3838,"Ġleitura":3839,"Ao":3840,"Ġapl":3841,"ea":3842,"ĠmÃ¡ximo":3843,"ĠTodos":3844,"ĠFin":3845,"etes":3846,"Ġconce":3847,"ĠdisponÃŃveis":3848,"Ġfevereiro":3849,"Ġcandidato":3850,"Ġinstrum":3851,"Ã¡lia":3852,"Ġcarreira":3853,"Ġpec":3854,"orme":3855,"Ġigre":3856,"Ġmembros":3857,"Ġ2008":3858,"ĠcaracterÃŃsticas":3859,"Ġministro":3860,"zul":3861,"Ġinicial":3862,"Ġcontinuar":3863,"ĠnÃ£este":3864,"ĠBrasÃŃlia":3865,"Ġrespec":3866,"Ġcabelo":3867,"ĠAssociaÃ§Ã£o":3868,"Ġcompleto":3869,"Ġreserv":3870,"Ġganhar":3871,"arc":3872,"Ġdiretamente":3873,"Ġunidade":3874,"Ġpers":3875,"Ġbusc":3876,"ural":3877,"esas":3878,"Ġvos":3879,"Ġvc":3880,"Nos":3881,"Ġrele":3882,"Ġtempera":3883,"ĠvÃª":3884,"Ġinterpre":3885,"âĢĵ":3886,"ly":3887,"Ġaltura":3888,"ĠeletrÃ´n":3889,"ĠCert":3890,"Ġluta":3891,"Ġmec":3892,"idez":3893,"Ġdiscut":3894,"eses":3895,"ator":3896,"Ġperfe":3897,"ĠPortugu":3898,"Ġcaminh":3899,"Ġinspira":3900,"Ġsint":3901,"ĠvisÃ£o":3902,"ntem":3903,"Ġ31":3904,"ier":3905,"Ġpresentes":3906,"Ġlav":3907,"Ġendere":3908,"ĠrÃ¡pido":3909,"nÃ£o":3910,"presa":3911,"itÃ¡rio":3912,"60":3913,"ity":3914,"Ġliberdade":3915,"ĠDesenvolvimento":3916,"Ġtri":3917,"Ġpasse":3918,"ÃŃqu":3919,"Ġmodelos":3920,"ĠmÃ©dio":3921,"enciais":3922,"ĠEnsino":3923,"ĠIta":3924,"Ġmedidas":3925,"Ġboas":3926,"Ġremo":3927,"olÃ³gico":3928,"inÃ¡rio":3929,"Ġportanto":3930,"ĠinstituiÃ§Ãµes":3931,"Ġvolt":3932,"itude":3933,"Ġlou":3934,"Ġescolar":3935,"Ġgal":3936,"Ġsustent":3937,"respo":3938,"ĠOri":3939,"Ġdigital":3940,"Ġprefeito":3941,"Ġmelhorar":3942,"Ã¡dio":3943,"Ġflu":3944,"ĠGestÃ£o":3945,"Ġaumentar":3946,"Ġpartes":3947,"ogle":3948,"ĠpÃ©":3949,"ĠHum":3950,"Ġlojas":3951,"Ġconsequ":3952,"ĠfÃŃsica":3953,"ĠÃ¡l":3954,"Ġy":3955,"itiva":3956,"zinho":3957,"Ġcontem":3958,"ĠexercÃŃcio":3959,"Ġbot":3960,"ĠdÃºvida":3961,"Ġdema":3962,"Ġchega":3963,"turas":3964,"ĠBrasileira":3965,"Ġfranc":3966,"Ġassin":3967,"Ġvant":3968,"izados":3969,"ĠCur":3970,"Ġnut":3971,"Ġpet":3972,"Ġpsic":3973,"ĠBrasileiro":3974,"Ġpraia":3975,"ĠMuito":3976,"uldades":3977,"Ġpartida":3978,"ile":3979,"ĠAN":3980,"rativa":3981,"ariamente":3982,"ENTO":3983,"CIA":3984,"Ġsug":3985,"Ġadolesc":3986,"Ġescolas":3987,"Ġaprender":3988,"ĠESTES":3989,"Ġdemoc":3990,"Ġacus":3991,"Ġimpre":3992,"Ġocas":3993,"Ġdocumento":3994,"Ã©tico":3995,"ĠmÃŃnimo":3996,"Ã³dio":3997,"Ġconcent":3998,"Ġtemporada":3999,"diÃ§Ã£o":4000,"th":4001,"ĠPS":4002,"Ġhotel":4003,"Ġglob":4004,"Ġbio":4005,"Ġprogramas":4006,"Ġprem":4007,"Ġorg":4008,"Ġcontas":4009,"DB":4010,"irÃ¡":4011,"Out":4012,"ĠoperaÃ§Ã£o":4013,"Â°":4014,"Ġvendas":4015,"Ġsomos":4016,"tware":4017,"ĠDom":4018,"ĠâĢ¦":4019,"Ġconsegue":4020,"Ġreais":4021,"Ġsede":4022,"Ġconsid":4023,"ĠSua":4024,"dora":4025,"Ġexib":4026,"porta":4027,"AP":4028,"Ġfigu":4029,"ĠQuem":4030,"Ġseguintes":4031,"ĠEles":4032,"Ġexplica":4033,"Ġparticular":4034,"eria":4035,"ry":4036,"ocar":4037,"Ġ197":4038,"Ġadvog":4039,"Ġdisponibiliz":4040,"Ġmotivo":4041,"ussÃ£o":4042,"ĠDan":4043,"Ġhumanos":4044,"Ġhon":4045,"Ġusado":4046,"ulado":4047,"rida":4048,"ĠbenefÃŃcios":4049,"Ġcontrol":4050,"ĠAra":4051,"Ġsorte":4052,"Ġdivid":4053,"Ġpopular":4054,"cr":4055,"Ġcrime":4056,"Ġsimplesmente":4057,"ĠAdministraÃ§Ã£o":4058,"ĠopiniÃ£o":4059,"Ġelementos":4060,"Ġtamanho":4061,"pla":4062,"Ġutilizar":4063,"gio":4064,"ĠGe":4065,"Ġcentral":4066,"Ġnota":4067,"Ġbanda":4068,"Ġmetros":4069,"omb":4070,"Ġtaxa":4071,"ĠreduÃ§Ã£o":4072,"Ã¡tis":4073,"ĠUniÃ£o":4074,"Ġtirar":4075,"Ġelabora":4076,"ologias":4077,"ĠpolÃŃticas":4078,"ecut":4079,"ĠIt":4080,"ĠSistema":4081,"Ġtare":4082,"ĠPat":4083,"gares":4084,"Ġmundial":4085,"Ġurb":4086,"ĠpoderÃ£o":4087,"Ġinteressante":4088,"ĠAmÃ©rica":4089,"ĠLeg":4090,"Ġ*":4091,"Ġrecebeu":4092,"ĠsituaÃ§Ãµes":4093,"Ġato":4094,"tÃ³rio":4095,"rais":4096,"Ġesquer":4097,"Ġatribu":4098,"Ġcargo":4099,"Ġfonte":4100,"Ġmesmos":4101,"rique":4102,"Ġverm":4103,"Ġfilha":4104,"Ġdeixou":4105,"ĠcartÃ£o":4106,"aÃ§os":4107,"Ġ80":4108,"ĠÃ¡r":4109,"ĠmatÃ©ria":4110,"Ġquil":4111,"Ġbra":4112,"rÃ³":4113,"ocidade":4114,"Ġveio":4115,"nsa":4116,"Ġarm":4117,"Ġce":4118,"Ġfederal":4119,"ĠEuropa":4120,"ĠcientÃŃf":4121,"ĠLula":4122,"Ġdessas":4123,"ograf":4124,"ĠPrefeitura":4125,"Ġtroca":4126,"ĠinglÃªs":4127,"Ġoriginal":4128,"Ġbac":4129,"ĠRodri":4130,"ĠfaÃ§a":4131,"Ġlonge":4132,"Ġnam":4133,"Ġhouve":4134,"Ġvivo":4135,"dust":4136,"ĠlanÃ§amento":4137,"Ġbenefic":4138,"Ġestiver":4139,"ĠtÃ©cnicas":4140,"ÃŃngua":4141,"ĠPrim":4142,"ncio":4143,"Ġmensagem":4144,"itores":4145,"Ġintelig":4146,"Ġcorrespo":4147,"ĠInform":4148,"ĠOliv":4149,"Ġprec":4150,"ĠreuniÃ£o":4151,"vas":4152,"Ġ>":4153,"ĠdÃºvidas":4154,"Ġcrise":4155,"Ġcompl":4156,"ĠIl":4157,"ĠDist":4158,"Ġregras":4159,"ĠsoluÃ§Ãµes":4160,"Ãªmio":4161,"ÃŃdos":4162,"Ġach":4163,"ner":4164,"ĠfuncionÃ¡rios":4165,"ĠveÃŃculos":4166,"ĠEcon":4167,"Ġestudantes":4168,"ĠInc":4169,"Ġsil":4170,"Ġtrib":4171,"ĠclÃ¡ss":4172,"Ġquere":4173,"Ġtranqu":4174,"isto":4175,"Ġatender":4176,"Ġcontinua":4177,"Ġaparel":4178,"Ġdiscipl":4179,"Ġescrito":4180,"Ġpint":4181,"Ġmassa":4182,"____":4183,"Ġunidades":4184,"ficial":4185,"ĠusuÃ¡rio":4186,"guas":4187,"ĠConstitu":4188,"40":4189,"ĠMus":4190,"hÃ£o":4191,"plem":4192,"ĠComissÃ£o":4193,"ĠdistÃ¢ncia":4194,"Ġrefor":4195,"inham":4196,"Ġnar":4197,"ĠCruz":4198,"riu":4199,"ĠcrÃ©dito":4200,"Ġdelas":4201,"iaÃ§Ãµes":4202,"ferir":4203,"ĠTudo":4204,"ĠBe":4205,"Ġextrem":4206,"Ġacaba":4207,"onte":4208,"ĠcomentÃ¡rios":4209,"ĠCosta":4210,"Ġacresc":4211,"ĠGrupo":4212,"Ġband":4213,"ÃŃlias":4214,"Ġnave":4215,"ĠpolÃŃtico":4216,"Ġocorr":4217,"ĠCopa":4218,"ĠDef":4219,"Ġbeleza":4220,"Ġnao":4221,"DA":4222,"Ġentrevista":4223,"ĠTerra":4224,"ĠcafÃ©":4225,"orda":4226,"Ġpud":4227,"Ġfru":4228,"ong":4229,"Ġdivert":4230,"23":4231,"Ġblo":4232,"Ġclara":4233,"ĠCria":4234,"Ġjud":4235,"Ã©re":4236,"olÃ³gica":4237,"ĠRa":4238,"Ġquiser":4239,"Ã©rios":4240,"Ġpotencial":4241,"ibl":4242,"Ġdesenvolver":4243,"Ġtemas":4244,"Ġmarketing":4245,"ĠMarc":4246,"jud":4247,"itados":4248,"aco":4249,"ĠHoje":4250,"Ġseguro":4251,"Ġfeitas":4252,"Ġseg":4253,"Ġlugares":4254,"ÃŃamos":4255,"Ġmanifesta":4256,"Ġbasta":4257,"IP":4258,"Ġlet":4259,"Â£":4260,"cao":4261,"Ġarre":4262,"ĠPaÃŃs":4263,"ĠApÃ³s":4264,"Ġaquilo":4265,"Ġmoda":4266,"Ġtenham":4267,"AB":4268,"Ġelim":4269,".,":4270,"rol":4271,"esmo":4272,"aso":4273,"ĠRos":4274,"Ġdeveria":4275,"Ġzona":4276,"Ġsuje":4277,"Ġkm":4278,"Ġcasas":4279,"Ġleve":4280,"xto":4281,"Ġexat":4282,"ĠgeraÃ§Ã£o":4283,"ervaÃ§Ã£o":4284,"Ġacha":4285,"Ã©ia":4286,"Ġtrabalhadores":4287,"ixo":4288,"ĠcÃ¢":4289,"vest":4290,"Ġoportun":4291,"ragem":4292,"Ġartes":4293,"Ġacabou":4294,"ĠrelaÃ§Ãµes":4295,"inÃ¡ria":4296,"Ġclube":4297,"ĠpeÃ§a":4298,"Ġantec":4299,"Ġconseguiu":4300,"ÃŃder":4301,"Ã¢ncias":4302,"qÃ¼":4303,"missÃ£o":4304,"ĠEUA":4305,"Ġexce":4306,"ĠMel":4307,"28":4308,"mete":4309,"ĠÃŃnd":4310,"Ġindust":4311,"Ġbanco":4312,"Ġemprego":4313,"ĠCiÃªncias":4314,"Ġpropriedade":4315,"Ġespeciais":4316,"Ġaulas":4317,"ĠportuguÃªs":4318,"Ġesteja":4319,"ĠEM":4320,"ĠGlob":4321,"ieta":4322,"Ġestiv":4323,"Ġemoc":4324,"Ġexpec":4325,"Ġdepe":4326,"ĠseleÃ§Ã£o":4327,"Ġganho":4328,"ĠLuiz":4329,"ĠPresidente":4330,"Ġmente":4331,"Ġintens":4332,"Ġconcurso":4333,"Ã¡ticos":4334,"Ġconceito":4335,"ata":4336,"ĠadministraÃ§Ã£o":4337,"ĠpÃºblicas":4338,"Ġmistura":4339,"ÃŃduos":4340,"Ġ;":4341,"Ġnormal":4342,"ÃŃbl":4343,"ĠavanÃ§":4344,"Ġpacientes":4345,"Ġlingu":4346,"Ġsul":4347,"Ġtornou":4348,"antos":4349,"Ġjogadores":4350,"Ġabertura":4351,"ĠÐ":4352,"ĠpadrÃ£o":4353,"Ġvoc":4354,"Ġdro":4355,"criÃ§Ãµes":4356,"Ġgo":4357,"Ġtelefone":4358,"ĠDel":4359,"Ġcerta":4360,"riÃ§Ã£o":4361,"Ġtive":4362,"Ġescreve":4363,"ĠfÃ³r":4364,"emia":4365,"ĠviolÃªncia":4366,"ĠMart":4367,"ĠIng":4368,"Cont":4369,"Ġinvestimento":4370,"ÃŃb":4371,"ĠvitÃ³ria":4372,"Ġ70":4373,"ĠVila":4374,"ĠveÃŃculo":4375,"irar":4376,"Ġexperim":4377,"Ġpersonagens":4378,"Esta":4379,"ĠCast":4380,"eremos":4381,"Ġaula":4382,"Ã§amento":4383,"iba":4384,"Ġconfigu":4385,"Ġregistro":4386,"identes":4387,"ĠatuaÃ§Ã£o":4388,"Ġcivil":4389,"ĠMag":4390,"ega":4391,"Ġpequenos":4392,"orge":4393,"Ġconden":4394,"itual":4395,"usÃ£o":4396,"ĠMund":4397,"Ġpreenc":4398,"olis":4399,"ĠCongresso":4400,"ĠcenÃ¡rio":4401,"Ġrestaura":4402,"Ġvide":4403,"ĠÃį":4404,"Ġmarcas":4405,"udio":4406,"Ġbrinc":4407,"Ġdeputado":4408,"DI":4409,"abe":4410,"ĠAtÃ©":4411,"Ġvoz":4412,"Ġouvir":4413,"ndom":4414,"Ġsatisf":4415,"edes":4416,"Ġ)":4417,"Ġprecisam":4418,"Ġcac":4419,"emÃ¡tica":4420,"ĠMont":4421,"ĠMinas":4422,"ĠBl":4423,"ĠfamÃŃlias":4424,"Ã³gica":4425,"Ġparticipantes":4426,"Ass":4427,"Ġiniciativa":4428,"entador":4429,"Ġabrir":4430,"Ġcruz":4431,"edades":4432,"29":4433,"Ġmeta":4434,"26":4435,"Ġ90":4436,"ĠprogramaÃ§Ã£o":4437,"Ġmorre":4438,"ation":4439,"Ġterceiro":4440,"ki":4441,"Ġ2007":4442,"ĠVol":4443,"Ġrod":4444,"Ġdet":4445,"Depois":4446,"Ġsignific":4447,"Ġfar":4448,"%.":4449,"culo":4450,"ĠOliveira":4451,"ĠbilhÃµes":4452,"alo":4453,"Ġsites":4454,"ĠDr":4455,"ĠMundo":4456,"ĠFacebook":4457,"Ġluc":4458,"ĠEngenharia":4459,"Ġrenda":4460,"Ġperda":4461,"Ġcasal":4462,"Ġexpecta":4463,"ĠRel":4464,"ĠNatal":4465,"Ġpersonagem":4466,"ĠSan":4467,"ĠnÃŃveis":4468,"ĠPaul":4469,"ilho":4470,"Ġressal":4471,"Ġespir":4472,"Ġabsol":4473,"ĠprÃ¡ticas":4474,"Ġentra":4475,"letas":4476,"Ġpossam":4477,"Ġjeito":4478,"Ġlevant":4479,"Ġsequ":4480,"ber":4481,"rativo":4482,"ail":4483,"Ġpossuem":4484,"ĠCorre":4485,"utar":4486,"ĠPas":4487,"Ġpartido":4488,"27":4489,"Ġcandidatos":4490,"rial":4491,"2017":4492,"Ġpisc":4493,"Ã³lica":4494,"ĠGoogle":4495,"ĠexistÃªncia":4496,"Ġvelocidade":4497,"iblio":4498,"ĠdoenÃ§as":4499,"ografia":4500,"Ġtrazer":4501,"iverso":4502,"Ġfornec":4503,"Ġcuidado":4504,"Ġequil":4505,"ÃŃlio":4506,"Ġprazer":4507,"olh":4508,"Ã¡stico":4509,"uar":4510,"Ġsurpre":4511,"alh":4512,"Ġsuspe":4513,"bilidade":4514,"Ġchamada":4515,"Ġnomes":4516,"Ġescrever":4517,"Ġsor":4518,"Ã¢nica":4519,"inada":4520,"porto":4521,"Ġtua":4522,"plic":4523,"ende":4524,"vos":4525,"Ġcomer":4526,"ĠindÃºstria":4527,"Ġempreend":4528,"21":4529,"ĠOn":4530,"tica":4531,"ĠVale":4532,"Ġcaixa":4533,"Ġparec":4534,"Ġincent":4535,"ĠPesqu":4536,"Ã¢nt":4537,"Ġsexual":4538,"ĠEspecial":4539,"Ġbaixa":4540,"adoras":4541,"Ġcai":4542,"onas":4543,"Ġdeseja":4544,"ĠalimentaÃ§Ã£o":4545,"Ġtiver":4546,"ĠFernando":4547,"ĠestarÃ¡":4548,"Ã§am":4549,"Ġlog":4550,"Ġutilizado":4551,"Ġcanto":4552,"Ġbons":4553,"ĠinstituiÃ§Ã£o":4554,"sia":4555,"Ġsangue":4556,"ĠOp":4557,"Ã³sito":4558,"Ġreceita":4559,"Ġatend":4560,"ĠBahia":4561,"ĠCP":4562,"ĠInte":4563,"ĠPode":4564,"Ġdestino":4565,"Ġtradicional":4566,"ĠCN":4567,"Ġideias":4568,"EG":4569,"08":4570,"Ġprom":4571,"Ġmesa":4572,"Ġsete":4573,"estrutura":4574,"Ac":4575,"ndos":4576,"abil":4577,"Ġprodut":4578,"bora":4579,"Ġimped":4580,"Ġdado":4581,"ĠSam":4582,"ĠpressÃ£o":4583,"ivel":4584,"ale":4585,"Ġabando":4586,"09":4587,"Ġepis":4588,"Ġlinda":4589,"Ġregular":4590,"ĠNÂº":4591,"onia":4592,"iscos":4593,"Ġcompanhia":4594,"ĠvÃŃdeos":4595,"ĠInternet":4596,"Ġrecebe":4597,"icina":4598,"Ġbater":4599,"Ġquestion":4600,"eixe":4601,"ĠPT":4602,"ĠRua":4603,"Ġexatamente":4604,"At":4605,"conc":4606,"Ã¡cio":4607,"ĠÂ»":4608,"jec":4609,"05":4610,"DE":4611,"Ġred":4612,"ĠAmaz":4613,"Ġdestaque":4614,"Ġestrang":4615,"rior":4616,"Ġher":4617,"Ġessencial":4618,"Ġescla":4619,"tivos":4620,"ĠVeja":4621,"ĠEstadual":4622,"ĠCha":4623,"ode":4624,"ini":4625,"Ġcomportamento":4626,"org":4627,"ÃĬ":4628,"ĠinstalaÃ§Ã£o":4629,"ĠÃ¢mb":4630,"itet":4631,"eiramente":4632,"veu":4633,"Ġontem":4634,"ĠCe":4635,"Ġrecurso":4636,"Ġtela":4637,"ĠSuperior":4638,"Ġfoco":4639,"Ġpromover":4640,"Ġhomen":4641,"Ġcult":4642,"Ġcompletamente":4643,"grÃ¡f":4644,"ĠendereÃ§o":4645,"Ġhumana":4646,"ĠAng":4647,"Ãºn":4648,"SC":4649,"uncia":4650,"ĠexecuÃ§Ã£o":4651,"Ġimplem":4652,"Ġshow":4653,"ĠFe":4654,"Ġcompos":4655,"Ġsel":4656,"ĠBas":4657,"Ġquartos":4658,"07":4659,"iliares":4660,"Ġvolume":4661,"Ġartigos":4662,"ĠTal":4663,"sou":4664,"Tra":4665,"tion":4666,"Ele":4667,"Ġargum":4668,"unda":4669,"Ġleite":4670,"ĠespÃ©cie":4671,"Ġjorn":4672,"ĠMundial":4673,"ĠpÃ³s":4674,"ĠexposiÃ§Ã£o":4675,"Ġenvolv":4676,"ĠCrist":4677,"ĠProjeto":4678,"just":4679,"Ġhabil":4680,"use":4681,"Ġdestru":4682,"Ġcultural":4683,"Ġpaz":4684,"Ġencam":4685,"Ġdificuldades":4686,"rece":4687,"UR":4688,"ĠCOM":4689,"06":4690,"Ġmicro":4691,"eca":4692,"Ġsonho":4693,"ĠSeu":4694,"Ġfunciona":4695,"ĠÃ´":4696,"HÃ¡":4697,"Ġreclam":4698,"ĠmissÃ£o":4699,"Ġrevista":4700,"Ġsuficiente":4701,"Ġilum":4702,"VA":4703,"Ġcomputador":4704,"ĠAB":4705,"Ġfogo":4706,"Ġdesej":4707,"ĠTom":4708,"ÃŃstico":4709,"hn":4710,"ĠEscol":4711,"ĠNeste":4712,"Ġrepet":4713,"Ã§ado":4714,"Ġconforto":4715,"ĠfunÃ§Ãµes":4716,"En":4717,"estrado":4718,"tualmente":4719,"ĠcÃ¢m":4720,"Ġbens":4721,"ĠMerc":4722,"Ġexpress":4723,"Ġenorme":4724,"Ġplataforma":4725,"Ġge":4726,"ĠMunicÃŃp":4727,"ven":4728,"ificaÃ§Ãµes":4729,"Ġclasse":4730,"fere":4731,"Ġmaravilh":4732,"Ġlocalizado":4733,"ĠespaÃ§os":4734,"ĠHor":4735,"elizmente":4736,"Ġsup":4737,"Ġpessoais":4738,"ĠpublicaÃ§Ã£o":4739,"ĠPÃºblica":4740,"Ġficam":4741,"ĠRib":4742,"rupÃ§Ã£o":4743,"Ġsusp":4744,"ĠhorÃ¡rio":4745,"ĠmunicÃŃpios":4746,"MS":4747,"Ġbara":4748,"aixon":4749,"ÃŃdia":4750,"ĠPorÃ©m":4751,"ĠPos":4752,"ĠprÃ³ximos":4753,"%,":4754,"Ġcustos":4755,"Ġconduz":4756,"Ġvaz":4757,"grafo":4758,"ĠprisÃ£o":4759,"Ġdiferenc":4760,"Ġigreja":4761,"Ġfel":4762,"Ġandar":4763,"ĠParticipaÃ§Ã£o":4764,"Ã¢ns":4765,"ĠFaz":4766,"www":4767,"ĠRoc":4768,"ÃŃnc":4769,"utas":4770,"ĠHosp":4771,"ibus":4772,"Ġst":4773,"igas":4774,"Ġetapa":4775,"itÃ¡ria":4776,"ĠeleiÃ§Ãµes":4777,"Ġfuncionamento":4778,"ĠPont":4779,"icando":4780,"Ġtorno":4781,"ĠGr":4782,"Ġgostaria":4783,"Ġwww":4784,"Ġdesejo":4785,"Ġvere":4786,"ĠconfianÃ§a":4787,"Art":4788,"ualmente":4789,"Ġadicion":4790,"Ġment":4791,"Ġalegria":4792,"ĠSeguranÃ§a":4793,"inados":4794,"Ġganha":4795,"Ġselecion":4796,"tividade":4797,"bit":4798,"Ġcarta":4799,"Ġsubst":4800,"03":4801,"Ġquerem":4802,"Ġbanca":4803,"IT":4804,"Ġambos":4805,"Ġdin":4806,"umb":4807,".[":4808,"Ġsenhor":4809,"Ġvice":4810,"ncer":4811,"ĠðŁ":4812,"issÃµes":4813,"lig":4814,"Ġqueda":4815,"ĠsaÃŃda":4816,"ĠServiÃ§os":4817,"Ġconsiderado":4818,"Ġverde":4819,"HO":4820,"leia":4821,"arial":4822,"PA":4823,"CE":4824,"Ġdesper":4825,"Ġcurios":4826,"Ġeng":4827,"Ġjogar":4828,"itamente":4829,"ĠâĢ¢":4830,"Ġdiagn":4831,"enhora":4832,"ĠhistÃ³rias":4833,"irem":4834,"ĠgÃªn":4835,"Ġpedir":4836,"Ġrenov":4837,"unicaÃ§Ã£o":4838,"nas":4839,"ilizaÃ§Ã£o":4840,"Ġveg":4841,"ĠNeg":4842,"entado":4843,"ĠUF":4844,"ĠMod":4845,"Ġarmaz":4846,"Ġprovas":4847,"ĠST":4848,"entando":4849,"45":4850,"empre":4851,"Ġconsol":4852,"endas":4853,"Ġclique":4854,"ĠpolÃŃcia":4855,"istir":4856,"ti":4857,"Ã¢nsito":4858,"stru":4859,"ĠalteraÃ§Ãµes":4860,"----------------":4861,"Ġimprensa":4862,"ĠlÃŃder":4863,"ania":4864,"Ġsemanas":4865,"Ġsegue":4866,"oque":4867,"Ġjogador":4868,"iÃ¡ria":4869,"Ġviu":4870,"eratura":4871,"Ġ35":4872,"Ġroub":4873,"Ġatualmente":4874,"Ġguerra":4875,"Ġavent":4876,"PE":4877,"gada":4878,"inais":4879,"Ġquadro":4880,"Ġcompras":4881,"Ġregime":4882,"Ġpequenas":4883,"Ġsaf":4884,"Ġformato":4885,"Ġhospital":4886,"SS":4887,"ApÃ³s":4888,"Ġinser":4889,"Ġdepend":4890,"uno":4891,"Ġlimp":4892,"erÃ¡":4893,"uls":4894,"ĠjustiÃ§a":4895,"Ġferramenta":4896,"Mais":4897,"hares":4898,"ĠQual":4899,"Ġfizeram":4900,"hat":4901,"Ġapartamento":4902,"ĠcrÃŃt":4903,"ĠpÃ©s":4904,"ÃŃtulos":4905,"Â²":4906,"ĠÃ¢mbito":4907,"ĠGerais":4908,"rico":4909,"Ġtinham":4910,"Ġmad":4911,"mina":4912,"Ġafet":4913,"ulgar":4914,"sonaro":4915,"culos":4916,"ĠexperiÃªncias":4917,"Ġoito":4918,"Ġtira":4919,"99":4920,"ĠlocalizaÃ§Ã£o":4921,"ĠAqu":4922,"racia":4923,"Ã¢nico":4924,"Ġpretende":4925,"Ġrio":4926,"esÃ£o":4927,"ates":4928,"DU":4929,"ĠAbr":4930,"Ġbranco":4931,"ĠDiv":4932,"Ġmodern":4933,"ĠMon":4934,"rg":4935,"ĠVi":4936,"ĠmemÃ³ria":4937,"Ġescrit":4938,"Ġazul":4939,"ĠIns":4940,"Ġaspectos":4941,"Ġperfeito":4942,"ps":4943,"rs":4944,"Ġfortal":4945,"ÃŃdas":4946,"Ġsaiba":4947,"Ġtiveram":4948,"Ġferramentas":4949,"Ġretira":4950,"Ġobjetivos":4951,"Ġajust":4952,"ĠEspÃŃrito":4953,"Ġrelacionamento":4954,"ĠPen":4955,"Ġbreve":4956,"itora":4957,"Ġcanal":4958,"Ġambiental":4959,"ĠfÃ©rias":4960,"Ġruas":4961,"ĠÃ´n":4962,"Ġinfra":4963,"americ":4964,"Ġnaturais":4965,"ĠBanco":4966,"ii":4967,"ash":4968,"Ġimposs":4969,"ĠLoc":4970,"Ġlembrar":4971,"hone":4972,"Ġveja":4973,"Ġsuporte":4974,"ĠdistribuiÃ§Ã£o":4975,"RAN":4976,"Ġ?":4977,"orado":4978,"ĠprÃ³prios":4979,"ĠCÃ³digo":4980,"Ġdan":4981,"Ġtit":4982,"ĠAL":4983,"guns":4984,"ĠcondiÃ§Ã£o":4985,"osco":4986,"04":4987,"Ġdesenh":4988,"Ġperfil":4989,"ADE":4990,"ĠcomentÃ¡rio":4991,"ĠBel":4992,"entares":4993,"ĠEdu":4994,"ĠgrÃ¡tis":4995,"Ġadap":4996,"Ġitens":4997,"Ġobjeto":4998,"Ġfalando":4999,"ĠpromoÃ§Ã£o":5000,"ui":5001,"ĠCaso":5002,"Ġsabia":5003,"tim":5004,"Ġabra":5005,"Co":5006,"ĠnÃºmeros":5007,"Ġacompanha":5008,"ĠNÃ³s":5009,"Ġtermo":5010,"Ġprior":5011,"Ġcontexto":5012,"ilhÃ£o":5013,"cont":5014,"ĠSho":5015,"erante":5016,"Ġconhecida":5017,"Ġgl":5018,"presidente":5019,"ĠNew":5020,"ĠCentral":5021,"Ã©st":5022,"Ġpassando":5023,"uel":5024,"Ġ02":5025,"ĠForm":5026,"Ġsinal":5027,"Ġaluno":5028,"ĠAuto":5029,"Pre":5030,"ĠanÃº":5031,"ĠDem":5032,"ĠMal":5033,"Ġpassagem":5034,"bre":5035,"):":5036,"Ġdeixando":5037,"Ġbola":5038,"Ġpior":5039,"ĠGal":5040,"Ġviz":5041,"ĠMac":5042,"ĠpÃ¡ginas":5043,"Ġassegu":5044,"ĠrÃ¡pida":5045,"anal":5046,"Ã¡cia":5047,"Ã³m":5048,"GraduaÃ§Ã£o":5049,"ĠHistÃ³ria":5050,"2015":5051,"Ġoportunidades":5052,"ĠcompetiÃ§Ã£o":5053,"Ġvaga":5054,"Ġextremamente":5055,"ĠSh":5056,"rag":5057,"Ġmeios":5058,"ĠtrÃ¡s":5059,"Ġcuidados":5060,"ĠRegional":5061,"Ġinternacionais":5062,"iros":5063,"bro":5064,"Ġapaixon":5065,"Ġcarros":5066,"ĠcÃ³digo":5067,"Ġamar":5068,"Ġcolo":5069,"Ġcomigo":5070,"Ġpergunta":5071,"ĠsessÃ£o":5072,"ĠconsciÃªncia":5073,"ĠdecoraÃ§Ã£o":5074,"uva":5075,"Ġboca":5076,"Ġaparece":5077,"Ġproib":5078,"Ġaberto":5079,"Ġhuman":5080,"Ã©rias":5081,"ĠpolÃŃticos":5082,"EST":5083,"Ġcriado":5084,"comp":5085,"Ġimpacto":5086,"ep":5087,"Ġcontou":5088,"alizados":5089,"Ġplanos":5090,"ĠOficial":5091,"IB":5092,"ĠDoc":5093,"ĠWeb":5094,"acidade":5095,"urament":5096,"tudo":5097,"Ġfran":5098,"Ġprefer":5099,"yl":5100,"Ġpesquisas":5101,"ĠsaudÃ¡vel":5102,"Ġreforma":5103,"esto":5104,"ĠPR":5105,"ofia":5106,"Ġ2006":5107,"erap":5108,"Ġmeia":5109,"Ã´nica":5110,"Ġcinema":5111,"dem":5112,"elhos":5113,"Ġadm":5114,"Ġaus":5115,"Ġmarido":5116,"Ġbanho":5117,"ĠTecnologia":5118,"teis":5119,"ĠRoberto":5120,"ĠregiÃµes":5121,"hando":5122,"ĠdisposiÃ§Ã£o":5123,"Ġconfl":5124,"Ġpan":5125,"Ġcad":5126,"Ã©n":5127,"ĠvÃ¡l":5128,"Ġpaciente":5129,"roduz":5130,"acia":5131,"Ġlindo":5132,"Ġreflex":5133,"Ġconced":5134,"cular":5135,"ĠNovembro":5136,"Ġreb":5137,"istem":5138,"Ġdeixe":5139,"ĠCidade":5140,"Ġlevou":5141,"ĠBen":5142,"Ġambientes":5143,"Ġservidores":5144,"ĠprincÃŃpio":5145,"Ġcomplem":5146,"odas":5147,"AT":5148,"Ġrapidamente":5149,"ick":5150,"ĠDi":5151,"gent":5152,"Ġlin":5153,"Ġalma":5154,"Ãºc":5155,"ĠNossa":5156,"rup":5157,"OlÃ¡":5158,"Ġresid":5159,"Ġadqu":5160,"ĠBolsonaro":5161,"reno":5162,"ĠFaculdade":5163,"Ġresponder":5164,"Ġteu":5165,"ĠAbril":5166,"Ġrealizadas":5167,"Ġumas":5168,"ĠBal":5169,"ĠexpressÃ£o":5170,"Ġfiquei":5171,"Ġ196":5172,"Ġroupas":5173,"anhas":5174,"xe":5175,"Ġmob":5176,"ĠAlex":5177,"ĠJa":5178,"ĠestratÃ©gia":5179,"Ġvisual":5180,"arei":5181,"Hoje":5182,"lay":5183,"embleia":5184,"Ã©ns":5185,"ĠÃ³leo":5186,"Ġven":5187,"tod":5188,"atÃ³ria":5189,"Ġtemperatura":5190,"ĠÃ³tima":5191,"Ġconsigo":5192,"Ġpraticamente":5193,"ĠÃ³rgÃ£os":5194,"ĠInter":5195,"ĠOutubro":5196,"Ġdesafio":5197,"ĠEncont":5198,"rog":5199,"Ġcampe":5200,"Ġdificuldade":5201,"ĠlÃŃngua":5202,"estar":5203,"Ġprejud":5204,"itoral":5205,"Ġprevis":5206,"Ġlinhas":5207,"vante":5208,"iosos":5209,"Ġplanejamento":5210,"ĠlegislaÃ§Ã£o":5211,"ĠmÃ¡quina":5212,"Ġpad":5213,"Ġdestes":5214,"ĠAna":5215,"ĠaÃ§":5216,"Ġdesap":5217,"Ġcura":5218,"omes":5219,"ĠMaio":5220,"Ġcomida":5221,"ultos":5222,"Ġerro":5223,"ĠinscriÃ§Ã£o":5224,"ĠinvestigaÃ§Ã£o":5225,"Ġestat":5226,"Ãķ":5227,"Entre":5228,"ĠPere":5229,"umes":5230,"rato":5231,"Ġprocedimento":5232,"ĠHot":5233,"ances":5234,"isse":5235,"arec":5236,"Ġnormas":5237,"itaÃ§Ãµes":5238,"Ġfatores":5239,"ĠFranÃ§a":5240,"ĠPC":5241,"Foi":5242,"ĠclÃŃn":5243,"Ġjuntos":5244,"ĠAlb":5245,"omas":5246,"erado":5247,"Ġesquerda":5248,"udes":5249,"90":5250,"Ġfa":5251,"ĠnotÃŃcias":5252,"Ġembal":5253,"urgia":5254,"Ġbuscar":5255,"ĠAleg":5256,"ĠresponsÃ¡veis":5257,"Ġprocedimentos":5258,"Ġcompromisso":5259,"ka":5260,"ĠhistÃ³rico":5261,"ibliotec":5262,"Ġsemelha":5263,"Ġtratar":5264,"ĠmÃºsicas":5265,"Ġouvi":5266,"Ġans":5267,"Ġconstante":5268,"Ã¢mica":5269,"Ġpun":5270,"Ġencaminh":5271,"Ġalmo":5272,"Esse":5273,"Ġfins":5274,"ĠresistÃªncia":5275,"ĠHen":5276,"reia":5277,"ĠÃ¡lb":5278,"ĠGab":5279,"Ġverdadeiro":5280,"Ġcanc":5281,"Ġconquist":5282,"IF":5283,"ĠoperaÃ§Ãµes":5284,"ismos":5285,"2016":5286,"nÃ¡":5287,"ĠHom":5288,"ĠSab":5289,"Ġevent":5290,"ĠterÃ£o":5291,"Ġgeralmente":5292,"vent":5293,"ÃŃna":5294,"Ob":5295,"Ġmetade":5296,"ĠdÃ©cada":5297,"Ġprofund":5298,"Ġrosto":5299,"hada":5300,"Ġeuro":5301,"ĠFut":5302,"Ġacredita":5303,"ENT":5304,"rina":5305,"ĠMul":5306,"ĠLat":5307,"ĠevoluÃ§Ã£o":5308,"Ġtu":5309,"land":5310,"Ġestadual":5311,"Ġinfer":5312,"Ġjuros":5313,"Ġacompanhar":5314,"pping":5315,"Ġfamiliar":5316,"ĠOrgan":5317,"ĠvÃŃtima":5318,"ĠHospital":5319,"pero":5320,"cl":5321,"ĠquÃŃm":5322,"Ġresolver":5323,"Ġadvers":5324,"vador":5325,"Ġtextos":5326,"Ġsoftware":5327,"ederaÃ§Ã£o":5328,"Ġconversa":5329,"Ġgarantia":5330,"Ġpubl":5331,"ĠmÃ©todo":5332,"RIO":5333,"Ġlonga":5334,"Ġaproximadamente":5335,"Ã¢nea":5336,"Ġfuncional":5337,"ĠÃ³rgÃ£o":5338,"guei":5339,"Ã³polis":5340,"Ġdescobrir":5341,"Ġmotiv":5342,"plos":5343,"Ġeconom":5344,"ĠÃ´nibus":5345,"istro":5346,"Ġtoque":5347,"ĠincrÃŃvel":5348,"arina":5349,"Ã¡f":5350,"ife":5351,"ĠSetembro":5352,"ndomÃŃnio":5353,"ĠParque":5354,"Ġimplant":5355,"Ġoferta":5356,"Ġprovoc":5357,"icardo":5358,"ĠgrÃ¡f":5359,"iando":5360,"ĠConstituiÃ§Ã£o":5361,"Ġmunicipal":5362,"Ġperceber":5363,"Ġmenc":5364,"Ġrequis":5365,"Ġreduzir":5366,"ĠsensaÃ§Ã£o":5367,"Ġjuiz":5368,"mart":5369,"ĠComunicaÃ§Ã£o":5370,"Ġretorn":5371,"Ġarmazen":5372,"Ġderro":5373,"02":5374,"ĠdÃŃ":5375,"Ġentidade":5376,"Ã¢nia":5377,"augu":5378,"Ð¾":5379,"ĠfÃ¡":5380,"Ġfeitos":5381,"Ġemo":5382,"Ġpublicado":5383,"Ġfront":5384,"ĠSub":5385,"Ġterr":5386,"ley":5387,"Ġgovernador":5388,"Ġdemo":5389,"Ġuniverso":5390,"ĠLib":5391,"old":5392,"ĠRegiÃ£o":5393,"ng":5394,"Ġaplicativo":5395,"Ġ45":5396,"ĠbenefÃŃcio":5397,"31":5398,"ĠSai":5399,"ĠinscriÃ§Ãµes":5400,"Ġinfantil":5401,"ĠdiscussÃ£o":5402,"Ġfabric":5403,"Ġfornece":5404,"Ġvac":5405,"Ġestados":5406,"Ãªnio":5407,"Ġmadeira":5408,"Ġcabelos":5409,"udos":5410,"Ġvive":5411,"Ġgord":5412,"ĠacadÃªm":5413,"Ġenvio":5414,"CO":5415,"Ġanivers":5416,"Ġinvestimentos":5417,"Ã§ada":5418,"Ġdiss":5419,"Ġfalou":5420,"Ġdesconto":5421,"ĠAqui":5422,"alidades":5423,"ĠRede":5424,"ĠBat":5425,"Ġdireto":5426,"fica":5427,"Ġpensamento":5428,"RAS":5429,"Ġsolo":5430,"ĠtÃ©cnicos":5431,"ĠrelatÃ³rio":5432,"ĠAlem":5433,"ĠDez":5434,"Ġvira":5435,"Ġpropriet":5436,"ĠFam":5437,"ĠcomÃ©rcio":5438,"Ġteste":5439,"ĠEqu":5440,"Ã©dia":5441,"enÃ§Ãµes":5442,"taÃ§Ãµes":5443,"Ġilust":5444,"rativos":5445,"Ã¢ndia":5446,"Ġgrau":5447,"Ġenviar":5448,"ĠSE":5449,"Ġcompon":5450,"ĠFilho":5451,"MG":5452,"xa":5453,"dom":5454,"Ġacum":5455,"osas":5456,"Ġperspec":5457,"tam":5458,"Ġsobrev":5459,"Ġvid":5460,"Ġnormalmente":5461,"Ġisol":5462,"Ġbic":5463,"Ġcarga":5464,"unha":5465,"ĠdecisÃµes":5466,"Ġbanheiro":5467,"ducao":5468,"Ġimpres":5469,"ĠÃ³timo":5470,"Ġdeleg":5471,"Ġcombate":5472,"ÃķES":5473,"ĠirmÃ£o":5474,"ĠeconÃ´mica":5475,"Res":5476,"ĠimÃ³vel":5477,"ĠÃºtil":5478,"Ġdefe":5479,"wit":5480,"Ġpreso":5481,"Ġsabor":5482,"bras":5483,"Ġtriste":5484,"ĠConv":5485,"Am":5486,"ĠÃĵ":5487,"Ġinstru":5488,"ĠNovo":5489,"Ġvotos":5490,"veja":5491,"Ġapos":5492,"ĠArqu":5493,"Ġidentidade":5494,"ĠDig":5495,"ĠverÃ£o":5496,"Ġconhece":5497,"Ġlinguagem":5498,"arg":5499,"Ġnasceu":5500,"Ġesteve":5501,"ones":5502,"Ġbrin":5503,"ĠcÃ¡l":5504,"ĠlÃŃqu":5505,"ĠRed":5506,"ĠÃĢ":5507,"Ġprocurar":5508,"orpo":5509,"Ġdizendo":5510,"nes":5511,"Ð°":5512,"ĠFundaÃ§Ã£o":5513,"ensÃµes":5514,"otas":5515,"uss":5516,"Ġriscos":5517,"ĠCel":5518,"Ġvas":5519,"Ġcred":5520,"ĠServiÃ§o":5521,"Ġcama":5522,"ĠterritÃ³rio":5523,"ĠPorque":5524,"ĠCab":5525,"ĠPs":5526,"ares":5527,"ĠLima":5528,"Ġparar":5529,"Ġconsumidor":5530,"ĠJulho":5531,"ject":5532,"heÃ§a":5533,"SÃ£o":5534,"Ġia":5535,"ĠCampeonato":5536,"ĠMic":5537,"Ġtestem":5538,"ĠdivulgaÃ§Ã£o":5539,"Ġ2005":5540,"Ġassistir":5541,"icl":5542,"rael":5543,"portes":5544,"35":5545,"ĠUN":5546,"Ġrecente":5547,"aremos":5548,"ĠPlano":5549,"Ġlimpeza":5550,"Ġexame":5551,"IG":5552,"ÃŃdio":5553,"load":5554,"ilma":5555,"ĠPM":5556,"Ġsabem":5557,"Ġanimal":5558,"ÃŃssimo":5559,"Ġentidades":5560,"2014":5561,"Ġmoto":5562,"Ġbei":5563,"rang":5564,"Ġouro":5565,"ublicado":5566,"Ġmascul":5567,"Ġcorrida":5568,"Ã©gio":5569,"Ġexterior":5570,"Ġalem":5571,"Ġcoop":5572,"ĠFlor":5573,"ĠChina":5574,"Ġquente":5575,"presentaÃ§Ã£o":5576,"osofia":5577,"Ġdesafios":5578,"itadas":5579,"ĠNO":5580,"aixas":5581,"Ġprol":5582,"Ġadqui":5583,"Ġcuja":5584,"ĠEduardo":5585,"Ġtivesse":5586,"ĠFel":5587,"ĠEmpre":5588,"ĠJud":5589,"recer":5590,"Ġsubs":5591,"Ġesperar":5592,"ĠMilitar":5593,"uramentada":5594,"Ã¡logo":5595,"Ġvot":5596,"SE":5597,"Ġnaveg":5598,"Ãļ":5599,"Ġnacionais":5600,"ĠQU":5601,"ĠduraÃ§Ã£o":5602,"Ġentend":5603,"ĠConfira":5604,"Ġclima":5605,"Ġjan":5606,"Ġescrita":5607,"rosso":5608,"Ġcorte":5609,"Ġestuda":5610,"Ġterceira":5611,"ĠcÃ¡":5612,"Ġcarne":5613,"Ġfamiliares":5614,"Ã³rico":5615,"bÃ©ns":5616,"Ġtransmit":5617,"Ġusa":5618,"ney":5619,"Ġimpress":5620,"Ġinclui":5621,"ĠsecretÃ¡rio":5622,"anÃ§o":5623,"Ãªut":5624,"ĠtendÃªncia":5625,"Ġfinanceira":5626,"BA":5627,"Ġpodendo":5628,"upla":5629,"aixÃ£o":5630,"ĠGlobo":5631,"istente":5632,"ĠExecut":5633,"Ġbancos":5634,"ĠJornal":5635,"Ġmilhares":5636,"iÃ¡rios":5637,"naval":5638,"Ġinaugu":5639,"Ġmam":5640,"Ġcujo":5641,"Ġglobal":5642,"fas":5643,"ĠIr":5644,"ĠMesmo":5645,"izagem":5646,"ĠcÃ¢ncer":5647,"itiba":5648,"ĠdeverÃ£o":5649,"MO":5650,"Ġguard":5651,"ĠespÃŃrito":5652,"ionado":5653,"Ġganhou":5654,"Ġcalor":5655,"Ãºcar":5656,"ricultura":5657,"ecÃ§Ã£o":5658,"Ġestad":5659,"ĠEmpres":5660,"Ġaproveitar":5661,"33":5662,"Ġidentificar":5663,"uco":5664,"ĠNesse":5665,"ev":5666,"Ġdisco":5667,"Ġdieta":5668,"ĠApesar":5669,"Ġfestas":5670,"ĠJardim":5671,"rena":5672,"Ġconfort":5673,"itmo":5674,"Ġencer":5675,"Ġanteriores":5676,"ĠFerreira":5677,"ĠGar":5678,"Ġsobretudo":5679,"erca":5680,"Ġassass":5681,"Ġpropostas":5682,"ĠParanÃ¡":5683,"Ġrelacionados":5684,"Ġreconhecimento":5685,"Ġjo":5686,"ĠSo":5687,"Ġtecnologias":5688,"Ġcadast":5689,"Ġgarante":5690,"ĠTh":5691,"lat":5692,"Ġdign":5693,"isiÃ§Ã£o":5694,"Ġantigo":5695,"Ġarquivo":5696,"ĠFest":5697,"ĠcomeÃ§o":5698,"ĠEN":5699,"ĠRom":5700,"ÃŃzo":5701,"ĠRen":5702,"Ġartista":5703,"Ġtoc":5704,"ĠcoleÃ§Ã£o":5705,"Ġdireita":5706,"Ã³stico":5707,"ĠMP":5708,"80":5709,"Is":5710,"ĠCD":5711,"wnload":5712,"onal":5713,"Ġfontes":5714,"Ġlabora":5715,"Ġconstruir":5716,"aga":5717,"Ġmotivos":5718,"ĠesforÃ§o":5719,"magem":5720,"Ġvidas":5721,"Ġcast":5722,"Ã³gico":5723,"ĠAlegre":5724,"Ã¡ter":5725,"zas":5726,"Ġmensagens":5727,"Ġefica":5728,"ĠMunicÃŃpio":5729,"ĠPolÃŃtica":5730,"ĠfÃŃsico":5731,"ertos":5732,"Ġrequer":5733,"Ġintegral":5734,"Ġagentes":5735,"ĠforÃ§as":5736,"Ġemail":5737,"Ġ36":5738,"Ġdeterminado":5739,"ĠDepartamento":5740,"Ġacidente":5741,"forme":5742,"arece":5743,"Ġocorreu":5744,"ĠnecessÃ¡ria":5745,"tada":5746,"ci":5747,"Ġabandon":5748,"Ġreserva":5749,"Ġinteiro":5750,"Ġfortes":5751,"Ġdizem":5752,"ĠrecuperaÃ§Ã£o":5753,"ĠcÃ©u":5754,"Ġ500":5755,"ĠhipÃ³":5756,"Ġartistas":5757,"Ġconvenc":5758,"como":5759,"ĠciÃªncia":5760,"ĠMarÃ§o":5761,"Ġpensa":5762,"Ã¡stica":5763,"meras":5764,"king":5765,"idenc":5766,"ĠAgÃªncia":5767,"Ġcomand":5768,"Ġcru":5769,"ĠnÃ©":5770,"ĠJunho":5771,"ĠhÃ¡b":5772,"Ġdemanda":5773,"pol":5774,"ĠAcad":5775,"Ġpiscina":5776,"ĠPereira":5777,"Ġcomuns":5778,"ĠPoder":5779,"ĠfaÃ§o":5780,"vamos":5781,"Ġapost":5782,"Ġdebate":5783,"uraÃ§Ã£o":5784,"Ġchegada":5785,"Ġleis":5786,"atar":5787,"Ġplaneta":5788,"Ġpatrim":5789,"enida":5790,"Ġconhecimentos":5791,"ĠsalÃ¡rio":5792,"ĠprincÃŃpios":5793,"Ġprimeiras":5794,"ĠDav":5795,"hou":5796,"Ġmoral":5797,"ĠIP":5798,"elar":5799,"istos":5800,"viamente":5801,"Ġmovimentos":5802,"Ġigualmente":5803,"Ġrecentemente":5804,"Ġesposa":5805,"ĠmÃ³veis":5806,"Ã¡culo":5807,"issa":5808,"Ġemerg":5809,"Ġtraduz":5810,"indows":5811,"Ġprovavelmente":5812,"ĠgraÃ§as":5813,"ĠlanÃ§ado":5814,"ĠChe":5815,"Ġposta":5816,"Ġpronto":5817,"Ġterem":5818,"Ġfabrica":5819,"ĠDestes":5820,"Ġamiga":5821,"Ã´metros":5822,"Ġ03":5823,"ĠGomes":5824,"Ġfr":5825,"ĠCada":5826,"oo":5827,"ĠBom":5828,"ĠtrÃ¢nsito":5829,"ĠestaÃ§Ã£o":5830,"valho":5831,"Ġdipl":5832,"Ġfug":5833,"Ainda":5834,"Ġparal":5835,"ĠPÃ³s":5836,"Ġindividual":5837,"Ġmante":5838,"Ġpalestra":5839,"Ġpermitir":5840,"Ġquerer":5841,"itetura":5842,"Ðµ":5843,"Ġdesenvolvido":5844,"Ġta":5845,"ung":5846,"ĠAP":5847,"ĠSerra":5848,"Ġfen":5849,"Ġapresentado":5850,"Ġchama":5851,"itares":5852,"Ġlimite":5853,"Ġretorno":5854,"Ġness":5855,"ianos":5856,"Ġlhes":5857,"ĠbebÃª":5858,"Ġtrou":5859,"dou":5860,"ĠDesde":5861,"Ã³nio":5862,"Ġtreinamento":5863,"Ġcomprov":5864,"pri":5865,"Ġemit":5866,"34":5867,"Ġverdadeira":5868,"Ġjantar":5869,"imentaÃ§Ã£o":5870,"ĠRicardo":5871,"ph":5872,"ĠPromo":5873,"ĠLegisl":5874,"ĠDou":5875,"gr":5876,"Ġcaval":5877,"ts":5878,"Ġmilitar":5879,"Ġcena":5880,"Ġinim":5881,"ĠGoi":5882,"ĠFal":5883,"ĠJorge":5884,"Ġerros":5885,"Ġfirm":5886,"Ġcombust":5887,"Ġperfeita":5888,"ĠNotÃŃcias":5889,"ÃŃbrio":5890,"Ġdenom":5891,"rador":5892,"Quem":5893,"Ġplant":5894,"Ġinteresses":5895,"Ġreform":5896,"ĠBranc":5897,"ĠpossÃŃveis":5898,"Ġpros":5899,"ys":5900,"ariam":5901,"Ġbu":5902,"Ġrepresentantes":5903,"Ġamo":5904,"Ġhistor":5905,"Ġ08":5906,"Ġsupera":5907,"ĠMen":5908,"Ġutilizados":5909,"Ġequipes":5910,"rb":5911,"Essa":5912,"Ġsaiu":5913,"ĠCu":5914,"Ġeleitoral":5915,"Ġautores":5916,"ĠPortal":5917,"Ġdecorre":5918,"eroporto":5919,"Ġrestaurante":5920,"ium":5921,"orra":5922,"Ġnovidades":5923,"Ġdupla":5924,"Ġachei":5925,"ĠcarÃ¡ter":5926,"ĠHo":5927,"Ġataque":5928,"ĠEra":5929,"ĠgÃ¡s":5930,"ĠmÃ©dicos":5931,"ĠassistÃªncia":5932,"Ġcard":5933,"ĠCE":5934,"Ġdrogas":5935,"imar":5936,"Ġger":5937,"Ġpodia":5938,"HA":5939,"Ġassuntos":5940,"Ġcorrespond":5941,"ĠAgosto":5942,"Ġprivil":5943,"ĠesperanÃ§a":5944,"Ġhosped":5945,"Ġutilizada":5946,"Ġequipamento":5947,"ĠÃ¡lbum":5948,"ĠVis":5949,"ĠSerÃ¡":5950,"ĠtrÃ¡f":5951,"alha":5952,"essem":5953,"ĠVida":5954,"ĠnecessÃ¡rios":5955,"amar":5956,"ĠCiÃªncia":5957,"ĠBio":5958,"ĠHol":5959,"ĠtÃ¡":5960,"Ġgel":5961,"ĠFÃ³r":5962,"ĠMor":5963,"ya":5964,"ĠEurope":5965,"lim":5966,"Ġcoleg":5967,"Ġchance":5968,"Ġinterna":5969,"Ġacabar":5970,"Ġparecer":5971,"ĠHa":5972,"Ġfelicidade":5973,"Ġcertamente":5974,"ĠAno":5975,"tagon":5976,"Ġesquec":5977,"Ġjornalista":5978,"ĠTo":5979,"Ġdisputa":5980,"ĠPARA":5981,"ĠContinu":5982,"izonte":5983,"Ġmoradores":5984,"ĠPlane":5985,"ividades":5986,"Ġbl":5987,"itÃ³rio":5988,"Mar":5989,"Ġcrio":5990,"Ġhaja":5991,"ĠDiretor":5992,"Ġapresentou":5993,"ĠaprovaÃ§Ã£o":5994,"ĠTÃ©cnico":5995,"âĢ¢":5996,"ĠintenÃ§Ã£o":5997,"ĠBarb":5998,"Ġflorest":5999,"ĠtÃ©r":6000,"Ġvisitar":6001,"Ġaparelho":6002,"Ġtornando":6003,"Ġparlam":6004,"Ã©ticos":6005,"Ġcobertura":6006,"amais":6007,"Ġautomat":6008,"Ġress":6009,"ĠFl":6010,"ĠCO":6011,"ĠDurante":6012,"Ġcoz":6013,"ivar":6014,"Ġentrou":6015,"Ġcondicion":6016,"pr":6017,"ĠCearÃ¡":6018,"ĠmÃŃdia":6019,"ĠSalvador":6020,"Ġvirtual":6021,"ĠPrev":6022,"98":6023,"Rec":6024,"Ġfatos":6025,"Ġguarda":6026,"ĠautorizaÃ§Ã£o":6027,"Ġfotograf":6028,"ste":6029,"ĠYork":6030,"Ġital":6031,"Ġcomerciais":6032,"tados":6033,"Ġrelev":6034,"Ġfoc":6035,"ĠObrig":6036,"Ġign":6037,"ĠOnline":6038,"Ġeuros":6039,"ĠocasiÃ£o":6040,"Ġciclo":6041,"olo":6042,"ĠLou":6043,"ĠJe":6044,"Ġfaixa":6045,"ĠCart":6046,"Ġferro":6047,"Ġpoliciais":6048,"Assim":6049,"Ġec":6050,"Ġpassada":6051,"Cl":6052,"ĠtelevisÃ£o":6053,"Ġinteressados":6054,"Ġsuperf":6055,"ĠdÃ³":6056,"Ġviagens":6057,"Ġautoridades":6058,"ĠDesta":6059,"RIA":6060,"Ġatingir":6061,"ĠgraÃ§a":6062,"Ġenx":6063,"Ġantiga":6064,"Ġestrada":6065,"Ġfrio":6066,"Ġobjetos":6067,"itÃ³rios":6068,"ĠPesquisa":6069,"Ġton":6070,"Ġcolor":6071,"Ġteoria":6072,"omod":6073,"Ġcedo":6074,"rama":6075,"ĠVic":6076,"ĠagÃªncia":6077,"ĠnotÃŃcia":6078,"Ġfeira":6079,"Ġlendo":6080,"Ġfiscal":6081,"ĠGon":6082,"ĠcorrupÃ§Ã£o":6083,"tom":6084,"Que":6085,"ĠDezembro":6086,"Ġsegre":6087,"ĠexercÃŃcios":6088,"ĠInformaÃ§Ã£o":6089,"Ġeurope":6090,"Ġturismo":6091,"Ġrevol":6092,"TAL":6093,"Ġaparec":6094,"Ġescal":6095,"ĠalcanÃ§ar":6096,"ĠAndrÃ©":6097,"ĠGil":6098,"Ġfacto":6099,"Ġdica":6100,"Ġserve":6101,"Ġmonito":6102,"pare":6103,"ĠPortanto":6104,"Ġdanos":6105,"Ġadic":6106,"Ġdiscurso":6107,"ĠSU":6108,"Ġja":6109,"Ġconex":6110,"ĠprestaÃ§Ã£o":6111,"Ġafinal":6112,"Ġface":6113,"Ġlevando":6114,"GO":6115,"Ġsonhos":6116,"ĠAtl":6117,"Ġconjunt":6118,"ĠaniversÃ¡rio":6119,"ĠJap":6120,"olha":6121,"ĠAntÃ´nio":6122,"Ġequipa":6123,"ulada":6124,"ĠVamos":6125,"Ġpassos":6126,"nteÃºdos":6127,"Ġ300":6128,"izadas":6129,"Ġcheio":6130,"ĠIsto":6131,"Ġampla":6132,"RS":6133,"Ġgaro":6134,"premo":6135,"Ġproduzir":6136,"ĠItÃ¡lia":6137,"ĠdefiniÃ§Ã£o":6138,"ĠLond":6139,"Ġnotas":6140,"umin":6141,"ĠCampo":6142,"Ġliteratura":6143,"ĠBlog":6144,"Ġedif":6145,"entro":6146,"olas":6147,"Ġentrev":6148,"Ġpobre":6149,"ape":6150,"Ġfique":6151,"ĠPOR":6152,"Agora":6153,"ĠhipÃ³tes":6154,"Ã³is":6155,"ÃĩÃķES":6156,"Ġplantas":6157,"arÃ£o":6158,"ĠeleiÃ§Ã£o":6159,"Ġpreju":6160,"ĠBÃŃbl":6161,"Ġcontam":6162,"Ġvisu":6163,"ĠidentificaÃ§Ã£o":6164,"Ġperguntas":6165,"rad":6166,"Ġfacilmente":6167,"ĠquilÃ´metros":6168,"VI":6169,"ĠirmÃ£os":6170,"ĠorientaÃ§Ã£o":6171,"Neste":6172,"ĠHD":6173,"fera":6174,"Ġgostosa":6175,"frica":6176,"Ġroupa":6177,"Ġseres":6178,"Ġsabemos":6179,"ĠeficiÃªncia":6180,"Ġatletas":6181,"ides":6182,"ĠDilma":6183,"Ġfazia":6184,"Ġlocalizada":6185,"arou":6186,"Ġrealiza":6187,"Ġrestaurantes":6188,"osos":6189,"ole":6190,"Ġrespostas":6191,"Ġvoto":6192,"icado":6193,"Ġlegais":6194,"Ġvantagem":6195,"Ġpul":6196,"cam":6197,"ãģ":6198,"Ġindependente":6199,"ĠdÃ£o":6200,"ÃŃram":6201,"Ġingres":6202,"ĠorganizaÃ§Ãµes":6203,"Ġconsumidores":6204,"Ġresto":6205,"Ġdescon":6206,"indica":6207,"ĠTro":6208,"ĠfÃ£s":6209,"ĠeconÃ´mico":6210,"Ġultrap":6211,"Ġfinalmente":6212,"Ġespecialistas":6213,"Ġinformou":6214,"Ġvinho":6215,"ĠMedicina":6216,"ION":6217,"Ġprotagon":6218,"entaÃ§Ãµes":6219,"Ġvirtu":6220,"aros":6221,"Ġfinanceiro":6222,"Ġrol":6223,"Ġlook":6224,"ĠAssistÃªncia":6225,"Ġcrimes":6226,"Ġsuplem":6227,"Ġgerar":6228,"78":6229,"iguel":6230,"DF":6231,"ĠdenÃº":6232,"Ġdisciplina":6233,"Ġfios":6234,"Durante":6235,"ĠAssembleia":6236,"Ch":6237,"Ġchuva":6238,"ĠMora":6239,"Ġvoltou":6240,"Ġmembro":6241,"ĠON":6242,"ĠgÃªnero":6243,"redo":6244,"rev":6245,"Ġespanh":6246,"ĠresidÃªncia":6247,"ergia":6248,"ĠSouza":6249,"Ġpaul":6250,"ersÃ£o":6251,"ĠIII":6252,"Ġpegar":6253,"Ġreceitas":6254,"rizes":6255,"ĠAnton":6256,"Ġevang":6257,"Ġmesmas":6258,"ĠMarcelo":6259,"2013":6260,"Ġlimites":6261,"Ġpassam":6262,"Ġmenores":6263,"Ġiria":6264,"Ġaberta":6265,"ĠinovaÃ§Ã£o":6266,"Ġilha":6267,"Ġpiso":6268,"ICO":6269,"Ġcarreg":6270,"36":6271,"ĠRE":6272,"Ġestacion":6273,"Ġartic":6274,"Ġplac":6275,"uf":6276,"ĠLivro":6277,"ler":6278,"ĠorÃ§amento":6279,"Ġ2004":6280,"EIRA":6281,"Ġdecidiu":6282,"ĠcontÃ©m":6283,"IDADE":6284,"ĠjurÃŃdica":6285,"Ġai":6286,"duto":6287,"Ġtestes":6288,"Ġtarefa":6289,"itamos":6290,"ĠCir":6291,"Ġperigos":6292,"Ġestudar":6293,"Ġtantas":6294,"ĠpreocupaÃ§Ã£o":6295,"Ġfarm":6296,"ĠProfiss":6297,"atia":6298,"ÃŃsticos":6299,"ĠDu":6300,"ĠClube":6301,"Ġfigura":6302,"Ġposicion":6303,"ĠCampos":6304,"Ġaspecto":6305,"cara":6306,"iscipl":6307,"ĠprÃ³prias":6308,"Ġamea":6309,"Ã©rito":6310,"Ġacel":6311,"ĠBem":6312,"Ġrealizados":6313,"icia":6314,"Ġvari":6315,"Ġvelho":6316,"Ġcompartilhar":6317,"ÃŃa":6318,"ernidade":6319,"Ġsegmento":6320,"ceis":6321,"Ġmoeda":6322,"Ġrotina":6323,"ĠepisÃ³dio":6324,"Do":6325,"lares":6326,"39":6327,"Ġusados":6328,"ĠBR":6329,"ker":6330,"ĠFortal":6331,"ks":6332,"ordeste":6333,"ÃŃduo":6334,"oluÃ§Ã£o":6335,"atas":6336,"Ġvisitantes":6337,"Ġinvestir":6338,"itco":6339,"Ġadultos":6340,"Ġdirec":6341,"PT":6342,"imes":6343,"ĠXX":6344,"Ġflores":6345,"Ġmecan":6346,"Ġ04":6347,"Ġportuguesa":6348,"ogos":6349,"ĠelÃ©trica":6350,"AÃĩÃĥO":6351,"ĠinfluÃªncia":6352,"ĠDisp":6353,"idaÃ§Ã£o":6354,"**":6355,"ĠclassificaÃ§Ã£o":6356,"UT":6357,"ĠSte":6358,"ĠCoorden":6359,"Ġfrut":6360,"Ġsubmet":6361,"ĠinstalaÃ§Ãµes":6362,"Ġgordura":6363,"Ġinferior":6364,"mag":6365,"ĠconclusÃ£o":6366,"Ġpassaram":6367,"ĠFinanc":6368,"Ġportas":6369,"ĠcÃ©l":6370,"Ad":6371,"Ġcurt":6372,"Ġentendimento":6373,"ĠespÃ©cies":6374,"Ġga":6375,"Ġguia":6376,"Ġobrigado":6377,"ote":6378,"Ġaumenta":6379,"ĠirÃ£o":6380,"Ġprojec":6381,"aliza":6382,"ĠLuÃŃs":6383,"Ġdestaca":6384,"Ġensin":6385,"Ġ<":6386,"bar":6387,"Ġsintomas":6388,"ulaÃ§Ãµes":6389,"Apesar":6390,"ĠCorpo":6391,"Ġtaxas":6392,"Ġ00":6393,"Ġinstrumento":6394,"Sim":6395,"ruturas":6396,"Ġimediatamente":6397,"ĠimpressÃ£o":6398,"ĠligaÃ§Ã£o":6399,"ĠJul":6400,"ĠmÃ¡xima":6401,"Ġconceitos":6402,"ĠAlemanha":6403,"Ġcriou":6404,"nia":6405,"ĠVir":6406,"ĠnecessÃ¡rias":6407,"Ġmediante":6408,"Ġotim":6409,"Ġvin":6410,"ĠAlves":6411,"Ġidos":6412,"ĠchÃ£o":6413,"ĠCatarina":6414,"Ġ32":6415,"Ġlembra":6416,"Ġitem":6417,"Ġgrave":6418,"ĠVia":6419,"Ġmenina":6420,"ĠpropÃ³sito":6421,"ritos":6422,"Ġadvogado":6423,"Ġcriada":6424,"etal":6425,"ĠFevereiro":6426,"Ġmostrou":6427,"37":6428,"Ġingred":6429,"atÃ³rios":6430,"Ġmoderno":6431,"Ġdevemos":6432,"38":6433,"ĠconteÃºdos":6434,"Ġespecialista":6435,"atroc":6436,"uns":6437,"Ġharm":6438,"ĠDaniel":6439,"Ġgast":6440,"Ġcm":6441,"ĠWindows":6442,"ĠCuritiba":6443,"Ð¸":6444,"Ġtribut":6445,"ĠGen":6446,"Ġservir":6447,"rÃ£o":6448,"Ã´s":6449,"Ġperdeu":6450,"Ġdepende":6451,"Ġpalco":6452,"Ġespet":6453,"ĠBelo":6454,"atu":6455,"Ġbrasileiras":6456,"ĠAmbiente":6457,"ĠAval":6458,"Ã§ados":6459,"eirÃ£o":6460,"Ġafast":6461,"Ġapar":6462,"Ġficando":6463,"han":6464,"ĠMarketing":6465,"Ġsente":6466,"Ãªnd":6467,"Ġcrescer":6468,"Ġparque":6469,"Ġmilitares":6470,"ĠimpossÃŃvel":6471,"Ġadquir":6472,"Ġverificar":6473,"unicipais":6474,"ĠIntegra":6475,"ĠAM":6476,"ĠPois":6477,"Ġproteg":6478,"Ġlembro":6479,"Ġcontribuir":6480,"Ġpress":6481,"ilos":6482,"ÃŃsica":6483,"ish":6484,"48":6485,"ĠpadrÃµes":6486,"ĠsuperfÃŃc":6487,"Ġimper":6488,"rove":6489,"idÃªncias":6490,"Ġmagn":6491,"ĠimÃ³veis":6492,"ĠtradiÃ§Ã£o":6493,"ecei":6494,"Ġdireta":6495,"Ġvolunt":6496,"oft":6497,"Ġanalisar":6498,"Ġusada":6499,"Ġcumprimento":6500,"ertaÃ§Ã£o":6501,"Ġ2019":6502,"hado":6503,"Ġposterior":6504,"indicato":6505,"orrÃªncia":6506,"fei":6507,"Ġconosco":6508,"ĠÃģfrica":6509,"III":6510,"Ġiniciar":6511,"Ġregra":6512,"Ġjamais":6513,"Ġnove":6514,"Ġconvidados":6515,"ĠalteraÃ§Ã£o":6516,"Ġexplicar":6517,"ãĥ":6518,"Ġ2000":6519,"Ġenfer":6520,"Ġplanej":6521,"ĠdomÃŃnio":6522,"Ġfotografia":6523,"amba":6524,"Ġfantas":6525,"Ġdefinir":6526,"Ġritmo":6527,"roid":6528,"ĠUt":6529,"Ġpediu":6530,"Ġabre":6531,"Ġanti":6532,"ĠLim":6533,"Ġjulgamento":6534,"ĠMA":6535,"Ġ|--":6536,"ĠtransmissÃ£o":6537,"Ġconsiderada":6538,"Ġproteger":6539,"Ġencontram":6540,"ertar":6541,"ĠPortuguÃªs":6542,"ĠextensÃ£o":6543,"ĠPai":6544,"estÃµes":6545,"ituras":6546,"Ġdespesas":6547,"utaÃ§Ã£o":6548,"Le":6549,"Ġanda":6550,"Ġavaliar":6551,"Ġcarinho":6552,"Ġ2003":6553,"role":6554,"Ġcomando":6555,"olina":6556,"ĠMara":6557,"Ġprecisar":6558,"Ġparceiros":6559,"li":6560,"Ġconsulta":6561,"Ġpropag":6562,"Ġpresid":6563,"Ġculturais":6564,"ĠRodrigues":6565,"ĠGuerra":6566,"Ġparcial":6567,"Ġexclusivamente":6568,"Ġterap":6569,"Ġadia":6570,"orma":6571,"Ġatuais":6572,"ĠAC":6573,"ĠfarÃ¡":6574,"Ġcurto":6575,"ÃŃmbol":6576,"Ġprevisto":6577,"Ġtentativa":6578,"Ġcumprir":6579,"Ġanunciou":6580,"Ġsentimentos":6581,"Ġrelacionadas":6582,"PM":6583,"ky":6584,"Ġvender":6585,"ĠaÃ§Ãºcar":6586,"ight":6587,"Ġbaixar":6588,"Ġ!":6589,"ĠTurismo":6590,"Ġpasseio":6591,"Ġantecip":6592,"Ġresg":6593,"IZ":6594,"ÃŃba":6595,"ĠÃļ":6596,"Ġescreveu":6597,"ĠHe":6598,"Ġtenta":6599,"Ġficaram":6600,"Ġtrabalhando":6601,"Ġcheia":6602,"Ġsetores":6603,"ĠMaran":6604,"ĠFab":6605,"Ġdesconhec":6606,"ĠhaverÃ¡":6607,"erente":6608,"Ġadolescentes":6609,"merc":6610,"raria":6611,"Ġmass":6612,"Ġ09":6613,"ĠConsult":6614,"adeia":6615,"Ġfis":6616,"wer":6617,"itoria":6618,"Ġsinais":6619,"Ġchefe":6620,"Ġtantos":6621,"ĠFlo":6622,"ĠrÃ¡dio":6623,"Ġvariedade":6624,"Ġlazer":6625,"ĠmantÃ©m":6626,"ĠtÃŃtulos":6627,"igi":6628,"Ġvejo":6629,"Ġatos":6630,"ione":6631,"ĠEspanha":6632,"ĠEnquanto":6633,"Ġflex":6634,"fal":6635,"Ġdada":6636,"Ġatitude":6637,"adura":6638,"ĠÃģrea":6639,"cante":6640,"ĠCin":6641,"ĠEstou":6642,"Ġgrat":6643,"Ġcomplic":6644,"Ġpain":6645,"enses":6646,"Ġcoloca":6647,"rac":6648,"ĠHenrique":6649,"ĠDias":6650,"ĠlideranÃ§a":6651,"men":6652,"iloto":6653,"Ġtentando":6654,"ĠaquisiÃ§Ã£o":6655,"Ġimpac":6656,"Ġengra":6657,"ĠescritÃ³rio":6658,"Ġtecido":6659,"ĠmÃ¡quinas":6660,"ĠausÃªncia":6661,"Ġconserv":6662,"Ġ05":6663,"pons":6664,"Ġevol":6665,"ĠParis":6666,"ĠPern":6667,"Ġarquivos":6668,"ĠcrÃŃtica":6669,"Ġcategorias":6670,"Ġ37":6671,"Ġredor":6672,"Ġnaquele":6673,"ĠMiguel":6674,"Ġequival":6675,"Ġamiz":6676,"mal":6677,"Ġsinc":6678,"ĠsequÃªncia":6679,"witter":6680,"ĠFigu":6681,"Ġprecisamos":6682,"Ġacredito":6683,"ĠCara":6684,"ĠRece":6685,"NCIA":6686,"gumas":6687,"urar":6688,"Ġcomposto":6689,"ĠPetro":6690,"66":6691,"Â©":6692,"32":6693,"ĠdanÃ§a":6694,"izando":6695,"ĠNas":6696,"nciamento":6697,"med":6698,"ĠHotel":6699,"Ġabsor":6700,"Ġfib":6701,"Ġleitor":6702,"quinho":6703,"ono":6704,"itÃ¡rios":6705,"ĠPad":6706,"ĠBu":6707,"Ġpensando":6708,"Ġorganismo":6709,"ĠresoluÃ§Ã£o":6710,"Ġjudicial":6711,"Ġcausar":6712,"Ġbolsa":6713,"Ġauxiliar":6714,"ifique":6715,"Ġtub":6716,"Ġexpectativa":6717,"Ġreflet":6718,"pot":6719,"Ġ@":6720,"Ġcontratos":6721,"Ġpertenc":6722,"ĠHel":6723,"ĠHar":6724,"Cons":6725,"ices":6726,"Ġast":6727,"AMENTO":6728,"ordar":6729,"ĠProcesso":6730,"ĠMato":6731,"Ġalternativa":6732,"Ġposse":6733,"ĠacessÃ³rios":6734,"abiliz":6735,"ientais":6736,"ĠÃ¡guas":6737,"ficientes":6738,"olÃ³gicos":6739,"ĠaplicaÃ§Ãµes":6740,"ises":6741,"tem":6742,"Ġsimp":6743,"Ġatua":6744,"Ġ34":6745,"ize":6746,"ĠPrinc":6747,"Ġdentre":6748,"ĠcidadÃ£os":6749,"etos":6750,"ĠCarvalho":6751,"55":6752,"fim":6753,"ĠintervenÃ§Ã£o":6754,"An":6755,"Ã³x":6756,"Ġindica":6757,"Ġporno":6758,"urras":6759,"orada":6760,"ĠSto":6761,"etivo":6762,"ĠIsrael":6763,"ĠestratÃ©gias":6764,"di":6765,"ĠAud":6766,"Ġaprec":6767,"Ġbrilha":6768,"Ġsap":6769,"Ġprofessora":6770,"che":6771,"Ġ--":6772,"IST":6773,"Ġqueb":6774,"ĠcomissÃ£o":6775,"Ġtransformar":6776,"agram":6777,"ĠprevenÃ§Ã£o":6778,"quim":6779,"Ġvermelho":6780,"Ġsinto":6781,"Ġdaquele":6782,"Ġgig":6783,"aa":6784,"its":6785,"Ġdispositivos":6786,"Ġurg":6787,"ĠTre":6788,"Ġ07":6789,"Ġrodo":6790,"ricos":6791,"rigor":6792,"ĠvÃŃtimas":6793,"Ġfant":6794,"Ġviajar":6795,"Ġmusical":6796,"Ġsta":6797,"Ġexames":6798,"ĨĴ":6799,"ĠdiagnÃ³stico":6800,"Ġalimentar":6801,"Ġpreserv":6802,"Ġachar":6803,"ĠComerc":6804,"Ġsalv":6805,"ĠFortaleza":6806,"Ġquaisquer":6807,"Ġaquelas":6808,"Ġcento":6809,"ulÃ¡rio":6810,"Ġocorrer":6811,"ĠdÃ©":6812,"Ġmex":6813,"Ġmeninas":6814,"Ġchamar":6815,"ĠbotÃ£o":6816,"feiÃ§o":6817,"ĠMich":6818,"Ġinsc":6819,"RJ":6820,"Ġ38":6821,"Ġ06":6822,"Ġcomunidades":6823,"Ġvantagens":6824,"Ãºl":6825,"Ġsindic":6826,"Ġmedicamentos":6827,"iosas":6828,"Ġdormir":6829,"Ġnascimento":6830,"endÃ¡rio":6831,"iment":6832,"eto":6833,"Ġtradicionais":6834,"ĠempresÃ¡rio":6835,"gov":6836,"Ã©rc":6837,"ĠPort":6838,"ĠDefesa":6839,"ĠPernamb":6840,"Ġcomplex":6841,"ĠAlguns":6842,"ĠOrientador":6843,"ÃŃssima":6844,"Ġqueremos":6845,"Ġsolar":6846,"Ġsurpreend":6847,"ĠInvest":6848,"2011":6849,"abel":6850,"Ġpossibilidades":6851,"Ġcadastro":6852,"ĠReino":6853,"Mu":6854,"artamentos":6855,"Ġapresentam":6856,"ĠSociedade":6857,"ĠiP":6858,"entil":6859,"amental":6860,"ĠDireitos":6861,"ĠPraia":6862,"Ġrevela":6863,"Ġvence":6864,"Ġbatal":6865,"ĠTor":6866,"Ġsentimento":6867,"Ġarrec":6868,"eceu":6869,"ĠTa":6870,"ĠTenho":6871,"Ġhumor":6872,"Ġolho":6873,"ple":6874,"NA":6875,"ĠJac":6876,"Ġacessar":6877,"Ãªnt":6878,"ĠVerde":6879,"ĠAlexand":6880,"Ġrei":6881,"Ġcorrente":6882,"Ġhomenagem":6883,"CC":6884,"Â¡":6885,"Ġchave":6886,"Ġalvo":6887,"Ġpreto":6888,"Ġjornada":6889,"orar":6890,"ten":6891,"Ġpreparar":6892,"ĠSupremo":6893,"ull":6894,"ĠLit":6895,"cend":6896,"ĠagradÃ¡vel":6897,"Ġcontudo":6898,"ĠDigital":6899,"Ġfacilitar":6900,"Ġbloque":6901,"Ġpassag":6902,"ĠRosa":6903,"ĠAntes":6904,"ĠMeu":6905,"mula":6906,"Ġestejam":6907,"Ġdestacou":6908,"Ġcair":6909,"brica":6910,"Ġespiritual":6911,"rot":6912,"ĠTemer":6913,"urb":6914,"Ġservidor":6915,"Ġcargos":6916,"ĠÃºltimas":6917,"ĠaudiÃªncia":6918,"ificadas":6919,"Ġdito":6920,"Ġacompanhamento":6921,"ĠPessoa":6922,"ĠVit":6923,"ike":6924,"gentina":6925,"iago":6926,"tocol":6927,"Ġprivada":6928,"ĠJohn":6929,"Ġmetod":6930,"Ġautoridade":6931,"Ġrelax":6932,"Ġcontempor":6933,"quad":6934,"Ġciv":6935,"ĠequilÃŃbrio":6936,"Ġleitores":6937,"afa":6938,"IX":6939,"ĠSempre":6940,"erce":6941,"ĠSenado":6942,"ĠSO":6943,"Ġvigor":6944,"olÃ³gicas":6945,"Ĥ¬":6946,"Ġenfrentar":6947,"Ġexplicou":6948,"Ġfinalidade":6949,"Ġsig":6950,"Ġaplicar":6951,"ĠsÃŃmbol":6952,"Ġlidar":6953,"reta":6954,"Ġcerim":6955,"ĠdeclaraÃ§Ã£o":6956,"arn":6957,"Ġquadr":6958,"eis":6959,"70":6960,"Ġ48":6961,"ĠintegraÃ§Ã£o":6962,"ee":6963,"ÃŃzes":6964,"ĠMad":6965,"Ġpromete":6966,"ĠConclusÃ£o":6967,"Ġdestas":6968,"der":6969,"TambÃ©m":6970,"Ġvindo":6971,"Ġnovidade":6972,"Ġ2002":6973,"Ġcompreender":6974,"Ġestreia":6975,"'s":6976,"ĠsatisfaÃ§Ã£o":6977,"Ġobst":6978,"ĠfrequÃªncia":6979,"Ġnele":6980,"Ãºcleo":6981,"Ġtanta":6982,"ÃŃderes":6983,"Ġjuntamente":6984,"ĠIntroduÃ§Ã£o":6985,"Ġcapazes":6986,"Ġdesenho":6987,"rela":6988,"ĠReal":6989,"ĠinfÃ¢ncia":6990,"Ġfinanciamento":6991,"ĠinÃº":6992,"ĠClass":6993,"otes":6994,"Ġrural":6995,"Ġaparecer":6996,"ĠHon":6997,"Ġposto":6998,"Ġarran":6999,"essoria":7000,"Ġsono":7001,"oura":7002,"Todos":7003,"hecimento":7004,"Ġperce":7005,"Ġpede":7006,"!!!!":7007,"alizadas":7008,"Ġincorpo":7009,"Fo":7010,"ÃŃmp":7011,"Ġdemocracia":7012,"izou":7013,"Ġgratuito":7014,"Ãªnis":7015,"ivÃªncia":7016,"ĠmÃ©dica":7017,"antemente":7018,"uo":7019,"ĠCL":7020,"ĠApre":7021,"iblioteca":7022,"Ġhumanidade":7023,"ĠoraÃ§Ã£o":7024,"ĠDesign":7025,"Ġreporta":7026,"ĠLeia":7027,"].":7028,"ĠMot":7029,"ĠGrosso":7030,"2012":7031,"Ġextre":7032,"ĠMÃ©dio":7033,"Ġles":7034,"Ġindustrial":7035,"SA":7036,"vela":7037,"ENTE":7038,"ĠSenhora":7039,"Ġdesemb":7040,"ĠTit":7041,"ERA":7042,"ĠOpera":7043,"Ġvencer":7044,"Ġcuidar":7045,"Ġhe":7046,"Ġterreno":7047,"inga":7048,"ĠCond":7049,"Ġjardim":7050,"Ġaceitar":7051,"ÑĤ":7052,"Ġperform":7053,"Ġvinc":7054,"Ġrealizou":7055,"ĠÃŃndice":7056,"Ġabri":7057,"Ġsegura":7058,"ĠId":7059,"ogrÃ¡f":7060,"MP":7061,"ĠPet":7062,"Ġremun":7063,"vores":7064,"esp":7065,"Ġarro":7066,"ĠsÃŃ":7067,"Ġcrimin":7068,"entre":7069,"rapia":7070,"ÃŃrus":7071,"ĠAntonio":7072,"mentos":7073,"ĠdomÃ©st":7074,"DescriÃ§Ã£o":7075,"Ġarmas":7076,"ĠOc":7077,"Ġinterno":7078,"Ġeficaz":7079,"Ġdescul":7080,"ĠtransferÃªncia":7081,"ĠDistrito":7082,"Ġvisa":7083,"Ġaprendizagem":7084,"Ġruim":7085,"fund":7086,"Ġdevol":7087,"Ġsuger":7088,"Ġencontrado":7089,"ĠcontrataÃ§Ã£o":7090,"Ġutiliza":7091,"Ġhttps":7092,"cool":7093,"ĠMeio":7094,"ricas":7095,"ĠNasc":7096,"Ġdesl":7097,"ĠprevisÃ£o":7098,"ĠProfessor":7099,"Ġsurpresa":7100,"ĠcomparaÃ§Ã£o":7101,"ĠelaboraÃ§Ã£o":7102,"Ġacreditar":7103,"Ġtorc":7104,"ĠconfortÃ¡vel":7105,"eio":7106,"ĠNet":7107,"Ġcolaboradores":7108,"Ġchin":7109,"Ġpersonalidade":7110,"iciÃ¡rio":7111,"ĠMinha":7112,"ĠAmeric":7113,"ogia":7114,"Ã¢nd":7115,"Ġamericano":7116,"ulados":7117,"Ã¢neo":7118,"OG":7119,"Ãµem":7120,"Ġjustamente":7121,"ĠcidadÃ£o":7122,"Ġbela":7123,"Ġcaiu":7124,"Ġconquista":7125,"Ġcolegas":7126,"Ġassumir":7127,"espera":7128,"aba":7129,"pto":7130,"ulto":7131,"Ġinqu":7132,"Ġagente":7133,"Ġcot":7134,"Ġvib":7135,"ĠLet":7136,"Ġrever":7137,"ĠcontÃŃn":7138,"Ġexcesso":7139,"ĠComÃ©rcio":7140,"Ġperspectiva":7141,"ĠFisc":7142,"urou":7143,"ĠÅ":7144,"Ġconferir":7145,"ĠFestival":7146,"ĠJun":7147,"Ġencom":7148,"Ġdiariamente":7149,"ĠimplantaÃ§Ã£o":7150,"ross":7151,"icais":7152,"anato":7153,"Ġdispositivo":7154,"Ġtabela":7155,"ĠSr":7156,"ĠcomposiÃ§Ã£o":7157,"Ġescritor":7158,"Ġcorrer":7159,"ĠtÃŃp":7160,"Ġrequisitos":7161,"NÃ³s":7162,"ĠSp":7163,"Ġchegando":7164,"46":7165,"Ġcomemora":7166,"Ġintelec":7167,"Ġadquirir":7168,"ansÃ£o":7169,"Ã³log":7170,"ĠdÃ©cadas":7171,"Ġpercent":7172,"ĠAmor":7173,"Ġileg":7174,"Ġtarefas":7175,"Ġpedra":7176,"Ġefetu":7177,"ires":7178,"Ġpersegu":7179,"ĠcondomÃŃnio":7180,"95":7181,"ĠSaiba":7182,"sex":7183,"Ġgastos":7184,"ute":7185,"Ãºlt":7186,"Un":7187,"Ġvitam":7188,"ĠWill":7189,"Ġerrado":7190,"Per":7191,"ĠMartins":7192,"Ġvara":7193,"sho":7194,"Ġmelhoria":7195,"Ġeficiente":7196,"Ġindicado":7197,"ĠcritÃ©rios":7198,"essos":7199,"97":7200,"martp":7201,"gueira":7202,"Ġdirecion":7203,"Ġfamoso":7204,"Ġcontempl":7205,"ĠprÃ©dio":7206,"Ġfluxo":7207,"ĠDiss":7208,"ĠamanhÃ£":7209,"Ġpermanente":7210,"fin":7211,"Ġaprovado":7212,"ĠOf":7213,"ĠindivÃŃduo":7214,"ĠMaranhÃ£o":7215,"ĠtraduÃ§Ã£o":7216,"Ġencant":7217,"Ġrs":7218,"ĠPass":7219,"Ġespor":7220,"Ġpedidos":7221,"ĠPaulista":7222,"Ġavi":7223,"Ġteatro":7224,"ĠEconÃ´m":7225,"enco":7226,"TER":7227,"Ġestabelecer":7228,"ĠIndust":7229,"acho":7230,"Ġpoucas":7231,"ĠmÃ©todos":7232,"hi":7233,"Ġprot":7234,"ĠvotaÃ§Ã£o":7235,"Ġdefender":7236,"Ġexistentes":7237,"ĠprÃªmio":7238,"Ġchar":7239,"ĠMarcos":7240,"ĠAcho":7241,"Ġesporte":7242,"Ġbarra":7243,"Ġantigos":7244,"Ġpalest":7245,"Ġaguard":7246,"Ġjap":7247,"Ġbonito":7248,".)":7249,"Ġexpres":7250,"Ġexige":7251,"ĠcÃ³p":7252,"meida":7253,"Ġpedag":7254,"Ã©us":7255,"onha":7256,"Ġatuar":7257,"Ġsp":7258,"Ġbrit":7259,"Ġvisando":7260,"ĠTrabalh":7261,"ĠUs":7262,"ĠespecÃŃfico":7263,"ĠJapÃ£o":7264,"Ġdaqueles":7265,"ratos":7266,"Ġinfluenc":7267,"ĠclÃ¡ssico":7268,"Ġquebra":7269,"Ġpreench":7270,"uÃ¡rio":7271,"alizaÃ§Ãµes":7272,"Ã©ditos":7273,"Ġpropriedades":7274,"arca":7275,"Ġparede":7276,"uri":7277,"Ġfrase":7278,"Ġtrouxe":7279,"ĠBern":7280,"Ġvert":7281,"endes":7282,"Ġmostrando":7283,"Ġfornecer":7284,"erada":7285,"ĠPernambuco":7286,"Ġcompromet":7287,"ĠHorizonte":7288,"ĠFoto":7289,"Ġperante":7290,"Ġcomponentes":7291,"ĠCertificada":7292,"Ġdesm":7293,"Ġexemplos":7294,"Ġesgo":7295,"Ġgram":7296,"Ġchocol":7297,"Ġsurgiu":7298,"rinho":7299,"Ġobriga":7300,"Ġfator":7301,"Ġcontrolar":7302,"ĠindivÃŃduos":7303,"ÃĬNCIA":7304,"entam":7305,"Ġmudou":7306,"Ġcarteira":7307,"Ġestudante":7308,"Ġanuncia":7309,"Ġmorreu":7310,"Ġdout":7311,"itÃ£o":7312,"ĠcompreensÃ£o":7313,"ĠMÃ©d":7314,"ĠcurrÃŃc":7315,"Ġcorreta":7316,"ĠMach":7317,"Ġ33":7318,"ĠdormitÃ³rios":7319,"Ġescrav":7320,"Ġfeminino":7321,"Car":7322,"Ġimpostos":7323,"quei":7324,"unÃ§Ã£o":7325,"queira":7326,"ĠdÃ³lares":7327,"ĠTemos":7328,"Ġconsiderar":7329,"ovos":7330,"ĠGabri":7331,"ĠAR":7332,"ford":7333,"roc":7334,"ĠPelo":7335,"esia":7336,"Desde":7337,"ĠrazÃµes":7338,"Ġportal":7339,"ĠBon":7340,"Ġingredientes":7341,"ĠWal":7342,"Ġirreg":7343,"ntemente":7344,"EntÃ£o":7345,"Ġnerv":7346,"ĠPsic":7347,"ĠEr":7348,"unes":7349,"Ġinfraestrutura":7350,"ĠQ":7351,"imidade":7352,"ĠpÃ´":7353,"ivado":7354,"Ġnotar":7355,"ĠSobre":7356,"bas":7357,"Ġded":7358,"ĠLuz":7359,"ĠcontribuiÃ§Ã£o":7360,"łĢ":7361,"ĠâĨĴ":7362,"terapia":7363,"urado":7364,"Ġatriz":7365,"ĠExecutivo":7366,"Ġpositivo":7367,"Ġsimilar":7368,"ĠPÃ¡g":7369,"Ġu":7370,"Ġcirurgia":7371,"Ġsujeito":7372,"RU":7373,"ciso":7374,"Ġidio":7375,"ĠeletrÃ´nico":7376,"inente":7377,"Ġcampeonato":7378,"Ġ150":7379,"okies":7380,"Ġdownload":7381,"Ġpiloto":7382,"ĠData":7383,"Ġtomada":7384,"Ġtopo":7385,"Ġalg":7386,"65":7387,"Ġtransfer":7388,"Ġrapaz":7389,"rativas":7390,"Ġvul":7391,"Ġsegundos":7392,"ĠpotÃªncia":7393,"ao":7394,"ĠEvang":7395,"Ġrob":7396,"Ġpoderiam":7397,"Ã©rcito":7398,"orou":7399,"Ġmodalidade":7400,"ĠArm":7401,"Ġcanais":7402,"Ġsing":7403,"Ġdesloc":7404,"Ġpasta":7405,"dont":7406,"ĠFÃŃsica":7407,"Ġobservar":7408,"Ġsemestre":7409,"ĠestarÃ£o":7410,"Ġvidro":7411,"erd":7412,"ĠSom":7413,"Ãªncio":7414,"ĠcÃ¢mbio":7415,"ĠServ":7416,"ĠArtes":7417,"ĠprofissÃ£o":7418,"Ġelevado":7419,"Ġdiscutir":7420,"ĠRibeiro":7421,"Ð½":7422,"Ġexpos":7423,"ĠcÃ©lulas":7424,"ĠAutor":7425,"Ġarra":7426,"ĠidÃ©ia":7427,"ĠpÃ³":7428,"ĠFa":7429,"ĠRodrigo":7430,"ĠBÃŃblia":7431,"ĠExcel":7432,"ĠBus":7433,"ille":7434,"Ġassociados":7435,"Isso":7436,"Ġaplicativos":7437,"feta":7438,"Ġcabo":7439,"Ġpolicial":7440,"Ġcadeia":7441,"ioca":7442,"Ġagress":7443,"Ġgostoso":7444,"ĠPortuguesa":7445,"Ġespero":7446,"ny":7447,"engo":7448,"Ġamost":7449,"Ã©trica":7450,"Ġprocurando":7451,"âĢĶ":7452,"ĠDecreto":7453,"Ġmis":7454,"Ġalerta":7455,"Ġfed":7456,"ĠFÃ³rum":7457,"essÃµes":7458,"Ġaper":7459,"ĠAD":7460,"ĠAli":7461,"ĠPraÃ§a":7462,"Ġofertas":7463,"Ġcresce":7464,"Ġabordagem":7465,"Ġcong":7466,"radores":7467,"Ġlixo":7468,"ncios":7469,"Ġconsiste":7470,"Ġplanta":7471,"47":7472,"?!":7473,"ĠSÃ©r":7474,"ĠvÃ¡":7475,"Ġcircun":7476,"vore":7477,"Ġorient":7478,"Ġradic":7479,"adinha":7480,"Ġplaca":7481,"rante":7482,"ĠcapÃŃtulo":7483,"ĠinclusÃ£o":7484,"ĠalmoÃ§o":7485,"ĠCA":7486,"Ġespecializada":7487,"book":7488,"Ãºne":7489,"Ġadmit":7490,"Ġestrelas":7491,"ĠDis":7492,"ADO":7493,"Ã§al":7494,"Ġdisposto":7495,"Ãºssia":7496,"Ġconsegui":7497,"Ġproporcionar":7498,"ĠdaÃŃ":7499,"ĠSch":7500,"ĠFazenda":7501,"inf":7502,"icaÃ§Ã£o":7503,"Ġdesenvolve":7504,"ĠatualizaÃ§Ã£o":7505,"Ġfacilidade":7506,"ĠCaixa":7507,"Ġemag":7508,"ĠÃ³b":7509,"ecido":7510,"Ġcapa":7511,"ĠiluminaÃ§Ã£o":7512,"Ġ195":7513,"ĠTodas":7514,"Ġenvolve":7515,"Ġenvolvidos":7516,"Ġdisponibilidade":7517,"âĢĻ,":7518,"rÃ³leo":7519,"Ġabertas":7520,"ĠlanÃ§ou":7521,"ĠFamÃŃlia":7522,"laÃ§Ã£o":7523,"Ġang":7524,"Ġcampos":7525,"illa":7526,"ĠAndroid":7527,"onstru":7528,"Ġarma":7529,"Ġmaravilhoso":7530,"iona":7531,"Ġdecidir":7532,"ĠEscolar":7533,"tivamente":7534,"ĠUrb":7535,"ĠMuseu":7536,"Ġfomos":7537,"ĠpaixÃ£o":7538,"ĠLatina":7539,"icada":7540,"...]":7541,"laterra":7542,"ĠNesta":7543,"ĠfÃŃsicas":7544,"Ġterceiros":7545,"ernos":7546,"Ġexpor":7547,"we":7548,"urais":7549,"Ġbaseado":7550,"Ġfrutas":7551,"Ġacerca":7552,"Ġgostei":7553,"Outra":7554,"ĠEstÃ¡":7555,"ĠAdv":7556,"Ġjapon":7557,"Ġponta":7558,"Ġcancel":7559,"Ġadequado":7560,"ĠJogos":7561,"Ġchurras":7562,"ĠSel":7563,"Ġexclu":7564,"ĠreligiÃ£o":7565,"mm":7566,"Ġgaragem":7567,"Ġessenciais":7568,"ĠreflexÃ£o":7569,"Ġale":7570,"Ġtel":7571,"ĠEstudos":7572,"Ġcomplexo":7573,"opes":7574,"Nesta":7575,"ĠExper":7576,"Ġresul":7577,"ĠcomeÃ§aram":7578,"Ġdivulgar":7579,"Ġdoce":7580,"ĠcientÃŃfica":7581,"Ġsequer":7582,"rist":7583,"Ġth":7584,"ĠHer":7585,"ĠsÃ©rio":7586,"oss":7587,"ĠfrancÃªs":7588,"ĠsuperfÃŃcie":7589,"ificou":7590,"Ġrodada":7591,"ioc":7592,"ĠÃºteis":7593,"ĠDiÃ¡rio":7594,"uba":7595,"Ġmostram":7596,"Ã³i":7597,"ĠinteligÃªncia":7598,"ĠlÃŃderes":7599,"Ġmandato":7600,"Ġconvoc":7601,"Ġprodutores":7602,"ari":7603,"Ġconjuntamente":7604,"itcoin":7605,"ubes":7606,"ientÃŃf":7607,"lado":7608,"Ġdil":7609,"ilhar":7610,"LE":7611,"Ã§ou":7612,"Ġautomaticamente":7613,"Ġescala":7614,"ĠAlmeida":7615,"Ġconcorre":7616,"ĠRei":7617,"Ġaventura":7618,"ĠirmÃ£":7619,"entÃ¡rio":7620,"Ġprivado":7621,"nch":7622,"ĠSTF":7623,"ĠEX":7624,"andes":7625,"ĠBro":7626,"IR":7627,"ĠAT":7628,"ĠLogo":7629,"pes":7630,"ouro":7631,"ĠCultural":7632,"88":7633,"ĠMendes":7634,"ĠassociaÃ§Ã£o":7635,"Ġmanual":7636,"Ġcausas":7637,"Ġreper":7638,"ĠEstat":7639,"Ġengenharia":7640,"Ġli":7641,"Ġdigitais":7642,"ĠlanÃ§ar":7643,"ĠDesc":7644,"Ġseguindo":7645,"44":7646,"Ġdeus":7647,"Ġcoro":7648,"ĠLic":7649,"ĠProd":7650,"Ġcriatividade":7651,"Ġagir":7652,"ĠtransformaÃ§Ã£o":7653,"ĠNordeste":7654,"Ġator":7655,"Ġregional":7656,"ĠAust":7657,"Ġje":7658,"Ġorden":7659,"Â´":7660,"Ġinstrumentos":7661,"Ġhidra":7662,"Ġmental":7663,"Ġseriam":7664,"Ġplan":7665,"ĠQuanto":7666,"Ġcurta":7667,"ĠdiferenÃ§as":7668,"Ġsemelhante":7669,"Ġchuv":7670,"Ġcantor":7671,"Ġterror":7672,"quete":7673,"Ġsorris":7674,"ĠMelhor":7675,"ÃŃtio":7676,"Ġfolhas":7677,"Ġculpa":7678,"ãĢ":7679,"Ġpopulares":7680,"ĠexpansÃ£o":7681,"ionÃ¡rio":7682,"ĠMÃºs":7683,"ĠArte":7684,"ĠBruno":7685,"ĠPes":7686,"Ġobject":7687,"Ġben":7688,"ĠtendÃªncias":7689,"ilares":7690,"Ġenvolvendo":7691,"Ġagenda":7692,"ĠRegul":7693,"Pa":7694,"ĠPop":7695,"75":7696,"ĠsalÃ¡rios":7697,"ĠAvenida":7698,"Ġsofrer":7699,"Ñģ":7700,"icleta":7701,"Ġpatroc":7702,"Ġmoderna":7703,"Ġadequada":7704,"ĠsalÃ£o":7705,"ĠsustentÃ¡vel":7706,"ĠEmpresa":7707,"ĠSport":7708,"avo":7709,"ĠTex":7710,"pet":7711,"ĠdÃŃvida":7712,"Ġnisso":7713,"Ġautora":7714,"site":7715,"ĠCompanh":7716,"Ġoficiais":7717,"ULO":7718,"Ġcompat":7719,"Ġfilosofia":7720,"ĠNorm":7721,"ĠpreparaÃ§Ã£o":7722,"Ġroteiro":7723,"Ġvivem":7724,"Ġdono":7725,"ĠprÃ³ximas":7726,"ÃŃncipe":7727,"ĠFic":7728,"Ġestabelecimento":7729,"Ġesport":7730,"Ġfundamentais":7731,"ivelmente":7732,"Ġarrecad":7733,"Ġafas":7734,"Ġpaga":7735,"Ġpermitem":7736,"fre":7737,"uÃŃ":7738,"ĠnegociaÃ§Ã£o":7739,"ĠEstamos":7740,"ĠProte":7741,"ĠHumanos":7742,"van":7743,"Ġcaro":7744,"ĠcompetÃªncia":7745,"tais":7746,"Ġbrilho":7747,"inadas":7748,"ĠoposiÃ§Ã£o":7749,"Ġmatar":7750,"Ġinterc":7751,"Ġenviado":7752,"ĠdiÃ¡logo":7753,"ĠBoa":7754,"ĠficarÃ¡":7755,"ĠBarra":7756,"Ġromance":7757,"Ġamericana":7758,"jÃ¡":7759,"........":7760,"Ġatras":7761,"ÑĢ":7762,"ebra":7763,"Ġfio":7764,"Ġorganizar":7765,"Ġran":7766,"Ġintroduz":7767,"ĠcÃ©re":7768,"ĠYou":7769,"...)":7770,"ld":7771,"ags":7772,"reiras":7773,"ĠComun":7774,"Ġtivemos":7775,"itudes":7776,"Ã§ando":7777,"________":7778,"Ġva":7779,"ĠCri":7780,"iria":7781,"Ġcarre":7782,"Ġfavo":7783,"Ã³logo":7784,"ĠFundo":7785,"Ġconvite":7786,"Ġparticipou":7787,"PC":7788,"ĠVen":7789,"',":7790,"orial":7791,"Ġfinais":7792,"ĠempresÃ¡rios":7793,"iologia":7794,"Ġprefeitura":7795,"ĠAmbiental":7796,"Ġcomposta":7797,"lamengo":7798,"ĠrevisÃ£o":7799,"ĠGa":7800,"Ġassinatura":7801,"ĠDissertaÃ§Ã£o":7802,"ĠSta":7803,"Ġexclusivo":7804,"Ġliqu":7805,"ĠPL":7806,"ĠfenÃ´m":7807,"ĠpÃ£o":7808,"ĠJer":7809,"ĠconcentraÃ§Ã£o":7810,"Ġmarcado":7811,"ĠvÃªm":7812,"rov":7813,"Ġpartidos":7814,"UC":7815,"Ġetapas":7816,"ĠBÃ¡s":7817,"ĠIV":7818,"part":7819,"Ġolha":7820,"cura":7821,"ĠChar":7822,"Ġ:)":7823,"Ã³dulo":7824,"ĠreuniÃµes":7825,"Ġindo":7826,"ÃģRIO":7827,"Ġbelo":7828,"Ġ2001":7829,"Ġtitular":7830,"UF":7831,"aborar":7832,"ĠExt":7833,"Ġcaminhos":7834,"ĠDeput":7835,"Ġcorreto":7836,"ĠFormaÃ§Ã£o":7837,"ĠanÃºncio":7838,"Ġmotorista":7839,"ĠEleitoral":7840,"ndro":7841,"ĠAir":7842,"Ġtrav":7843,"riqu":7844,"ĠFederaÃ§Ã£o":7845,"Ġadapt":7846,"item":7847,"Ġviaj":7848,"Ġtrabalhador":7849,"Ġpav":7850,"Ġtreino":7851,"Ġescolhe":7852,"ĠInglaterra":7853,"Ġconven":7854,"Ġfaculdade":7855,"ĠbÃ¡sico":7856,"ith":7857,"Ġpresos":7858,"ĠCrim":7859,"ĠOutros":7860,"Ã©dios":7861,"Im":7862,"berto":7863,"Ġconseguem":7864,"Ġdepo":7865,"ĠMc":7866,"ĠRet":7867,"Ġcen":7868,"Ġsmartp":7869,"ĠsÃ³l":7870,"Ġgest":7871,"Ġapresentados":7872,"Ġestruturas":7873,"Ġmerece":7874,"Tem":7875,"ĠVas":7876,"ĠAgu":7877,"ĠMichel":7878,"ĠParÃ¡":7879,"tantes":7880,"deia":7881,"GE":7882,"Ġprob":7883,"Ġmelhora":7884,"Ġinformar":7885,"Ġsignificado":7886,"ĠconexÃ£o":7887,"ĠemissÃ£o":7888,"Ġvisitas":7889,"ĠAte":7890,"Ġcantora":7891,"ĠpreferÃªncia":7892,"Ġuniversidade":7893,"Ġvento":7894,"Ġcans":7895,"ĠCampinas":7896,"kkkk":7897,"orrem":7898,"Ġgerais":7899,"Ġcostum":7900,"edas":7901,"urs":7902,"gress":7903,"Ġbuscando":7904,"ĠespecÃŃficos":7905,"Ġindividuais":7906,"avia":7907,"ĠConstru":7908,"ĠĠ":7909,"Ġcotid":7910,"Ġentregar":7911,"edoria":7912,"Ġcertos":7913,"Ġtroc":7914,"Oi":7915,"Ġgols":7916,"Ġabriu":7917,"Ġextraord":7918,"Ġemocional":7919,"Ġhabilidades":7920,"ĠNem":7921,"ĠBranco":7922,"ĠAtu":7923,"ĠES":7924,"Ġelog":7925,"ĠArgentina":7926,"Ã´nico":7927,"Ġassal":7928,"Sem":7929,"PP":7930,"ox":7931,"Ġcoluna":7932,"ĠFutebol":7933,"zar":7934,"Ġvereador":7935,"Ġconect":7936,"Ġmensal":7937,"Â».":7938,"resse":7939,"Ġrespira":7940,"ĠmÃŃnima":7941,"isos":7942,"Ġrepara":7943,"eco":7944,"ĠGoiÃ¡s":7945,"ĠMult":7946,"sui":7947,"Ġbranca":7948,"Ġpesquisadores":7949,"Ġcorrig":7950,"Ġprestar":7951,"Ġpista":7952,"Ġcoragem":7953,"],":7954,"top":7955,"Conf":7956,"ĠreÃºne":7957,"Ġrepresentante":7958,"ĠmilhÃ£o":7959,"Ġrecebido":7960,"ius":7961,"ĠRocha":7962,"vaÃ§Ãµes":7963,"ĠchÃ¡":7964,"OC":7965,"Ġinverno":7966,"Ġcomecei":7967,"Ġmetas":7968,"Ġpublicada":7969,"Ġsalas":7970,"atural":7971,"Ġproporciona":7972,"ĠtÃ³p":7973,"Ġequilib":7974,"Ãºdio":7975,"Ġaceita":7976,"ĠaÃ©re":7977,"ĠSantana":7978,"Ġmuda":7979,"Ġshows":7980,"ĠAnal":7981,"Ġtrocar":7982,"%)":7983,"ĠSÃ©rie":7984,"quiagem":7985,"Ġsed":7986,"Ġvideo":7987,"ĠdispÃµe":7988,"Ġsozinho":7989,"Ġescolhido":7990,"Ġenfim":7991,"Ġdores":7992,"Ã³gicas":7993,"ĠinterpretaÃ§Ã£o":7994,"ĠsuÃŃ":7995,"rindo":7996,"Ã§u":7997,"Ġamizade":7998,"ĠCR":7999,"Ġame":8000,"ĠPreto":8001,"ĠuniÃ£o":8002,"Ġvestido":8003,"ĠDocum":8004,"Ġluxo":8005,"ĠTalvez":8006,"ĠOrganizaÃ§Ã£o":8007,"Ġultrapass":8008,"Ġbonita":8009,"BR":8010,"ĠÃ¡rvores":8011,"Ġdependendo":8012,"Ġimagin":8013,"ĠbÃ¡sica":8014,"gado":8015,"Ġapresentada":8016,"Ãºnior":8017,"grad":8018,"Ġpref":8019,"tÃ³rios":8020,"Ġativos":8021,"ÃŃnios":8022,"ronomia":8023,"Ġelemento":8024,"ĠBot":8025,"ĠrepresentaÃ§Ã£o":8026,"Ġexclusiva":8027,"iter":8028,"Ġcachor":8029,"Ġrecolh":8030,"Jo":8031,"Ġexped":8032,"Cas":8033,"ĠPap":8034,"Po":8035,"Ġrast":8036,"ĠSon":8037,"Ġcontos":8038,"saÃ§Ãµes":8039,"ĠCatÃ³lica":8040,"Ġrique":8041,"ĠRÃºssia":8042,"Ġfort":8043,"ĠLondres":8044,"Ġrigor":8045,"Ġtocar":8046,"Ġedital":8047,"Ġprevista":8048,"Ġbro":8049,"Ġcostas":8050,"Ġhouver":8051,"Ġcere":8052,"ĠRafa":8053,"Ġengan":8054,"ty":8055,"ĠJuramentada":8056,"ĠObs":8057,"Ġmenino":8058,"ĠPrimeiro":8059,"Ã¡culos":8060,"Ġexplo":8061,"Ġdaqui":8062,"Ġimposto":8063,"Ġmulta":8064,"ĠComunidade":8065,"Ġabast":8066,"ĠcampeÃ£o":8067,"ĠEmpresas":8068,"ĠcÃ©rebro":8069,"iador":8070,"ĠmÃ¡s":8071,"Ġelenco":8072,"Ġcircunst":8073,"intas":8074,"TOS":8075,"Ġmerg":8076,"ĠApo":8077,"Ve":8078,"ĠcomeÃ§am":8079,"ĠcrÃŃticas":8080,"Ġassust":8081,"Ġmercados":8082,"Ġturno":8083,"Ġliter":8084,"85":8085,"anhe":8086,"Ġexpectativas":8087,"vert":8088,"Ġlinks":8089,"Ġporte":8090,"ester":8091,"rÃ©st":8092,"Ġgostar":8093,"ĠNunca":8094,"ESP":8095,"Enc":8096,"Ġpermitindo":8097,"Ġsalvar":8098,"Ġpago":8099,"Ġesquecer":8100,"CN":8101,"ĠCre":8102,"Ġexistir":8103,"Ġportugueses":8104,"Ġdiminuir":8105,"ĠGer":8106,"estas":8107,"Ġmanip":8108,"ĠPalav":8109,"Ġdemocr":8110,"Ġeleg":8111,"Ġconsiderando":8112,"rugada":8113,"Ġproduzido":8114,"ispo":8115,"Ġrespond":8116,"vÃ£o":8117,"rud":8118,"Ġ400":8119,"Ġfatura":8120,"96":8121,"ĠEduc":8122,"rif":8123,"ĠrecÃ©m":8124,"Ġsenador":8125,"iet":8126,"Ġacons":8127,"ĠUnidade":8128,"idel":8129,"ĠCidad":8130,"Ġestaria":8131,"Ãºrg":8132,"amentaÃ§Ã£o":8133,"Ġimpression":8134,"ĠEmbora":8135,"The":8136,"orld":8137,"Ġcorret":8138,"haha":8139,"Ġchocolate":8140,"Ġdiploma":8141,"ĠBaix":8142,"ĠEntretanto":8143,"Ġalimento":8144,"ĠcurrÃŃculo":8145,"Ġmm":8146,"Ġfolha":8147,"Ġchances":8148,"onial":8149,"ĠconservaÃ§Ã£o":8150,"Ãªmica":8151,"ĠControle":8152,"erve":8153,"Ġaltamente":8154,"Ġrecentes":8155,"Ġexecutivo":8156,"ĠdeficiÃªncia":8157,"ĠSA":8158,"Ġmanc":8159,"Ġfome":8160,"Ġmach":8161,"Ġentreg":8162,"Ġlevantamento":8163,"Ġajudam":8164,"Ġdetermina":8165,"Ġdeclarou":8166,"Ġpublicidade":8167,"ĠPenal":8168,"ĠProduto":8169,"ĠhotÃ©is":8170,"ĠesforÃ§os":8171,"Ġformado":8172,"ĠHistÃ³rico":8173,"Ġconto":8174,"ĠversÃµes":8175,"Ġalterar":8176,"ĠfÃ³rum":8177,"ĠAtualmente":8178,"BS":8179,"Ġterminar":8180,"ĠSob":8181,"âłĢ":8182,"rade":8183,"orde":8184,"rantes":8185,"itivamente":8186,"OV":8187,"Ġconform":8188,"Ġelet":8189,"Ġdizia":8190,"Ġacabam":8191,"ĠconsequÃªncias":8192,"Ġprodutividade":8193,"Ġparecia":8194,"mais":8195,"raram":8196,"ĠSÃ©rgio":8197,"Ġchef":8198,"ĠqualificaÃ§Ã£o":8199,"agar":8200,"obres":8201,"ics":8202,"ĠTempo":8203,"Ela":8204,"viam":8205,"ington":8206,"Ġfuncionar":8207,"Ġfruto":8208,"Ġmau":8209,"Ġfossem":8210,"vidos":8211,"ulte":8212,"Ġpreconc":8213,"Ġenvel":8214,"Ġhabitantes":8215,"Ġirregular":8216,"Ġorganizado":8217,"Ġdisput":8218,"Ã¢mbio":8219,"ĠAS":8220,"ĠexploraÃ§Ã£o":8221,"ĠcombinaÃ§Ã£o":8222,"Ġforem":8223,"Ġturma":8224,"Ġacusado":8225,"Ġfico":8226,"ml":8227,"nce":8228,"Ġaeroporto":8229,"Ġnorma":8230,"Ġobed":8231,"ĠespecÃŃfica":8232,"hamos":8233,"arecer":8234,"ĠTrata":8235,"ApresentaÃ§Ã£o":8236,"Ġvenceu":8237,"ood":8238,"Ġnaquela":8239,"Ġbru":8240,"ĠBarbosa":8241,"Ġliga":8242,"Ġreportagem":8243,"ĠNascimento":8244,"ĠÂ§":8245,"Ġfechar":8246,"Ġdaquela":8247,"indic":8248,"Ġgre":8249,"Ġsant":8250,"Ġbolo":8251,"Ġmunicipais":8252,"Ġperigo":8253,"Ġrevelou":8254,"Ġatac":8255,"Ġcolocado":8256,"ĠGost":8257,"Ġconhecidos":8258,"Ġsofrimento":8259,"Ġdeterminada":8260,"Ġinterf":8261,"Ġoperacional":8262,"Ġexecutar":8263,"Ġcontinuidade":8264,"Ġparceiro":8265,"Ġambientais":8266,"ĠhorÃ¡rios":8267,"ĠPalm":8268,"Ġempresarial":8269,"ĠAfinal":8270,"ĠaÃ§o":8271,"ingos":8272,"ĠatraÃ§Ãµes":8273,"Ġcentenas":8274,"ĠProduÃ§Ã£o":8275,"Ġtrem":8276,"Ġbateria":8277,"Ġnuv":8278,"ĠForam":8279,"ĠNA":8280,"edos":8281,"ĠdivisÃ£o":8282,"ĠhipÃ³tese":8283,"Ġdevo":8284,"49":8285,"Ġpensamentos":8286,".(":8287,"Ġintensidade":8288,"Ãªx":8289,"Ġcompor":8290,"Ġramo":8291,"ĠproprietÃ¡rio":8292,"ĠLopes":8293,"Ġdeputados":8294,"ĠAugu":8295,"guai":8296,"GRA":8297,"ĠCaval":8298,"Ġesperando":8299,"rido":8300,"ĠindÃŃg":8301,"enÃ§o":8302,"Ġcaminhada":8303,"Ġ$":8304,"essores":8305,"ĠjurÃŃdico":8306,"tadas":8307,"ĠespetÃ¡culo":8308,"Ġanual":8309,"ĠFeira":8310,"Ġcriando":8311,"ĠdÃª":8312,"Ġengenh":8313,"Ġfundos":8314,"Ġaltos":8315,"ĠResoluÃ§Ã£o":8316,"ĠcÃ¡lculo":8317,"Bom":8318,"ĠapresentaÃ§Ãµes":8319,"ĠLucas":8320,"UM":8321,"Ġby":8322,"ational":8323,"obiliÃ¡rio":8324,"ĠInstagram":8325,"ĠcolaboraÃ§Ã£o":8326,"Ġcomentar":8327,"ĠgraduaÃ§Ã£o":8328,"ĠPrevidÃªncia":8329,"Ġcertificado":8330,"Â®":8331,"Ġrea":8332,"gante":8333,"Ġprivileg":8334,"ĠSite":8335,"ĠinspiraÃ§Ã£o":8336,"ĠocorrÃªncia":8337,"Ġiniciou":8338,"uca":8339,"Ġentende":8340,"Ġreferente":8341,"Ġlateral":8342,"Ġimediato":8343,"BL":8344,"Ġterras":8345,"ĠProcura":8346,"Ġqueim":8347,"ĠOrdem":8348,"Ġperformance":8349,"inete":8350,"ĠcirculaÃ§Ã£o":8351,"Ġesclarec":8352,"Ġinforma":8353,"iversidade":8354,"ĠSerg":8355,"Ġras":8356,"Ġformar":8357,"Ġorigin":8358,"Ġpux":8359,"ĠDIA":8360,"Ġjanela":8361,"ĠGre":8362,"Ġpintura":8363,"ĠimplementaÃ§Ã£o":8364,"ĠPartido":8365,"Ġflag":8366,"Ġtop":8367,"Ġpretend":8368,"ĠmanifestaÃ§Ã£o":8369,"ĠPlay":8370,"ublado":8371,"Ġacabamento":8372,"ĠcobranÃ§a":8373,"ĠÃįnd":8374,"Ġminim":8375,"ĠCompanhia":8376,"inÃ§Ã£o":8377,"Ġencontros":8378,"ĠeconÃ³m":8379,"orro":8380,"ĠPia":8381,"rosoft":8382,"Ġvende":8383,"ĠresÃŃduos":8384,"ĠobrigaÃ§Ã£o":8385,"ider":8386,"Ġtrajet":8387,"ĠplÃ¡stico":8388,"paÃ§o":8389,"fl":8390,"Ġespecific":8391,"Ġconquistar":8392,"Ġcum":8393,"Ġindisp":8394,"Ġidenticamente":8395,"itÃª":8396,"ĠTwitter":8397,"......":8398,"Ġcomprimento":8399,"ilizar":8400,"Ã©ries":8401,"Ġcup":8402,"Ġalugu":8403,"ÃŃnas":8404,"Ġsenso":8405,"Ġescre":8406,"uaÃ§Ã£o":8407,"itivas":8408,"ĠvÃŃrus":8409,"real":8410,"Ġfinanceiras":8411,"Ġmete":8412,"ples":8413,"ravÃ©s":8414,"ustent":8415,"ĠPan":8416,"Ġacidentes":8417,"Ġreconhecer":8418,"Ġfras":8419,"Estou":8420,"500":8421,"ÃĤ":8422,"ĠMov":8423,"ĠincÃªnd":8424,"ĠSistemas":8425,"Ġaer":8426,"Ã©ias":8427,"Ġarquitetura":8428,"ĠÃ¡c":8429,"ÃŃdios":8430,"ĠDoutor":8431,"OD":8432,"ĠAmazonas":8433,"ĠCientÃŃf":8434,"ĠEsses":8435,"istou":8436,"ĠBand":8437,"ĠexcelÃªncia":8438,"ĠTeatro":8439,"Ġoferecem":8440,"ĠaparÃªncia":8441,"ĠinÃºmeras":8442,"ĠNeto":8443,"Ġabsur":8444,"ĠTodo":8445,"ĠJuv":8446,"ĠemoÃ§Ãµes":8447,"Ġcampanhas":8448,"ĠIb":8449,"Ġdigo":8450,"Ġatleta":8451,"Ġperfeitamente":8452,"Ġnatal":8453,"och":8454,"bios":8455,"Ġintuito":8456,"feita":8457,"Ġincluem":8458,"ĠEconomia":8459,"ases":8460,"Ġdiversidade":8461,"cal":8462,"Ġtras":8463,"eder":8464,"Ġeditor":8465,"eij":8466,"Ġvergon":8467,"Ġautoria":8468,"Ġfelizes":8469,"Ġgeneral":8470,"Ġanteriormente":8471,"Ġmortos":8472,"ĠMatemÃ¡tica":8473,"Antes":8474,"ĠImp":8475,"ota":8476,"imenta":8477,"ĠprevÃª":8478,"Ġintegrantes":8479,"Ġfornecedores":8480,"Ġcop":8481,"Ġlivres":8482,"Ġpenal":8483,"ĠAplic":8484,"Ġespecialment":8485,"iquem":8486,"Caso":8487,"ijo":8488,"ĠmÃ¡g":8489,"Ġemisso":8490,"ĠAvaliaÃ§Ã£o":8491,"Ġsurge":8492,"Ġtarif":8493,"Ġpercurso":8494,"41":8495,"ribuiÃ§Ã£o":8496,"Ġgesta":8497,"cÃ£o":8498,"ĠMulher":8499,"Ser":8500,"Ġplena":8501,"ĠLeon":8502,"Ġconversar":8503,"Ġmaravilhosa":8504,"Ġpalestras":8505,"ĠJÃºnior":8506,"iane":8507,"Ġescond":8508,"ilson":8509,"Ġcamisa":8510,"itÃ¡vel":8511,"heÃ§o":8512,"BC":8513,"ITA":8514,"Ġdesfrut":8515,"doras":8516,"Ġfinanceiros":8517,"ĠcaracterÃŃstica":8518,"ĠQuer":8519,"Ġ75":8520,"Ġdentes":8521,"Ġcenas":8522,"ĠAma":8523,"Ġabus":8524,"ĠAlexandre":8525,"Ġhigi":8526,"ĠFran":8527,"ĠAbra":8528,"ĠindicaÃ§Ã£o":8529,"ĠIlha":8530,"Ġaparelhos":8531,"Ġcookies":8532,"ĠCla":8533,"Ġinfin":8534,"ĠdocumentaÃ§Ã£o":8535,"Ġnesses":8536,"Ġprotocol":8537,"Ġchegaram":8538,"ĠdenÃºncia":8539,"entada":8540,"Ġpostos":8541,"Ġadolescente":8542,"ĠMercado":8543,"SÃ³":8544,"Ġmandar":8545,"ĠsilÃªncio":8546,"lin":8547,"ĠNosso":8548,"Ġfot":8549,"Ġtrecho":8550,"xico":8551,"Ġmorrer":8552,"ultado":8553,"Ġexperimentar":8554,"ĠLemb":8555,"Ãºltip":8556,"ĠprejuÃŃzo":8557,"Ġcerveja":8558,"ĠformulÃ¡rio":8559,"ĠContudo":8560,"net":8561,"ĠProfissional":8562,"by":8563,"Ġmencion":8564,"ĠBer":8565,"Ġrelativamente":8566,"Ġguer":8567,"Ġcompanhias":8568,"ĠanÃºncios":8569,"ilde":8570,"ĠÃĥ":8571,"ĠHomem":8572,"EX":8573,"eck":8574,"Ġpris":8575,"Ġtb":8576,"Ġpacote":8577,"Ġpratos":8578,"ĠSociais":8579,"64":8580,"âĢĭ":8581,"Ġestacionamento":8582,"ĠVitÃ³ria":8583,"Ġvenha":8584,"Ġunif":8585,"Ġacontecendo":8586,"Ġconselho":8587,"leos":8588,"Ġtrabalham":8589,"usse":8590,"Ġamplo":8591,"inhar":8592,"ĠinvÃ©s":8593,"ĠauxÃŃlio":8594,"Ġfrutos":8595,"ĠAÃ§Ã£o":8596,"Ġpoderes":8597,"PI":8598,"Ġdemas":8599,"Ġcandidatura":8600,"Ġmontagem":8601,"Ð¾Ð":8602,"Ġdatas":8603,"Ġgradu":8604,"ĠRevista":8605,"Ġligado":8606,"Ġacompanhado":8607,"Ġsustentabilidade":8608,"ĠDavid":8609,"Ġalcance":8610,"ĠfÃ¡brica":8611,"Ġcoletiva":8612,".âĢĵ":8613,"Ġcomet":8614,"ĠBlack":8615,"ingo":8616,"Ġpred":8617,"ernador":8618,"Ġdefend":8619,"ĠÂ·":8620,"Ġpobres":8621,"Ġchamou":8622,"ĠPac":8623,"Ġacion":8624,"ĠJov":8625,"Ġgerenciamento":8626,"Ġdit":8627,"ĠCabo":8628,"Ġproxim":8629,"atou":8630,"ĠVieira":8631,"Ġonda":8632,"Ġ55":8633,"ãĤ":8634,"ĠSof":8635,"Ġensinar":8636,"ativamente":8637,"ĠClaro":8638,"Ġsenha":8639,"Ġlist":8640,"iat":8641,"ĠVo":8642,"ernas":8643,"ĠfazÃª":8644,"Ġ39":8645,"ĠÃ©tica":8646,"ĠIC":8647,"Ġbarato":8648,"ĠMonte":8649,"ĠFernandes":8650,"ĠedifÃŃcio":8651,"icÃŃdio":8652,"Ġpromove":8653,"parÃªncia":8654,"PL":8655,"ĠJur":8656,"Ġdivulgado":8657,"Ġinfelizmente":8658,"estres":8659,"pont":8660,"ĠAntÃ³nio":8661,"ĠPRE":8662,"Outro":8663,"Ġdetec":8664,"Ġuse":8665,"ĠsugestÃµes":8666,"ĠEletrÃ´n":8667,"Ġanex":8668,"Ġmorto":8669,"Ġlucro":8670,"Ġprojecto":8671,"Ġreje":8672,"Ġdespre":8673,"far":8674,"Ġpend":8675,"Ġproje":8676,"Ġmetal":8677,"Ġpassageiros":8678,"ĠEc":8679,"Ġpernas":8680,"Ġclicar":8681,"ĠAcred":8682,"Ġcomputadores":8683,"Ġalternativas":8684,"ilÃ£o":8685,"Ġcarnaval":8686,"Ġmadrugada":8687,"amo":8688,"Ġgay":8689,"Ġhonra":8690,"ĠPost":8691,"Ġclim":8692,"ings":8693,"Ġrevest":8694,"ĠestÃ¡gio":8695,"Ġend":8696,"Ġsag":8697,"Ġprodutor":8698,"Ġcoloque":8699,"lhes":8700,"ĠDen":8701,"ENTA":8702,"ejo":8703,"Ġutilizadas":8704,"ĠFlamengo":8705,"Ġcompens":8706,"usc":8707,"77":8708,"VD":8709,"imp":8710,"rip":8711,"adeiras":8712,"Ġsofist":8713,"AG":8714,"dios":8715,"arte":8716,"ĠCAR":8717,"Ġdestinado":8718,"Ġaplica":8719,"cond":8720,"Ġaco":8721,"Ġpraias":8722,"ĠemprÃ©st":8723,"Ġconsiderados":8724,"ĠpatrimÃ´nio":8725,"Ġconflitos":8726,"Ġtrim":8727,"ĠbraÃ§os":8728,"Ġinteligente":8729,"ĠÃ¡rvore":8730,"Geral":8731,"Ġvemos":8732,"Ġcusta":8733,"Ġrico":8734,"Ãºmeros":8735,"Col":8736,"Ġabrang":8737,"Ġconfer":8738,"Ġentregue":8739,"ulhos":8740,"Ġencontrou":8741,"Ġrefle":8742,"Ġregistros":8743,"Ġfechado":8744,"ĠAll":8745,"Ġinden":8746,"ĠdiÃ¡ria":8747,"Ġdescoberta":8748,"ĠcristÃ£os":8749,"ĠlÃŃquido":8750,"can":8751,"Ġcertificada":8752,"CON":8753,"vie":8754,"ĠQualidade":8755,"Ġpermanece":8756,"ĠpetrÃ³leo":8757,"ĠEuropeia":8758,"ĠTraducao":8759,"Ġgarraf":8760,"vin":8761,"Ġouvido":8762,"Ġrecicl":8763,"Ġestranho":8764,"Ġfamosa":8765,"Ġmapa":8766,"ĠLar":8767,"izaÃ§Ãµes":8768,"Mestrado":8769,"ĠEnergia":8770,"Ġapoiar":8771,"Ġesque":8772,"ÃŃz":8773,"Ġempreendedor":8774,"ĠfabricaÃ§Ã£o":8775,"Ġvendo":8776,"Ġpositiva":8777,"ĠBarros":8778,"ĠreaÃ§Ã£o":8779,"oga":8780,"Ġsolicitar":8781,"iÃº":8782,"ĀĀ":8783,"ĠSara":8784,"Ġcicl":8785,"ĠInglÃªs":8786,"ĠRem":8787,"Ġinteira":8788,"ĠMuitas":8789,"Ġagradecer":8790,"Ġabsolut":8791,"Ġpainel":8792,"Ġretirar":8793,"Ġsuperiores":8794,"trizes":8795,"ĠCunha":8796,"Ġativa":8797,"Ġencara":8798,"ĠcombustÃŃvel":8799,"68":8800,"ĠmÃ£es":8801,"Ġexterna":8802,"eladas":8803,"Ġges":8804,"Ġcaptura":8805,"Ġdevidamente":8806,"ĠRecife":8807,"Ġlanc":8808,"Ġconter":8809,"assem":8810,"Ġpecado":8811,"ĠJoa":8812,"Ġempregados":8813,"mÃ£o":8814,"ĠMÃ©":8815,"Ġapropri":8816,"igual":8817,"Ġmestre":8818,"Ġgratuita":8819,"ĠPapa":8820,"ĠTele":8821,"ĠcÃ¢mera":8822,"Ġfrag":8823,"ĠEp":8824,"Ġforno":8825,"doso":8826,"Ġrumo":8827,"Ġcontinuam":8828,"Ġensa":8829,"Ġcreme":8830,"ĠTab":8831,"ue":8832,"Ġclubes":8833,"Ġembalagem":8834,"Ġaprendizado":8835,"Ġtempor":8836,"formas":8837,"Ġpolit":8838,"Ġlutar":8839,"ĠMAR":8840,"Ġgovernos":8841,"Ġletras":8842,"Ġdesenhos":8843,"Ġpaulista":8844,"ĠmÃ³vel":8845,"Ġvias":8846,"Ġdesempre":8847,"Ã¡mos":8848,"Ġagend":8849,"ĠdiÃ¡rio":8850,"Ġenvia":8851,"ĠInformaÃ§Ãµes":8852,"Ġmercador":8853,"Ġacomod":8854,"ĠespecÃŃficas":8855,"ĠShopping":8856,"ĠPens":8857,"oce":8858,"Ġobrigada":8859,"Ġdr":8860,"ĠRÃ¡dio":8861,"ĠComercial":8862,"ĠImÃ³veis":8863,"Ġatitudes":8864,"ranÃ§as":8865,"ĠcartÃµes":8866,"Ġescap":8867,"Ġmultip":8868,"Ġrecuperar":8869,"Ġgab":8870,"ĠOuro":8871,"Ġretirada":8872,"Ġpil":8873,"Ġevolu":8874,"Publicado":8875,"atico":8876,"Ġvelha":8877,"Ġanteced":8878,"Ġdescontos":8879,"42":8880,"Estamos":8881,"Ġdesejar":8882,"Ġ42":8883,"Ġbur":8884,"ĠOnde":8885,"Ġresist":8886,"ĠParaÃŃba":8887,"Ġconcreto":8888,"Lei":8889,"Ġparlamentar":8890,"ndepend":8891,"Ġgraves":8892,"Ġmontar":8893,"omo":8894,"Ġdiab":8895,"Ġmarcada":8896,"Ġbebidas":8897,"ey":8898,"ĠbÃŃbl":8899,"Ġcolocou":8900,"ĠfÃ³rmula":8901,"Ġadministrativa":8902,"ĠCapital":8903,"Ġansiedade":8904,"udou":8905,"riais":8906,"Ġlevado":8907,"ĠManuel":8908,"Ġrus":8909,"Ġprofunda":8910,"Ġpouca":8911,"Ġvizinhos":8912,"Ġpostura":8913,"Ġaposta":8914,"ĠministÃ©rio":8915,"Ġtestemun":8916,"ĠNome":8917,"Ġconstitucional":8918,"ituais":8919,"ĠpraÃ§a":8920,"aturas":8921,"Ġante":8922,"irme":8923,"Ġcertas":8924,"paro":8925,"ĠMira":8926,"ĠconcessÃ£o":8927,"ĠdinÃ¢mica":8928,"ĠagrÃŃc":8929,"ield":8930,"Ġsegredo":8931,"Ġderam":8932,"Ġsabendo":8933,"ĠRecursos":8934,"Ġdezenas":8935,"Ġchegam":8936,"ted":8937,"ĠRJ":8938,"Ġrecebem":8939,"grÃ¡fica":8940,"fice":8941,"Ġdescobri":8942,"ĠCastro":8943,"ĠPlanejamento":8944,"ĠReceita":8945,"Ġlac":8946,"Ġsofreu":8947,"Ġqueix":8948,"ĠEstes":8949,"Ġnamorado":8950,"ĠEncontro":8951,"Ã¢nicos":8952,"ĠcÃ¢mara":8953,"Ġacost":8954,"Ġadvogados":8955,"DES":8956,"ilÃ¢ncia":8957,"Ġlados":8958,"Ġincomp":8959,"Ġrespectivamente":8960,"Ġpovos":8961,"ĠIndustrial":8962,"Ġaponta":8963,"Ġparecem":8964,"Ġoferecendo":8965,"Ġfalamos":8966,"ĠcalendÃ¡rio":8967,"Ġcoletivo":8968,"Ġpratica":8969,"ĠameaÃ§a":8970,"itante":8971,"gueiro":8972,"Ġpermanecer":8973,"Ġparedes":8974,"ĠIndÃºstria":8975,"Ġrecorre":8976,"Ġdeixam":8977,"ĠContra":8978,"Ġtreinador":8979,"ĠfotÃ³":8980,"iras":8981,"Ġpron":8982,"Ġmedicina":8983,"Ġmarcou":8984,"Ġtentou":8985,"Ġformada":8986,"Ġ120":8987,"gaÃ§Ã£o":8988,"Ġentretanto":8989,"Ġencontrei":8990,"Ġprevent":8991,"Ġcos":8992,"urgo":8993,"Ġencar":8994,"ĠÃŃc":8995,"anÃ§os":8996,"Ġpoesia":8997,"inop":8998,"ĠPaula":8999,"Ġampliar":9000,"Ġconflito":9001,"ĠVara":9002,"Ġdefinido":9003,"ĠZona":9004,"Ġconec":9005,"Ġusadas":9006,"Ġtratamentos":9007,"Ġtemp":9008,"Ġsorriso":9009,"Ġprecisamente":9010,"Ġzero":9011,"eramente":9012,"ĠÃ¡udio":9013,"Ġcoleta":9014,"Ġbloc":9015,"ovaÃ§Ã£o":9016,"Ġataques":9017,"Ġpura":9018,"Ġobserva":9019,"Int":9020,"2010":9021,"43":9022,"etim":9023,"ĠMicrosoft":9024,"gÃ£o":9025,"ĠTim":9026,"Ġsold":9027,"jetos":9028,"ĠOperaÃ§Ã£o":9029,"AtÃ©":9030,"Ġtan":9031,"ĠAlto":9032,"ĠEspec":9033,"Ġefic":9034,"Ġambas":9035,"eixeira":9036,"Ġvinte":9037,"ĠXV":9038,"Ġnutric":9039,"ĠFunc":9040,"IVO":9041,"vem":9042,"Ġconfira":9043,"Ã¢mp":9044,"ĠhistÃ³rica":9045,"quÃª":9046,"Ġturistas":9047,"ĠHonor":9048,"ĠDal":9049,"Ã³f":9050,"Ġmig":9051,"ĠNic":9052,"Ġindire":9053,"ORMA":9054,"Ġgolpe":9055,"vers":9056,"Ġexag":9057,"ĠLag":9058,"Ġ65":9059,"ussÃµes":9060,"deiras":9061,"Ġdetalhe":9062,"way":9063,"ĠestÃ¡dio":9064,"Ġnela":9065,"ĠPreÃ§o":9066,"ĠdimensÃ£o":9067,"Ġtornam":9068,"Ed":9069,"61":9070,"ĠMestre":9071,"ĠDados":9072,"ebre":9073,"Ġcombina":9074,"ĠSEN":9075,"portar":9076,"ĠmanifestaÃ§Ãµes":9077,"Ġpne":9078,"Ġinjust":9079,"ubra":9080,"inthia":9081,"Ġpagamentos":9082,"Ġperdido":9083,"ĠfiscalizaÃ§Ã£o":9084,"ĠhÃ¡bitos":9085,"Ġteremos":9086,"ĠVan":9087,"Ġgravidez":9088,"ĠVou":9089,"Ġprato":9090,"Ġesquema":9091,"ĠdeterminaÃ§Ã£o":9092,"ĠAst":9093,"Aqui":9094,"Ġcombater":9095,"ĠElas":9096,"Ġusam":9097,"ĠlicenÃ§a":9098,"iti":9099,"Ġincluir":9100,"Ġvistas":9101,"egas":9102,"ĠVar":9103,"Ġaviso":9104,"ÃŃmica":9105,"Ãºlio":9106,"ĠRafael":9107,"dire":9108,"Ġareia":9109,"Quanto":9110,"ĠinteraÃ§Ã£o":9111,"Ã³lico":9112,"Ġaproveit":9113,"Ġinstalar":9114,"ĠÃ¡lcool":9115,"Ġadicionar":9116,"ĠlanÃ§a":9117,"Ġtol":9118,"ĠsÃŃmbolo":9119,"leto":9120,"ĠsuspensÃ£o":9121,"ĠSousa":9122,"GB":9123,"Ġhorm":9124,"ĠGara":9125,"Ġcoordenador":9126,"Ġpau":9127,"ificando":9128,"entados":9129,"aren":9130,"uas":9131,"hael":9132,"http":9133,"Ġfrust":9134,"ĠGabriel":9135,"Ġflor":9136,"unas":9137,"Ġmerec":9138,"Ġaplicada":9139,"Ġoral":9140,"Ġbe":9141,"ĠDES":9142,"Ġorgulho":9143,"retar":9144,"adÃ¡":9145,"Ġtido":9146,"Ġseca":9147,"Ġpratic":9148,"Ġjusto":9149,"Ġcouro":9150,"abilidades":9151,"ĠiPhone":9152,"Ġrepresentar":9153,"Ġrosa":9154,"vios":9155,"ĠEssas":9156,"Ã©cia":9157,"ĠFaÃ§a":9158,"ko":9159,"ĠreproduÃ§Ã£o":9160,"Ġpudesse":9161,"Ġlindas":9162,"TRO":9163,"Ã³dios":9164,"Ġbaseada":9165,"ĠÃģgua":9166,"ĠlÃ³gica":9167,"ĠSindicato":9168,"Ġadoro":9169,"GU":9170,"Ġestaduais":9171,"ĠparÃ¡":9172,"Ġrelevantes":9173,"Ġdeveriam":9174,"ĠopiniÃµes":9175,"ĠinstruÃ§Ãµes":9176,"Ġmata":9177,"Ġempreendimento":9178,"Â³":9179,"Ġconduta":9180,"Ġgastar":9181,"gen":9182,"tuais":9183,"Ġquerendo":9184,"ĠCriaÃ§Ã£o":9185,"TRA":9186,"Ġpassagens":9187,"Ġcentros":9188,"ĠtrajetÃ³ria":9189,"intos":9190,"Ġcron":9191,"Ġligar":9192,"Ġblogs":9193,"Ġquadros":9194,"ĠromÃ¢nt":9195,"inante":9196,"Ġadora":9197,"ĠAdo":9198,"Ġprogramatico":9199,"ĠFelipe":9200,"Ġtrilha":9201,"Ġafirmar":9202,"Ġdenunc":9203,"Ġconsag":9204,"ĠMachado":9205,"ĠTÃ©cnica":9206,"Ġidosos":9207,"Ġresumo":9208,"ĠAnÃ¡lise":9209,"ĠEsporte":9210,"BB":9211,"feiÃ§oamento":9212,"ĠAcomp":9213,"acÃªut":9214,"ĠCop":9215,"ĠWhat":9216,"Tudo":9217,"Ġprivacidade":9218,"ĠFonte":9219,"eccion":9220,"ÃĩA":9221,"ĠBatista":9222,"Ġ250":9223,"nal":9224,"ĠMuitos":9225,"ĠincrÃŃveis":9226,"ĠMÃºsica":9227,"Ġpropaganda":9228,"geral":9229,"ĠBlu":9230,"Ġdesn":9231,"iÃ¡vel":9232,"ĠGl":9233,"Ġparticiparam":9234,"den":9235,"Ġdeterminar":9236,"ĠsolicitaÃ§Ã£o":9237,"Ġimaginar":9238,"ĠCand":9239,"Ġgame":9240,"Ġbiol":9241,"ĠAgricultura":9242,"Ã©lio":9243,"Ġjornalistas":9244,"ĠPira":9245,"ĠBomb":9246,"ionÃ¡ria":9247,"ĠpercepÃ§Ã£o":9248,"ĠmÃºltip":9249,"Ġterminou":9250,"ĠatribuiÃ§Ãµes":9251,"Ġbatalha":9252,"Ġconseguimos":9253,"ĠCer":9254,"jado":9255,"ĠreferÃªncias":9256,"ĠconsideraÃ§Ã£o":9257,"Ġnovela":9258,"100":9259,"Ġresulta":9260,"Ġconcret":9261,"Ġcorpos":9262,"ĠJudiciÃ¡rio":9263,"fil":9264,"Ġporn":9265,"igaÃ§Ã£o":9266,"Ġcontendo":9267,"Ġfestival":9268,"inthians":9269,"Ġmantendo":9270,"ĠCou":9271,"Ġboc":9272,"Ġtamb":9273,"acos":9274,"ĠposiÃ§Ãµes":9275,"ĠperÃŃodos":9276,"Ġreunir":9277,"Ġfiscais":9278,"erados":9279,"Ġmaneiras":9280,"ĠTest":9281,"Ġader":9282,"Ġsupermerc":9283,"ĠEditora":9284,"igar":9285,"Ġartific":9286,"Ġcarb":9287,"Ġdefende":9288,"ĠUtiliz":9289,"ĠRog":9290,"Ã³lio":9291,"Ġimpedir":9292,"Ã¡qu":9293,"Ġdose":9294,"Ġprefere":9295,"Ġestabelece":9296,"fab":9297,"Ã³sp":9298,"ĠOutro":9299,"Ġnaturalmente":9300,"Ġacolh":9301,"Ġarrum":9302,"Ġfeminina":9303,"ĠPsicologia":9304,"ĠMec":9305,"ĠNegÃ³":9306,"ÃŃvio":9307,"Ġ[...]":9308,"TV":9309,"ĠJair":9310,"Ġfasc":9311,"ĠLiga":9312,"Ġ47":9313,"ĠSegunda":9314,"Ġdesport":9315,"Ġtes":9316,"Ġinex":9317,"Ġarbit":9318,"ĠDin":9319,"agas":9320,"Ġmarcar":9321,"izam":9322,"ĠdescriÃ§Ã£o":9323,"ward":9324,"Ġtecidos":9325,"tus":9326,"Ġtransm":9327,"Ġconfro":9328,"Ġauton":9329,"Ġamare":9330,"anaus":9331,"arias":9332,"ĠComb":9333,"Ġrad":9334,"Ġregistrado":9335,"Ġabsolutamente":9336,"IONAL":9337,"Ġpreparado":9338,"Ġmuscular":9339,"ĠIdent":9340,"Ġtrad":9341,"ERS":9342,"ĠmatÃ©rias":9343,"EIRO":9344,"ness":9345,"ĠtensÃ£o":9346,"ĠSoa":9347,"ĠconfirmaÃ§Ã£o":9348,"ecem":9349,"Ġplen":9350,"ĠcertidÃ£o":9351,"Ġbolsas":9352,"ĠDI":9353,"Ġmasculino":9354,"nico":9355,"Ġtraducao":9356,"Ġhaviam":9357,"Ġplay":9358,"Ġdestacar":9359,"Ġcro":9360,"Ãºp":9361,"Ġtomou":9362,"ĠSand":9363,"ĠPrefeito":9364,"ĠcomeÃ§ando":9365,"ĠAndrade":9366,"Ġemocion":9367,"Ġmargem":9368,"ĠApenas":9369,"Ãºjo":9370,"amentais":9371,"bia":9372,"Ãł":9373,"essas":9374,"Pod":9375,"Ġtomando":9376,"Ġarroz":9377,"Ġbi":9378,"Â»,":9379,"ĠpromoÃ§Ãµes":9380,"Ġneut":9381,"ĠCorte":9382,"Ġbata":9383,"Ġletra":9384,"ions":9385,"ĠProdutos":9386,"ĠnoÃ§Ã£o":9387,"Ġsombra":9388,"BO":9389,"Ġpq":9390,"ĠdiversÃ£o":9391,"ĠemergÃªncia":9392,"onso":9393,"ĠVide":9394,"ĠorÃ§":9395,"Ġcrescente":9396,"ĠadversÃ¡rio":9397,"lando":9398,"erdo":9399,"Ġrock":9400,"ĠDeleg":9401,"Ġmonitoramento":9402,"uÃ¡ria":9403,"ĠRoma":9404,"Ġeletro":9405,"Ġexplorar":9406,"Ġcav":9407,"ĠdedicaÃ§Ã£o":9408,"Ġaze":9409,"Ġsenti":9410,"ĠInstal":9411,"Ġespanhol":9412,"ann":9413,"Ġcaixas":9414,"ĠBru":9415,"Ġimun":9416,"ĠtransiÃ§Ã£o":9417,"Ġsubir":9418,"Ġshopping":9419,"Ġtrazendo":9420,"mino":9421,"Ġuniversidades":9422,"Ġsum":9423,"Ġproven":9424,"Ġimig":9425,"Ġmaqu":9426,"Ġincap":9427,"ĠApple":9428,"ĠcritÃ©rio":9429,"ĠMarco":9430,"Ãºstrias":9431,"ĠMÃ©xico":9432,"ITO":9433,"Ġfotografias":9434,"ĠClique":9435,"Ġexcelentes":9436,"Ġsecund":9437,"ĠPh":9438,"Ġenquad":9439,"Ġmaquiagem":9440,"Ġpensei":9441,"Sou":9442,"Ġclaramente":9443,"Ġposteriormente":9444,"Ġvinha":9445,"ultores":9446,"Ġlicenc":9447,"ĠRef":9448,"Ġreferentes":9449,"ĠSelec":9450,"ĠBur":9451,"âĤ¬":9452,"ĠÃłqu":9453,"Ġintensa":9454,"ĠAcesso":9455,"Ġempregado":9456,"Ġacol":9457,"work":9458,"emat":9459,"ivados":9460,"Ġacord":9461,"âłĢâłĢ":9462,"eiga":9463,"Ã§alves":9464,"Ġfres":9465,"Ġseguido":9466,"postos":9467,"Ġaplicado":9468,"Ġconsider":9469,"ĠaviÃ£o":9470,"Ġmando":9471,"Ġcheiro":9472,"ĠAnim":9473,"ĠrelÃ³g":9474,"ucle":9475,"Ġurbana":9476,"ĠsentenÃ§a":9477,"Ġexplora":9478,"Ġrevis":9479,"ĠDOS":9480,"essar":9481,"Ġlevam":9482,"ĠlaboratÃ³rio":9483,"ĠfÃ£":9484,"Enquanto":9485,"Ġgarota":9486,"ĠAos":9487,"ĠNÃĥO":9488,"ianas":9489,"ĠcooperaÃ§Ã£o":9490,"Ġamigas":9491,"Ġchamados":9492,"eus":9493,"ĠinflaÃ§Ã£o":9494,"Ġpenso":9495,"ilhe":9496,"ĠEdital":9497,"ĠtrÃ¡fego":9498,"ĠResta":9499,"arejo":9500,"ĠPessoas":9501,"Ġple":9502,"eixes":9503,"ĠObrigado":9504,"Ġequivalente":9505,"ech":9506,"ĠDer":9507,"Ġcostuma":9508,"Ġagricultura":9509,"ĠGuia":9510,"Ġcla":9511,"ĠÃŃnt":9512,"ĠbÃ¡sicos":9513,"Ġativo":9514,"ĠESP":9515,"Ġassegurar":9516,"fone":9517,"usou":9518,"iclo":9519,"Ġelevada":9520,"Ġfizemos":9521,"ĠbraÃ§o":9522,"ĠCaf":9523,"ĠEng":9524,"ÃŃceis":9525,"ĠpreservaÃ§Ã£o":9526,"ĠgravaÃ§Ã£o":9527,"zi":9528,"ĠTeixeira":9529,"Tenho":9530,"ĠAlgumas":9531,"Ġestivesse":9532,"Ġaparecem":9533,"Ġmetodologia":9534,"ĠSum":9535,"mato":9536,"ĠJan":9537,"aneamente":9538,"Ġvirou":9539,"ĠSala":9540,"usias":9541,"ĠPublicado":9542,"Ġtermina":9543,"CI":9544,"Ġfazemos":9545,"ĠPequ":9546,"69":9547,"Ġlot":9548,"Ġinoc":9549,"Ġcalc":9550,"mod":9551,"enef":9552,"Ġfabricante":9553,"Ġdano":9554,"itÃ¡rias":9555,"ĠeletrÃ´nica":9556,"Ġox":9557,"Ġhabilidade":9558,"ĠDra":9559,"ĠCorinthians":9560,"ĠAraÃºjo":9561,"ĠRespons":9562,"Mesmo":9563,"Ġatende":9564,"ĠredaÃ§Ã£o":9565,"Ġinteressantes":9566,"IMENTO":9567,"Ġtranquilidade":9568,"Ġcalcul":9569,"Ġrevistas":9570,"ĠRot":9571,"zil":9572,"ĠÃ©t":9573,"Ġvergonha":9574,"Ġpedras":9575,"Ġgarantindo":9576,"Ġestrangeiros":9577,"Ġassessoria":9578,"Ġpeito":9579,"Ġjornais":9580,"Ġconstantemente":9581,"agoas":9582,"ME":9583,"berg":9584,"Ab":9585,"Ġvinhos":9586,"ĠNada":9587,"ĠVere":9588,".:":9589,"Ġ44":9590,"Ġindicar":9591,"ĠreceberÃ¡":9592,"Ã´nicas":9593,"Ġinteg":9594,"ĠSemana":9595,"Ġcolocando":9596,"âĢĻ.":9597,"67":9598,"ĠcÃ£es":9599,"outube":9600,"ilher":9601,"Ġgostam":9602,"usto":9603,"Ġrespondeu":9604,"ĠcerimÃ´nia":9605,"ĠdifÃŃceis":9606,"Ġpossuir":9607,"ĠPalavra":9608,"Ã©ticas":9609,"Ġpreven":9610,"PJ":9611,"ĠDVD":9612,"Ġgin":9613,"Ġact":9614,"ĠLava":9615,"Ġfugir":9616,"PO":9617,"Ġapel":9618,"Ġrota":9619,"Ġavis":9620,"Ġpublicou":9621,"Ġ1998":9622,"ring":9623,"ĠExistem":9624,"Ġkg":9625,"ĠrefeiÃ§Ãµes":9626,"americano":9627,"ĠRela":9628,"alizando":9629,"Ġpassei":9630,"Ġencontrados":9631,"Ġrelevante":9632,"Ġinse":9633,"ĠLÃ¡":9634,"ĠadaptaÃ§Ã£o":9635,"ĠVin":9636,"ĠValor":9637,"Ġrepresentam":9638,"guesia":9639,"Ġbuscam":9640,"ĠSur":9641,"ĠconversÃ£o":9642,"Ġvotar":9643,"Ġentrevist":9644,"Ġbate":9645,"ĠFlÃ¡":9646,"Ġinvad":9647,"Ġinterrom":9648,"ĠDispon":9649,"ĠSER":9650,"idariedade":9651,"ild":9652,"Ġbebida":9653,"2009":9654,"graduaÃ§Ã£o":9655,"ĠPossui":9656,"Ġindispens":9657,"ĠColÃ©gio":9658,"Ġnutri":9659,"ĠSoares":9660,"olos":9661,"ĠcompetÃªncias":9662,"ĠessÃªncia":9663,"Ġunhas":9664,"Ġexterno":9665,"Ġreproduz":9666,"ĠSendo":9667,"Ġcompletar":9668,"Ġ1999":9669,"Ġwebsite":9670,",...":9671,"ĠSustent":9672,"Ġincon":9673,"Ġrecep":9674,"Ġtese":9675,"Ġparada":9676,"duÃ§Ãµes":9677,"Ġaprovada":9678,"ĠInfantil":9679,"ĠparÃ¢m":9680,"ĠcanÃ§Ãµes":9681,"ĠAtendimento":9682,"ĠeficÃ¡cia":9683,"Ġadmira":9684,"Ġexistente":9685,"Ġconstitui":9686,"Ġprecisava":9687,"Ã´nimo":9688,"ĠPrÃªmio":9689,"ressÃ£o":9690,"Ġestabilidade":9691,"Ġatmos":9692,"Ġincom":9693,"Ġcomunicado":9694,"elecom":9695,"ĠquÃª":9696,"ĠMetro":9697,"ensas":9698,"iner":9699,"Ġtons":9700,"Ġdesaparec":9701,"inando":9702,"ĠobrigaÃ§Ãµes":9703,"Ġovos":9704,"Ã³gicos":9705,"ĠfreqÃ¼":9706,"Ġvoos":9707,"cript":9708,"Ġclasses":9709,"ĠIB":9710,"ĠGonÃ§alves":9711,"Ġranking":9712,"Ġdram":9713,"Ġradio":9714,"ĠemoÃ§Ã£o":9715,"Ġadicional":9716,"Ġextrema":9717,"Ġvirtude":9718,"Da":9719,"Man":9720,"fos":9721,"ĠcolocaÃ§Ã£o":9722,"ĠsÃ£este":9723,"Ġbases":9724,"Ġmagist":9725,"lÃ¢ndia":9726,"Ġsimult":9727,"Ġfederais":9728,"NO":9729,"rata":9730,"ĠSeleÃ§Ã£o":9731,"Ġassociado":9732,"Ġembar":9733,"ĠSc":9734,"Ġoriginais":9735,"Ġacademia":9736,"Ġ-,":9737,"irei":9738,"ĠagÃªncias":9739,"ĠUnido":9740,"Ġexercer":9741,"ĠSag":9742,"Ġacaso":9743,"Ag":9744,"Ġnoites":9745,"roup":9746,"ĠintroduÃ§Ã£o":9747,"Ġatores":9748,"erei":9749,"ĠBairro":9750,"Ġarmazenamento":9751,"Ġcadeira":9752,"ML":9753,"ss":9754,"ĠNor":9755,"Ġpercentual":9756,"ĠcÃ³pia":9757,"Ġpasseios":9758,"ĠEdiÃ§Ã£o":9759,"ICAÃĩÃĥO":9760,"VE":9761,"ncial":9762,"ĠUru":9763,"STI":9764,"junto":9765,"ĠFolha":9766,"Ġdepartamento":9767,"ĠCruzeiro":9768,"Ġreceberam":9769,"Ġqueira":9770,"ĠAÃ§o":9771,"ESS":9772,"Ġrelator":9773,"ĠAugusto":9774,"cm":9775,"ĠseÃ§Ã£o":9776,"ĠSeguro":9777,"ĠvariaÃ§Ã£o":9778,"endado":9779,"ĠconstruÃŃdo":9780,"Ġdeterminados":9781,"Ġrecebimento":9782,"Ġenferm":9783,"Ġcortes":9784,"Ġresolvi":9785,"ĠReis":9786,"--------------------------------":9787,"Ġhistorico":9788,"Ġsabedoria":9789,"Ġnecessita":9790,"Ġocorrido":9791,"ĠsessÃµes":9792,"Ġcresceu":9793,"ream":9794,"Ã§adas":9795,"ĠTot":9796,"Gu":9797,"ĠsÃŃtio":9798,"ĠEspero":9799,"ĠconfiguraÃ§Ã£o":9800,"avera":9801,"iri":9802,"Ġestup":9803,"Ġempregos":9804,"Ġconsultoria":9805,"Bem":9806,"Ġdouto":9807,"ceta":9808,"Ġestoque":9809,"ĠTar":9810,"Ġinicialmente":9811,"Ġeventual":9812,"ĠLivros":9813,"Ġbeira":9814,"ĠSeja":9815,"Ġantigas":9816,"ĠGol":9817,"Ġsemelhantes":9818,"inopse":9819,"Ġber":9820,"ĠPÃ¡gina":9821,"ĠmatemÃ¡tica":9822,"rÃ´":9823,"adinho":9824,"ĠMater":9825,"elhas":9826,"ĠBac":9827,"ĠvalorizaÃ§Ã£o":9828,"Ġprovis":9829,"ĠSilv":9830,"Ġiniciativas":9831,"Ġriqueza":9832,"Ġacostum":9833,"ianÃ³polis":9834,"ĠSeminÃ¡rio":9835,"ĠepisÃ³dios":9836,"rimas":9837,"Ġcompreend":9838,"Ġnegra":9839,"Ġdepos":9840,"ĠClÃ¡":9841,"Ġplataformas":9842,"ÃŃdeo":9843,"Ġsegmentos":9844,"aqu":9845,"Ġreiv":9846,"ali":9847,"ĠdepressÃ£o":9848,"atÃ©":9849,"Ġpreviamente":9850,"Ġleia":9851,"Ġ99":9852,"Ġcamada":9853,"Ġencontramos":9854,"Ġdid":9855,"Ġestando":9856,"ĠatraÃ§Ã£o":9857,"Ġespalh":9858,"ĠSex":9859,"Ġcem":9860,"Ġresenha":9861,"Ġaumentando":9862,"Ġgerente":9863,"TURA":9864,"Ġprobabilidade":9865,"Ġcolher":9866,"Ġvariados":9867,"Ġimpresso":9868,"Ġconstantes":9869,"ĠÃįndia":9870,"El":9871,"back":9872,"Ġesf":9873,"Ġsementes":9874,"Ġpostar":9875,"ĠQuad":9876,"Ãĥo":9877,"ESSO":9878,"ÃŃmos":9879,"ĠclÃŃnica":9880,"PB":9881,"Ġcasais":9882,"ĠPresidÃªncia":9883,"Ġreajust":9884,"quias":9885,"ĠavanÃ§o":9886,"oral":9887,"critos":9888,"==":9889,"Ġviva":9890,"anso":9891,"Ġpleno":9892,"Ġperguntar":9893,"Ġdiretoria":9894,"Ġaltas":9895,"ĠhÃ³sp":9896,"Ġintenso":9897,"ĠprovidÃªncias":9898,"Ġreve":9899,"Ġafric":9900,"Ġaluguel":9901,"ĠconsequÃªncia":9902,"ĠsuÃŃte":9903,"Ġpolu":9904,"Ġvalidade":9905,"Ġdesenvolvida":9906,"ark":9907,"deÃ§o":9908,"uu":9909,"quedos":9910,"ĠRS":9911,"Ġtransforma":9912,"Ġroda":9913,"ĠsÃ³cio":9914,"ĠcapacitaÃ§Ã£o":9915,"ilherme":9916,"ionÃ¡rios":9917,"ING":9918,"ĠfÃŃsicos":9919,"ĠObjet":9920,"ĠPark":9921,"rÃ³p":9922,"ĠQuero":9923,"ĠMem":9924,"azz":9925,"Ġdisseram":9926,"Ġpostagem":9927,"Ġpromet":9928,"ĠAlberto":9929,"Or":9930,"Ãªmios":9931,"Ġtrimestre":9932,"ĠMost":9933,"Ġnegro":9934,"ĠexigÃªncias":9935,"ĠNut":9936,"Ġdedicado":9937,"ĠtrÃ¡fico":9938,"Ġensaio":9939,"Ġfases":9940,"Ġtrama":9941,"Ġnovinha":9942,"Ġconvid":9943,"ĠsÃ©culos":9944,"Ġneu":9945,"ĠCoelho":9946,"rimir":9947,"sol":9948,"ĠMG":9949,"irros":9950,"Ġreconhecido":9951,"ĠVerm":9952,"Ġinimigos":9953,"Ġinteressado":9954,"uminense":9955,"damente":9956,"organ":9957,"duras":9958,"ĠFiscal":9959,"Ġsuave":9960,"Ġgreve":9961,"Ġparcela":9962,"Ġconquistou":9963,"Ġpeixe":9964,"ĠsaudÃ¡veis":9965,"Ġautonomia":9966,"Ġfur":9967,"Ġobte":9968,"Ġconseguiram":9969,"ĠPalÃ¡cio":9970,"ĠPetrobras":9971,"ĠEspaÃ§o":9972,"ĠlocaÃ§Ã£o":9973,"Ġapareceu":9974,"Ġrecomendo":9975,"Ġdiferencial":9976,"TI":9977,"Meu":9978,"Ġbuc":9979,"Ġresolveu":9980,"Ġhomenage":9981,"Ġdoutrina":9982,"Veja":9983,"Ġondas":9984,"Ġinsu":9985,"Ġaprofund":9986,"ĠDeixe":9987,"Ġcontratar":9988,"Ġdescreve":9989,"Ter":9990,"bÃ¡":9991,"ĠIndepend":9992,"Ġcort":9993,"Ġcalma":9994,"ĠbÃ¡sicas":9995,"ĠrelatÃ³rios":9996,"Ġfloresta":9997,"ĠadoÃ§Ã£o":9998,"Ġ1990":9999,"ani":10000,"Ġoptar":10001,"ÃŃdias":10002,"ĠRecord":10003,"Ã©rea":10004,"Ġnecessariamente":10005,"acial":10006,"Ġ600":10007,"Ġdesejos":10008,"Ġligados":10009,"Ġindependentemente":10010,"imbra":10011,"aios":10012,"Ġespect":10013,"Ã¡gio":10014,"Ġcaras":10015,"ĠabraÃ§o":10016,"ĠsalvaÃ§Ã£o":10017,"Ġtranspare":10018,"ĠParte":10019,"Ġaposentador":10020,"bat":10021,"Ġintermed":10022,"Ġcondicionado":10023,"Ġtorcida":10024,"ĠAzul":10025,"Ġrevoluc":10026,"Ġarr":10027,"Ġestam":10028,"mat":10029,"ridas":10030,"Ġlam":10031,"ĠSeb":10032,"Ġfalam":10033,"ete":10034,"Ġfaixas":10035,"equ":10036,"Ġentusias":10037,"ĠOutra":10038,"Muito":10039,"Ġprofundo":10040,"ĠinÃºmeros":10041,"Ġbord":10042,"ĠLos":10043,"estino":10044,"Ġacontecimentos":10045,".Â§":10046,"Ġfrete":10047,"Nossa":10048,"ĠpaciÃªncia":10049,"ĠTeres":10050,"ĠRegulamento":10051,"ĠMÃ¡r":10052,"ĠVI":10053,"ĠSeus":10054,"ĠcristÃ£":10055,"Ġinvas":10056,"Ġavalia":10057,"ĠPadre":10058,"Ġgama":10059,"ĠfenÃ´meno":10060,"Ġmelhorias":10061,"ĠmatrÃŃc":10062,"ĠsÃ©ries":10063,"ÃŃfico":10064,"ĠmotivaÃ§Ã£o":10065,"ĠSC":10066,"Ġalinh":10067,"Ġescolhas":10068,"Ġdiscrim":10069,"ĠrenovaÃ§Ã£o":10070,"xima":10071,"Ġcerc":10072,"Ġhem":10073,"Ġinsp":10074,"Ġreservas":10075,"Ġgestores":10076,"ĠdiscussÃµes":10077,"ĠAprove":10078,"ĠgeraÃ§Ãµes":10079,"Ġrelacionado":10080,"Ġescolares":10081,"Ġtalentos":10082,"Ġdoces":10083,"Ġintelectual":10084,"Ġrica":10085,"ĠVista":10086,"ĠFernanda":10087,"cind":10088,"ĠVai":10089,"ĠInic":10090,"ĠinvestigaÃ§Ãµes":10091,"Ġabst":10092,"ĠTitulo":10093,"ĠAlc":10094,"Ã¢mico":10095,"ĠacontecerÃ¡":10096,"Ġanc":10097,"ĠajudÃ¡":10098,"Ġapresentadas":10099,"ouco":10100,"Ġ41":10101,"IDA":10102,"Ġora":10103,"Ġtratado":10104,"inÃ¡rios":10105,"enn":10106,"ĠcrÃ©ditos":10107,"ĠDessa":10108,"ĠAdic":10109,"Ġeliminar":10110,"Ġmenu":10111,"Ã¡lises":10112,"ĠprÃ¡tico":10113,"Ã³rica":10114,"ĠNaÃ§Ãµes":10115,"=\"":10116,"Nas":10117,"ĠPublic":10118,"Ġpertence":10119,"ĠJack":10120,"Ã´nios":10121,"ĠdimensÃµes":10122,"Ġfiel":10123,"low":10124,"Ġcartas":10125,"Ġexpand":10126,"ĠprÃ©via":10127,"odÃ£o":10128,"ĠRodov":10129,"Ġmecanismos":10130,"ĠApoio":10131,"Ġvereadores":10132,"Ġtoneladas":10133,"ĠÄ":10134,"Ġous":10135,"ilton":10136,"Ġcuriosidade":10137,"Ġpronta":10138,"Ġteor":10139,"Ġensina":10140,"Ġdesfrutar":10141,"Ġpere":10142,"Ã¡vamos":10143,"ĠSites":10144,"ĠTam":10145,"ĠFA":10146,"Ġkit":10147,"itana":10148,"Ãªme":10149,"ĠLog":10150,"ĠPatrim":10151,"ĠcientÃŃfico":10152,"yst":10153,"Ġfi":10154,"ĠTR":10155,"ĠsenÃ£o":10156,"ĠLocal":10157,"Ġcorretamente":10158,"km":10159,"ĠOeste":10160,"Ġvic":10161,"ĠContas":10162,"ĠdeclaraÃ§Ãµes":10163,"ĠStar":10164,"Ġpraticar":10165,"ĠDeix":10166,"ĠPrecis":10167,"Gost":10168,"ĠelÃ©trico":10169,"Ġsuperar":10170,"Brasil":10171,"ĠEspera":10172,"Ġatrair":10173,"vemos":10174,"Ġenriqu":10175,"Ġponte":10176,"Ġatraso":10177,"Ġderrota":10178,"Ġexcess":10179,"INA":10180,"Ġministros":10181,"62":10182,"pondo":10183,"Ġplacas":10184,"Ġcomentou":10185,"Ġdava":10186,"cep":10187,"orksho":10188,"aranja":10189,"ormes":10190,"Ġfornecimento":10191,"ĠAh":10192,"ĠtransparÃªncia":10193,"Ġposts":10194,"Ġsozinha":10195,"Ġparticularmente":10196,"ĠMinistro":10197,"Ġandamento":10198,"ĠStore":10199,"Ġtribunal":10200,"icano":10201,"Ġrestante":10202,"ĠTi":10203,"Ġadministrativo":10204,"Ġintervalo":10205,"ĠsubstituiÃ§Ã£o":10206,"ped":10207,"Ġrespectivos":10208,"Ġsafada":10209,"uela":10210,"ĠRam":10211,"uru":10212,"Pos":10213,"Reg":10214,"riÃ§Ãµes":10215,"ĠBraga":10216,"Ġigrejas":10217,"ĠexceÃ§Ã£o":10218,"Ġamplamente":10219,"Ġ{":10220,"Ġsaia":10221,"ĠAmazÃ´nia":10222,"ĠClÃŃn":10223,"agre":10224,"ĠLev":10225,"Ġefetuar":10226,"ÃĢ":10227,"anhos":10228,"rof":10229,"Ġbrilhante":10230,"Ġautos":10231,"Ġ43":10232,"ĠcanÃ§Ã£o":10233,"Ġseguem":10234,"Ġvoltado":10235,"ĠMax":10236,"Ġporto":10237,"ĠFarm":10238,"Ġestimular":10239,"Ġadicionais":10240,"pal":10241,"ĠLas":10242,"Ġpartidas":10243,"intura":10244,"Ġdesenvolvidos":10245,"LO":10246,"Ġdignidade":10247,"Nesse":10248,"ĠCF":10249,"Ġbandas":10250,"range":10251,"Ġdemandas":10252,"Ġcra":10253,"ĠManaus":10254,"Ġnet":10255,"deus":10256,"Ġdescar":10257,"ĠorientaÃ§Ãµes":10258,"Ġdeslig":10259,"ĠComitÃª":10260,"ĠidÃ©ias":10261,"Ġajudou":10262,"Ġprevistas":10263,"Ant":10264,"Ġrefrig":10265,"Ġcorporal":10266,"Ġcidadania":10267,"Ġatualizado":10268,"ĠÂ°":10269,"Ġdomic":10270,"Ġimpuls":10271,"Ġ95":10272,"Ġestabelecido":10273,"ĠremuneraÃ§Ã£o":10274,"inam":10275,"inco":10276,"Ġiguais":10277,"ĠMulheres":10278,"ï¼":10279,"ĠWar":10280,"ĠVig":10281,"atom":10282,"Ġespecificamente":10283,"Ġfarinha":10284,"Ġvencedor":10285,"ĠJoaquim":10286,"ĠPel":10287,"Ġintim":10288,"Qual":10289,"Esc":10290,"ecendo":10291,"TS":10292,"ĠcÃ£o":10293,"Ġteriam":10294,"ĠRap":10295,"Ġinflam":10296,"Ġconsequentemente":10297,"ĠpropÃµe":10298,"ĠacessÃŃvel":10299,"Ġcontac":10300,"Ġdecorrer":10301,"ĠMaur":10302,"blog":10303,"Ġconscient":10304,"Ġpastor":10305,"ĠEstratÃ©g":10306,"ĠgrÃ¡fico":10307,"Vamos":10308,"Ġorganizada":10309,"ĠpÃ¡t":10310,"entÃ¡rios":10311,"Embora":10312,"Ġbasicamente":10313,"Ġvaranda":10314,"Ġdemasiado":10315,"Ġrepass":10316,"Ġpreencher":10317,"Ġpreocupar":10318,"si":10319,"Ġfirme":10320,"Ġteto":10321,"ĠraÃ§a":10322,"ĠdÃ©b":10323,"ĠPare":10324,"ifere":10325,"Ġchamadas":10326,"ĠfuncionÃ¡rio":10327,"ĠanimaÃ§Ã£o":10328,"Ġparticulares":10329,"Ġintit":10330,"Ġbomb":10331,"Ġomb":10332,"idem":10333,"Ã¡til":10334,"Ġdivertido":10335,"Ġtransport":10336,"VAL":10337,"Ġdedos":10338,"Ġminuto":10339,"ĠGuar":10340,"rod":10341,"ĠPot":10342,"ĠAdria":10343,"ĠCPF":10344,"Pr":10345,"ĠCanadÃ¡":10346,"Ġlavar":10347,"ĠWilliam":10348,"adia":10349,"Ġseco":10350,"Ġpublicar":10351,"ĠManual":10352,"ĠAdvog":10353,"iedades":10354,"ĠconcorrÃªncia":10355,"Ġimagina":10356,"Ver":10357,"Ġinvestidores":10358,"Ġcircuito":10359,"ĠdiminuiÃ§Ã£o":10360,"Obs":10361,"Ġcortar":10362,"Ġpedindo":10363,"Ġconfirmou":10364,"retos":10365,"Ġrecol":10366,"ville":10367,"lara":10368,"idental":10369,"ĠconfusÃ£o":10370,"Ġatacante":10371,"Pl":10372,"Ġnegros":10373,"Ġlut":10374,"Ġapp":10375,"Ġfechamento":10376,"Ġbuceta":10377,"Ġolhando":10378,"ĠLetras":10379,"ĠBitcoin":10380,"obo":10381,"Ġdemonstra":10382,"Dou":10383,"ilas":10384,"ĠestaÃ§Ãµes":10385,"ĠconstruÃŃda":10386,"Ġdefine":10387,"ĠDublado":10388,"Ġbloco":10389,"Ġtiro":10390,"Especial":10391,"ĠJuvent":10392,"ĠTI":10393,"alizou":10394,"Ġexplos":10395,"Ġprovar":10396,"Ġtranquilo":10397,"Ġprioridade":10398,"Ġrurais":10399,"Ġconsta":10400,"ĠLeite":10401,"fogo":10402,"omet":10403,"Ġsuced":10404,"ÃŃv":10405,"ear":10406,"Ġburo":10407,"Ġlegit":10408,"ĠDeputados":10409,"Ġrastre":10410,"cons":10411,"Ġbrig":10412,"Ġparcerias":10413,"mica":10414,"Ġreto":10415,"ĠCB":10416,"58":10417,"Ġigualdade":10418,"ĠquÃŃmica":10419,"lab":10420,"Ġcomprei":10421,"Ġestabelecimentos":10422,"ĠAcademia":10423,"Temos":10424,"Ġmiss":10425,"ivada":10426,"ulando":10427,"Ġpoeta":10428,"ĠeletrÃ´nicos":10429,"ĠEquip":10430,"jamos":10431,"ĠTel":10432,"ÃŃlios":10433,"ĠAssistir":10434,"Ġobjectivo":10435,"tera":10436,"Ġgran":10437,"Ġparticipa":10438,"Ġlimpo":10439,"Ġpaisagem":10440,"Ġresponde":10441,"ĠArtigo":10442,"Cam":10443,"Ã³rdia":10444,"ĠediÃ§Ãµes":10445,"Ġentrevistas":10446,"ĠMant":10447,"Ġsubstituir":10448,"Ġestiveram":10449,"63":10450,"Prim":10451,"ĠRonal":10452,"Ġesportes":10453,"Ġconformidade":10454,"wa":10455,"Ġcare":10456,"orto":10457,"ĠpresidÃªncia":10458,"Ġsorteio":10459,"ÃŃso":10460,"ĠobrigatÃ³rio":10461,"Ġvivendo":10462,"Ġderru":10463,"Ġreligiosa":10464,"Ġcientistas":10465,"udia":10466,"Ġapresentando":10467,"2008":10468,"toria":10469,"intend":10470,"Ã³sitos":10471,"PRO":10472,"ĠCarnaval":10473,"Ġcripto":10474,"IAL":10475,"Ġconcluir":10476,"abilitaÃ§Ã£o":10477,"ĠBasta":10478,"Ġfod":10479,"Ġesperado":10480,"ĠOrlando":10481,"Ġatento":10482,"Ġesmal":10483,"Ġpauta":10484,"Ġcurtir":10485,"ĠÃįndice":10486,"Ġreino":10487,"Sobre":10488,"Tal":10489,"Ġreche":10490,"Ġargumento":10491,"Ã©rico":10492,"ĠprovÃ¡vel":10493,"ĠsubstÃ¢ncias":10494,"Ġadiant":10495,"dÃ£o":10496,"ÃŃticas":10497,"ĠCalif":10498,"ĠvÃŃnc":10499,"Ġseman":10500,"Ġcotidiano":10501,"eraÃ§Ãµes":10502,"Ġlevantar":10503,"adrÃ£o":10504,"ĠcoordenaÃ§Ã£o":10505,"ĠCastelo":10506,"ids":10507,"ĠestÃºdio":10508,"ĠcontribuiÃ§Ãµes":10509,"93":10510,"Ġbeber":10511,"Ġchurrasqueira":10512,"Ã¡gua":10513,"ĠalemÃ£o":10514,"erÃ¢ncia":10515,"istema":10516,"ĠEg":10517,"eth":10518,"ĠProva":10519,"Ġsujeitos":10520,"ĠpublicaÃ§Ãµes":10521,"ugar":10522,"ulha":10523,"Ġelegante":10524,"Ġdivulgou":10525,"entais":10526,"ĠPinto":10527,"ĠcardÃŃ":10528,"get":10529,"ĠobservaÃ§Ã£o":10530,"ĠPag":10531,"gura":10532,"elli":10533,"ocal":10534,"Ġestrangeiro":10535,"Ġ..":10536,"Ġterrit":10537,"âĢ¦.":10538,"Ġgaroto":10539,"Ġdistante":10540,"Ġaquecimento":10541,"Ġnavegador":10542,"imarÃ£es":10543,"MT":10544,"iÃ³d":10545,"Ġrealizando":10546,"Ġguitar":10547,"Ġbanheiros":10548,"Ġjuramentada":10549,"Ġdesenc":10550,"Ġevidente":10551,"Ã±":10552,"Ġvideos":10553,"ĠExame":10554,"ĠSimples":10555,"hadas":10556,"rimo":10557,"Ġqueijo":10558,"atem":10559,"Ġrecomp":10560,"Ġinfec":10561,"Ġacontecem":10562,"Ġproduzidos":10563,"Ġjuntar":10564,"ESTES":10565,"PG":10566,"Ġsobera":10567,"Ġseguros":10568,"Ã¡beis":10569,"inst":10570,"ĠLivre":10571,"ionista":10572,"Ġrola":10573,"ĠRegistro":10574,"ĠabenÃ§o":10575,"Ġmobilidade":10576,"Ġbicicleta":10577,"Ġup":10578,"itei":10579,"ĠGust":10580,"Ġnasce":10581,"Ġprotagonista":10582,"ministro":10583,"Ġmonte":10584,"Leg":10585,"Ġrend":10586,"ĠBento":10587,"Encont":10588,"Ġapartamentos":10589,"Ġprecios":10590,"ĠMaia":10591,"ribut":10592,"Ġgratuitamente":10593,"Ġdisciplinas":10594,"ĠSoftware":10595,"Ġnobre":10596,"istÃ£o":10597,"ervo":10598,"Ġacreditam":10599,"Ġempreende":10600,"Ã¡bio":10601,"Ġsensibilidade":10602,"Ġmotoc":10603,"Ġsalvo":10604,"Ġbandeira":10605,"Ġemissora":10606,"ĠMelo":10607,"Dire":10608,"iola":10609,"Ġpercebe":10610,"ĠincÃªndio":10611,"Ġsubl":10612,"Ã³logos":10613,"idada":10614,"Ġocorrem":10615,"ĠpÃ´r":10616,"91":10617,"ĠâĢĿ":10618,"Ġricos":10619,"Ġvieram":10620,"CL":10621,"Ġenvolvimento":10622,"ADA":10623,"Ġbrincar":10624,"ĠparÃ¡grafo":10625,"Ġdei":10626,"mann":10627,"Ġcondenado":10628,"Ġtum":10629,"ĠprecisÃ£o":10630,"Ġevitando":10631,"Ġrepente":10632,"Ġpreval":10633,"Apartamento":10634,"gust":10635,"coa":10636,"Ġinstante":10637,"Ġsenhora":10638,"?âĢĿ":10639,"econ":10640,"Ã©mio":10641,"Ġcriminos":10642,"Ġconceb":10643,"ĠReceb":10644,"arÃ©":10645,"ĠDisc":10646,"Ġare":10647,"Ġindustriais":10648,"ĠcircunstÃ¢ncias":10649,"Ġsacerdo":10650,"ĠBase":10651,"Ġperca":10652,"Ġfalei":10653,"Ġbairros":10654,"ref":10655,"ĠSAN":10656,"ĠRamos":10657,"ĠEDU":10658,"Ġestrela":10659,"ĠProteÃ§Ã£o":10660,"Ġnarrativa":10661,"alhas":10662,"Ġconselh":10663,"Ġentreten":10664,"ĠcorreÃ§Ã£o":10665,"ĠvariaÃ§Ãµes":10666,".*":10667,"alÃ©m":10668,"erador":10669,"ĠNeves":10670,"Ġ1997":10671,"acao":10672,".âĢ¢":10673,"ĠParabÃ©ns":10674,"ĠInformÃ¡tica":10675,"EF":10676,"ĠInovaÃ§Ã£o":10677,"à¹":10678,"umos":10679,"ĠMy":10680,"ĠLegislativa":10681,"Ġactu":10682,"els":10683,"ĠassociaÃ§Ãµes":10684,"Ġdemonstrar":10685,"ĠRock":10686,"Ġrendimento":10687,"Ġcomplementar":10688,"ĠmÃ¡scara":10689,"ĠciÃªncias":10690,"iler":10691,"ĠFesta":10692,"Ã³rcio":10693,"RASIL":10694,"ĠSomos":10695,"Ġdesigual":10696,"Ġhol":10697,"guaÃ§u":10698,"ĠEvangelho":10699,"ads":10700,"ĠMÃ£e":10701,"Ġfrequentemente":10702,"Ġtemperaturas":10703,"urada":10704,"ornos":10705,"ĠdepÃ³sito":10706,"STITU":10707,"ore":10708,"ĠAta":10709,"Ġprogress":10710,"Ġficamos":10711,"ĠMinist":10712,"ĠliberaÃ§Ã£o":10713,"Ġdiretora":10714,"Ġencontrada":10715,"ĠSac":10716,"RG":10717,"ioterapia":10718,"izont":10719,"ĠOS":10720,"Ġprazos":10721,"ĠCho":10722,"Ġlava":10723,"ariais":10724,"Ġmeninos":10725,"deal":10726,"Ġhospedagem":10727,"enal":10728,"ĠWorld":10729,"ĠcelebraÃ§Ã£o":10730,"ario":10731,"ĠMÃ¡rio":10732,"inger":10733,"Ġofic":10734,"Ġpreta":10735,"ĠQualquer":10736,"Ġitaliano":10737,"73":10738,"Ġrecebendo":10739,"ĠaliÃ¡s":10740,"ĠToc":10741,"antis":10742,"oberto":10743,"Ġmilho":10744,"Ġfom":10745,"ouve":10746,"Ġtalento":10747,"ĠZÃ©":10748,"Ġcolega":10749,"Ġconsultar":10750,"Ġfalha":10751,"ĠrecepÃ§Ã£o":10752,"][":10753,"eiriz":10754,"Ġnutrientes":10755,"Ġconsecut":10756,"Ġdelegado":10757,"ĠNegÃ³cios":10758,"iantes":10759,"Ġnomeadamente":10760,"Sempre":10761,"cent":10762,"ĠCity":10763,"ĠChile":10764,"Ġrefletir":10765,"ĠexplicaÃ§Ã£o":10766,"Ġurbano":10767,"americana":10768,"au":10769,"Ġexpressa":10770,"Ġentretenimento":10771,"field":10772,"Ġmobil":10773,"Ġmaravilhos":10774,"POR":10775,"Ġestra":10776,"Ġseguidores":10777,"Ġvirar":10778,"ĠÃ³dio":10779,"Ġ46":10780,"Ġrodas":10781,"Ġsolt":10782,"Ġouviu":10783,"gica":10784,"ser":10785,"ĠTrÃªs":10786,"Ġdistingu":10787,"Ġtutor":10788,"ĠdiÃ¡rias":10789,"ĠPessoal":10790,"Ġestilos":10791,"ĠLink":10792,"ĠðŁĺ":10793,"Pol":10794,"Ġinformado":10795,"Ġfutura":10796,"box":10797,"Ã³lar":10798,"Ġtru":10799,"ika":10800,"ĠcomercializaÃ§Ã£o":10801,"lei":10802,"ella":10803,"ĠNenh":10804,"ĠLabora":10805,"ĠGuimarÃ£es":10806,"ĠparabÃ©ns":10807,"Ġpront":10808,"ĠAutom":10809,"Ġpobreza":10810,"Ġtranst":10811,"Ġalien":10812,"umÃŃnio":10813,"Ġpessoalmente":10814,"ĠampliaÃ§Ã£o":10815,"ĠFreitas":10816,"Ġfizer":10817,"Ġtestar":10818,"rinha":10819,"Ã§amb":10820,"ĠNÃºcleo":10821,"Pres":10822,"ĠTipo":10823,"Ġ49":10824,"Ġficava":10825,"ĠPO":10826,"ĠGuilherme":10827,"ĠviolaÃ§Ã£o":10828,"Ġtorce":10829,"ĠEmprego":10830,"ĠdarÃ¡":10831,"ulso":10832,"ĠIF":10833,"duzir":10834,"Ġperdas":10835,"ĠPrÃŃncipe":10836,"Ġsignificativa":10837,"ĠFora":10838,"presas":10839,"Ġescuro":10840,"Ġquadra":10841,"Ġsimilarmente":10842,"TOR":10843,"Ġsemi":10844,"Ġterapia":10845,"Ġespal":10846,"Ġincentivo":10847,"ĠCardoso":10848,"ĠRousse":10849,"Ġassumiu":10850,"ĠPrincip":10851,"irou":10852,"Ġdevia":10853,"Ġdistrito":10854,"Ġsofrem":10855,"ĠLuis":10856,"Ġcompetente":10857,"Ġretom":10858,"ĠISO":10859,"Ġutilizam":10860,"Ġdelib":10861,"Ġcostumam":10862,"ĠEt":10863,"coÃ§o":10864,"Ġ85":10865,"Ġvendidos":10866,"isciplina":10867,"ĠCamb":10868,"Ġdepender":10869,"ĠlanÃ§amentos":10870,"Ġtoca":10871,"ĠEL":10872,"Ġespecializados":10873,"INO":10874,"Ġcoopera":10875,"arto":10876,"Ġhospitais":10877,"itaram":10878,"ĠRol":10879,"ĠRub":10880,"ĠUnidas":10881,"Ġcomunicar":10882,"gin":10883,"Ġdecide":10884,"Ġjuvent":10885,"cial":10886,"ĠPrem":10887,"Ġbag":10888,"ĠMano":10889,"ĠTurma":10890,"Ġesclarecer":10891,"83":10892,"ĠRad":10893,"Ġpredom":10894,"Ġcorresponde":10895,"ĠDescriÃ§Ã£o":10896,"ograma":10897,"atÃ³rias":10898,"Ġdefinida":10899,"ĠVerÃ£o":10900,"Ġparlamentares":10901,"ordos":10902,"'.":10903,"ĠsubstÃ¢ncia":10904,"ĠDiretoria":10905,"ĠJunior":10906,"ĠnaÃ§Ã£o":10907,"ressa":10908,"olor":10909,"Ġtorneio":10910,"ĠCausa":10911,"ĠclÃ¡ssicos":10912,"Ġpeixes":10913,"ĠModa":10914,"vias":10915,"Ġpoup":10916,"ĠCarta":10917,"Ol":10918,"Su":10919,"off":10920,"Ġjustific":10921,"ĠprÃªmios":10922,"utores":10923,"ĠAPR":10924,"ĠTO":10925,"Ġcirurg":10926,"reza":10927,"ivaÃ§Ã£o":10928,"grÃ¡fico":10929,"ĠPIB":10930,"ĠJato":10931,"Ġculturas":10932,"ĠhÃ¡bito":10933,"Ġgigantes":10934,"ĠconheÃ§o":10935,"ĠMoreira":10936,"Ġinstalado":10937,"Ġmic":10938,"Ġmedicamento":10939,"Ġnessas":10940,"Ġdiga":10941,"ndon":10942,"ĠadesÃ£o":10943,"ĠConheÃ§a":10944,"Ġprocessamento":10945,"ĠDemoc":10946,"ĠAtlÃ©tico":10947,"ij":10948,"Ġbura":10949,"Ã©sar":10950,"ĠvÃ³s":10951,"Ġinternos":10952,"Ġreconhecida":10953,"Ġcomemorar":10954,"Ġexcep":10955,"utela":10956,"amas":10957,"Ġempate":10958,"elson":10959,"Ġperdo":10960,"ĠHid":10961,"Ġpoderoso":10962,"Ġagreg":10963,"Ġmorar":10964,"ĠnavegaÃ§Ã£o":10965,"DT":10966,"Ġï":10967,"iles":10968,"Ġapet":10969,"chave":10970,"Ġgerenc":10971,"Ġmister":10972,"VC":10973,"Ġmuseu":10974,"89":10975,"Ġdefens":10976,"chas":10977,"ĠvitÃ³rias":10978,"ĠAÃŃ":10979,"Ġdecreto":10980,"Ġinicio":10981,"Ġeleitores":10982,"ĠCirc":10983,"Ġlas":10984,"Ġproduzida":10985,"Ġfalhas":10986,"atriz":10987,"Ġprevistos":10988,"chos":10989,"ĠSap":10990,"ĠVasco":10991,"quem":10992,"ulam":10993,"Ġpossamos":10994,"Ġbacana":10995,"Ġsuspeito":10996,"ĠFlorianÃ³polis":10997,"fit":10998,"Ġreconstru":10999,"ĠContabilidade":11000,"Ġpesquisar":11001,"56":11002,"Ġpenet":11003,"Ã³ticos":11004,"Ġoferecidos":11005,"Ġperdendo":11006,"Ġreperc":11007,"yn":11008,"ĠAux":11009,"Ġrelativa":11010,"gia":11011,"ĠHad":11012,"Ġfrases":11013,"Ġconcursos":11014,"Ġformal":11015,"ĠConcurso":11016,"Ġvitamina":11017,"ĠestÃ©tica":11018,"ĠOrig":11019,"ĠcomemoraÃ§Ã£o":11020,"Ġlavagem":11021,"ĠCoordenaÃ§Ã£o":11022,"sh":11023,"ĠLt":11024,"Ġmusicais":11025,"Ġfamosos":11026,"ĠDos":11027,"ĠUniversitÃ¡rio":11028,"mon":11029,"Ġaposentadoria":11030,"><":11031,"ĠconferÃªncia":11032,"ĠRES":11033,"Ġcriados":11034,"Ġtoma":11035,"ĠAliÃ¡s":11036,"Ġnestes":11037,"ĠEventos":11038,"Ġvila":11039,"Ġfaria":11040,"Ġcomod":11041,"Ġparad":11042,"oni":11043,"Ã³licos":11044,"Ġestresse":11045,"enhas":11046,"Ġtomadas":11047,"Ġbarriga":11048,"ĠcrÃŃtico":11049,"Ġadulto":11050,"gados":11051,"ĠFica":11052,"itava":11053,"Ġdefinitivamente":11054,"Ġautent":11055,"ĠBernardo":11056,"quis":11057,"Ġredo":11058,"Ġpositivos":11059,"Ġobjetiva":11060,"ĠaÃ©reas":11061,"ĠFM":11062,"ĠEstas":11063,"Ġresponsabiliz":11064,"Ġvermelha":11065,"Ġregionais":11066,"ĠExtra":11067,"EstÃ¡":11068,"Ġharmonia":11069,"Ã¡sticos":11070,"Ġressaltou":11071,"ulga":11072,"ĠFerra":11073,"Ġexceto":11074,"torado":11075,"Ġlimpa":11076,"Ġdesejado":11077,"RAÃĩÃĥO":11078,"ĠnegociaÃ§Ãµes":11079,"Ġmanteve":11080,"jac":11081,"Ġdona":11082,"ĠFemin":11083,"ĠhÃ³spedes":11084,"ak":11085,"Ġsentidos":11086,"Ġprossegu":11087,"ĠSw":11088,"ĠRh":11089,"ualidade":11090,"ĠCampus":11091,"ĠImag":11092,"Ġreformas":11093,"PRE":11094,"Ġirrit":11095,"ĠobtenÃ§Ã£o":11096,"Ġjuventude":11097,"GA":11098,"ĠMAN":11099,"Ġdirigir":11100,"ĠindÃŃgenas":11101,"ury":11102,"Ġencaix":11103,"ĠContinue":11104,"Ã¡tima":11105,"Ġdiferencia":11106,"ĠGrÃ¡tis":11107,"Part":11108,"igue":11109,"ĠligaÃ§Ãµes":11110,"ĠrevoluÃ§Ã£o":11111,"Ġcomplicado":11112,"%),":11113,"Ġnegativo":11114,"Ġfortalecer":11115,"ĠFlorest":11116,"Ġdivulgada":11117,"ĠRenato":11118,"Ġingresso":11119,"TAS":11120,"Ġregistrar":11121,"ĠDois":11122,"???":11123,"Ġprivadas":11124,"ÃįT":11125,"Ġbaixos":11126,"entamente":11127,"ĠgrÃ¡":11128,"pia":11129,"ĠOB":11130,"ĠUSP":11131,"Ġfronteira":11132,"Ġpuro":11133,"hones":11134,"ĠConhec":11135,"Ġsoube":11136,"ĠTomÃ©":11137,"76":11138,"tamento":11139,"Ġveic":11140,"Ġsamba":11141,"Ġhorr":11142,"Ġprata":11143,"ĠIsabel":11144,"Ġcantar":11145,"ĠSei":11146,"ander":11147,"ĠGraduaÃ§Ã£o":11148,"Ġvivemos":11149,"App":11150,"wood":11151,"ĠRural":11152,"Ġvariar":11153,"CP":11154,"ock":11155,"ĠAprend":11156,"ĠDAS":11157,"esquec":11158,"ĠTrump":11159,"ĠPatric":11160,"Conc":11161,"ĠUsu":11162,"fase":11163,"ines":11164,"Ġreuniu":11165,"ĠÃĢs":11166,"Ġdesab":11167,"Ġatrap":11168,"Dec":11169,"ĠLÃŃngua":11170,"Ġsexuais":11171,"Ġbarco":11172,"Ġjornalismo":11173,"ĠocupaÃ§Ã£o":11174,"ĠTransporte":11175,"Pelo":11176,"Ġdescanso":11177,"Ġingressos":11178,"issos":11179,"Ġeditora":11180,"Ġenfat":11181,"ĠÃªx":11182,"Ġbelas":11183,"Ġgraus":11184,"ĠClub":11185,"ĠlesÃµes":11186,"Ġestradas":11187,"Ġadotar":11188,"Ġconversas":11189,"Ġmos":11190,"ĠProv":11191,"Ãªmico":11192,"ĠMet":11193,"xx":11194,"ecta":11195,"Ġpublicados":11196,"Ġrelacionada":11197,"Ġ1980":11198,"Ġprecip":11199,"CD":11200,"lamento":11201,"ĠMarina":11202,"Ġvoo":11203,"Ġoficialmente":11204,"ĠrelevÃ¢ncia":11205,"Ġbab":11206,"ĠtemÃ¡tica":11207,"ĠindependÃªncia":11208,"Ã³tico":11209,"Ġargumentos":11210,"Ġacham":11211,"peito":11212,"Ġmini":11213,"ĠRelaÃ§Ãµes":11214,"Ġchup":11215,"Ġsocio":11216,"Ġconhecidas":11217,"Ġdesenvolvidas":11218,"Ġvivos":11219,"ĠUlt":11220,"ĠSantiago":11221,"Ġcontinue":11222,"Ġfuturos":11223,"ulgaÃ§Ã£o":11224,"lesa":11225,"xos":11226,"Ġdesped":11227,"Ġportaria":11228,"tre":11229,"adÃ£o":11230,"ĠPaz":11231,"Ġcontando":11232,"Ġespecializado":11233,"Ġpermitido":11234,"Ġbrincadeira":11235,"ĠLinha":11236,"Ġinstitucional":11237,"ĠsugestÃ£o":11238,"Ġpromessa":11239,"Ġ%":11240,"Ġhomo":11241,"END":11242,"Ġhumanas":11243,"ĠprÃ©vio":11244,"EP":11245,"rÃ¡lia":11246,"Ã§este":11247,"ivid":11248,"ĠSÃŃ":11249,"Ġexam":11250,"Ġconfund":11251,"ĠBarcel":11252,"CAÃĩÃĥO":11253,"CH":11254,"iÃ¡":11255,"ĠConsidera":11256,"ĠQUE":11257,"59":11258,"Ġ52":11259,"ĠmistÃ©rio":11260,"eranÃ§a":11261,"Ġcontacto":11262,"Ġconsideradas":11263,"Ġservem":11264,"Ġesquerdo":11265,"Ġintegrar":11266,"Ġfresc":11267,"Ġconcord":11268,"Ġconvic":11269,"ĠvÃ¡lido":11270,"rota":11271,"ĠID":11272,"Ġuniversal":11273,"ĠtributÃ¡ria":11274,"Ġcoinc":11275,"Ġactividade":11276,"Ġusou":11277,"ĠProfessores":11278,"ĠForÃ§a":11279,"ÃŃzos":11280,"plas":11281,"Ġsaindo":11282,"pÃ©":11283,"toral":11284,"uladas":11285,"gÃªn":11286,"Ġsoja":11287,"Ġbact":11288,"ĠFlÃ¡vio":11289,"TR":11290,"Ġpude":11291,"Ġamarelo":11292,"Sal":11293,"Ġdeixaram":11294,"ĠRecom":11295,"ĠJuiz":11296,"ben":11297,"df":11298,"ĠanÃ¡lises":11299,"Ġmoedas":11300,"itividade":11301,"Cada":11302,"Ġdens":11303,"ĠMO":11304,"Ġcaminha":11305,"ĠMovimento":11306,"ĠCÃ©sar":11307,"Ã©lia":11308,"Ġjulgar":11309,"Ġaliv":11310,"ĠExÃ©rcito":11311,"Ġrelacionamentos":11312,"Ġligada":11313,"ĠAtlÃ¢nt":11314,"Ġindicadores":11315,"Ġprove":11316,"Ġassinado":11317,"Ġdescart":11318,"ĠmaÃ§":11319,"ef":11320,"riar":11321,"Ġalo":11322,"Ġenga":11323,"ateus":11324,"ĠCorreios":11325,"Ġtag":11326,"Ġtraduzir":11327,"ĠSebast":11328,"ĠSuÃŃ":11329,"ĠpapÃ©is":11330,"ILVA":11331,"ĠBolsa":11332,"Ġmandou":11333,"ĠCoimbra":11334,"Ġnotur":11335,"mer":11336,"ivemos":11337,"Ġtablet":11338,"Ġprotec":11339,"ĠReun":11340,"Ġyou":11341,"Ġabsoluta":11342,"ĠacadÃªmicos":11343,"ĠSor":11344,"aneamento":11345,"hs":11346,"Ġalar":11347,"ÃŃtico":11348,"ERAL":11349,"Ġcarioca":11350,"ĠConferÃªncia":11351,"ĠCateg":11352,"Ġtranquila":11353,"Ġgigante":11354,"ĠDisney":11355,"Ġtrag":11356,"Ġrecus":11357,"Ġguardar":11358,":\"":11359,"Ġsuplementos":11360,"Ã³cio":11361,"Ġdecorrentes":11362,"Ġimpactos":11363,"Ġsentindo":11364,"ĠcristÃ£o":11365,"Ġsugere":11366,"Ġcosta":11367,"Ġconsciente":11368,"quinha":11369,"ĠTho":11370,"ĠNunes":11371,"ĠWh":11372,"Ġlote":11373,"Ġcheguei":11374,"Ġprevenir":11375,"001":11376,"ĠJurÃŃd":11377,"Ġline":11378,"mel":11379,"Ġsegurado":11380,"Ġlitros":11381,"etermin":11382,"Ġenxer":11383,"Tube":11384,"embl":11385,"ĠmÃŃdias":11386,"Ġmodalidades":11387,"Ġquerida":11388,"ĠOutras":11389,"Ð°Ð":11390,"ĠMotor":11391,"Âµ":11392,"Ġ(...)":11393,"ĠKar":11394,"Ġmontanha":11395,"Ġprofundamente":11396,"ĠCursos":11397,"inter":11398,"Ġgerando":11399,"Ġcorrespondente":11400,"Ġreag":11401,"ĠPER":11402,"Ġconfirmar":11403,"ĠcenÃ¡rios":11404,"Acho":11405,"ĠLÃº":11406,"ĠAz":11407,"ĠCompre":11408,"ribunais":11409,"Ġsurgir":11410,"ĠglÃ³ria":11411,"Ġsep":11412,"Ġjusta":11413,"Ġlembrou":11414,"ĠseparaÃ§Ã£o":11415,"Ġtristeza":11416,"Ġresgate":11417,"Ġcompanheiro":11418,"Ġbrinquedos":11419,"bes":11420,"ĠOrÃ§amento":11421,"ĠdependÃªncia":11422,"Ġcamadas":11423,"ĠrÃ©":11424,"Ġdeliciosa":11425,"ĠPortaria":11426,"Ġdestinos":11427,"ISS":11428,"Ã³tica":11429,"ĠNatural":11430,"ĠEstudo":11431,"ĠdestruiÃ§Ã£o":11432,"Ġposicionamento":11433,"iÃ¡rias":11434,"ximo":11435,"ĠconheÃ§a":11436,"ĠModelo":11437,"aras":11438,"Ġculp":11439,"ĠurgÃªncia":11440,"idelidade":11441,"Minha":11442,"ĠMoro":11443,"Quer":11444,"Ġleves":11445,"rense":11446,"Ġambul":11447,"ĠGuarda":11448,"Ġdesconfor":11449,"Ġcomenta":11450,"ĠbalanÃ§o":11451,"51":11452,"ĠVagas":11453,"Ġprocure":11454,"Ġdificil":11455,"ĠaceitaÃ§Ã£o":11456,"ĠINF":11457,"Ġproporcionando":11458,"Rio":11459,"Ġintegrada":11460,"alt":11461,"ĠToda":11462,"Ġatuam":11463,"ĠObrigada":11464,"ĠONU":11465,"ĠPalmeiras":11466,"ritas":11467,"rava":11468,"ĠMestrado":11469,"idora":11470,"ĠNessa":11471,"Ġdesac":11472,"Ġassume":11473,"Ġconcluiu":11474,"ĠNat":11475,"Ġsaldo":11476,"Ġduro":11477,"andro":11478,"Ġfrancesa":11479,"Ġinterface":11480,"Ġmodel":11481,"Ġmodernos":11482,"ĠPiauÃŃ":11483,"mago":11484,"Ġconfesso":11485,"ĠSecretÃ¡rio":11486,"Ġdebates":11487,"Ġmolho":11488,"Casa":11489,"cand":11490,"Ġpagos":11491,"Ġimpede":11492,"rsrs":11493,"Ġmultiplic":11494,"Ġpion":11495,"ĠCAP":11496,"Ġfazenda":11497,"Ġ1996":11498,"ĠhistÃ³ricos":11499,"ĠMur":11500,"Ġimplica":11501,"Ġfiguras":11502,"Ġaprimo":11503,"Ġtrazem":11504,"Ġcoco":11505,"Ġescritos":11506,"ĠMarques":11507,"Ġmortes":11508,"Ġinciso":11509,"ĠBre":11510,"ĠfundaÃ§Ã£o":11511,"ĠtÃ³pico":11512,"ricular":11513,"Ġgravar":11514,"Ġefetivo":11515,"Ġacr":11516,"Ġnamorada":11517,"HOR":11518,"Ġprofundidade":11519,"Cap":11520,"Ġdispara":11521,"ĠDirec":11522,"Ġgoleiro":11523,"Ġselecionar":11524,"ĠDefin":11525,"Ġmast":11526,"Ġsoma":11527,"ĠPrimeira":11528,"ĠTerc":11529,"ĠpescoÃ§o":11530,"ĠconcepÃ§Ã£o":11531,"Ġpente":11532,"ĠlesÃ£o":11533,"ĠSha":11534,"hiago":11535,"Ġpreservar":11536,"fru":11537,"Ġafeta":11538,"sta":11539,"resso":11540,"Ġdesen":11541,"ĠWord":11542,"Ġaparentemente":11543,"Ġdescobre":11544,"Desc":11545,"Ġpica":11546,"Ġassociada":11547,"Ġreferido":11548,"Ġjard":11549,"estos":11550,"Ġsangu":11551,"Ġlevaram":11552,"Ġcontribui":11553,"ĠSat":11554,"Ã¡scoa":11555,"ÃŃmetros":11556,"Ġtrabalhou":11557,"SL":11558,"doria":11559,"ĠtÃªnis":11560,"Ã¡sio":11561,"ĠImposto":11562,"Ġvelhos":11563,"ĠproteÃŃna":11564,"EB":11565,"erdade":11566,"Ġdestinados":11567,"Ġdiretrizes":11568,"ĠinfecÃ§Ã£o":11569,"Ã¢ng":11570,"ĠResultado":11571,"ĠOlÃŃmp":11572,"Ġgratis":11573,"Ġrecon":11574,"Ġconsiga":11575,"Ġpanela":11576,"iness":11577,"Ġilegal":11578,"ĠAngeles":11579,"Foto":11580,"Ġlindos":11581,"Ġditadura":11582,"ÃŃnhamos":11583,"Ġrelativas":11584,"Ġpega":11585,"ĠCrianÃ§a":11586,"ĠproprietÃ¡rios":11587,"ĠSexo":11588,"lash":11589,"Ġpromovido":11590,"Ġamericanos":11591,"ĠParece":11592,"ĠCarn":11593,"Ġajuste":11594,"ĠinformÃ¡tica":11595,"Ġadianta":11596,"Ġartificial":11597,"!)":11598,"Ġced":11599,"inentes":11600,"ĠEnfer":11601,"ĠmÃºsculos":11602,"Ġazeite":11603,"Ġten":11604,"ĠMens":11605,"ĠMadeira":11606,"ĠtransaÃ§Ãµes":11607,"Te":11608,"Ġ180":11609,"etais":11610,"Ind":11611,"ĠCle":11612,"essÃ³rios":11613,"Ġ64":11614,"Ġzonas":11615,"Ġcelulares":11616,"ĠCole":11617,"Ã³nia":11618,"ĠÃŃndices":11619,"Ġaumentou":11620,"Ġintegrado":11621,"ĠautomÃ³vel":11622,"Ġprocuram":11623,"Ġresistente":11624,"Ġgasolina":11625,"ĠRousseff":11626,"Ġbiblioteca":11627,"Ġdividir":11628,"ĠCome":11629,"Ġlongos":11630,"ĠRita":11631,"Ġdroga":11632,"ĠesqueÃ§a":11633,"Ġvital":11634,"ĠlÃª":11635,"ĠMÃ¡qu":11636,"ĠimaginaÃ§Ã£o":11637,"ropec":11638,"ĠPAR":11639,"ĠFG":11640,"ĠHu":11641,"ĠfavorÃ¡vel":11642,"tero":11643,"Ġesperava":11644,"Ġpuder":11645,"Ġparado":11646,"ĠFar":11647,"ĠincidÃªncia":11648,"grafos":11649,"Ġespelho":11650,"ĠcontÃŃnua":11651,"ĠBiblioteca":11652,"Ġdespro":11653,"ĠcompÃµem":11654,"ĠcondenaÃ§Ã£o":11655,"Ġdesemprego":11656,"Ġconfronto":11657,"Ġimediata":11658,"Ġutilizadores":11659,"Ġcomparar":11660,"Ġsuspeita":11661,"71":11662,"ibe":11663,"Ġsentem":11664,"Ġauxilia":11665,"ĠficÃ§Ã£o":11666,"round":11667,"Ġventil":11668,"ĠME":11669,"Ġcasar":11670,"ĠNota":11671,"ĠGustavo":11672,"Ġobtidos":11673,"ĠemprÃ©stimo":11674,"Ġdiabetes":11675,"hei":11676,"tafogo":11677,"Ġencerra":11678,"ĠDiego":11679,"Ġpreconceito":11680,"Me":11681,"ÃŃnguas":11682,"Min":11683,"Ġprolong":11684,"Ġfan":11685,"ibular":11686,"ÃŃtes":11687,"ĠconseqÃ¼":11688,"ĠdÃŃvidas":11689,"ĠlÃ¡bios":11690,"Ġtrabalhista":11691,"Ġsacrif":11692,"BI":11693,"Ã³nica":11694,"Ġfranquia":11695,"ĠVicente":11696,"idencial":11697,"ĠAG":11698,"orrido":11699,"Ġ1988":11700,"Ġving":11701,"ĠGram":11702,"Ġpouquinho":11703,"Ġcorrendo":11704,"Ġarrisc":11705,"ĠAssis":11706,"Ġherd":11707,"ĠquÃŃmicos":11708,"Ġstatus":11709,"ĠperiÃ³d":11710,"Ġabertos":11711,"ĠAnunc":11712,"ĠXIX":11713,"ĠlanÃ§ada":11714,"Ġsituado":11715,"Ġatingiu":11716,"Ġoferecido":11717,"74":11718,"Ġdonos":11719,"Ġego":11720,"ĠFÃ¡tima":11721,"ĠAlf":11722,"anhar":11723,"Ġprogresso":11724,"Comp":11725,"ĠrefeiÃ§Ã£o":11726,"Ġinimigo":11727,"vid":11728,"ĠNinguÃ©m":11729,"orges":11730,"Ġperfume":11731,"olar":11732,"ĠFUN":11733,"ĠconduÃ§Ã£o":11734,"ĠdiscÃŃp":11735,"Todo":11736,"hal":11737,"Inf":11738,"Ġressaltar":11739,"ĠlogÃŃstica":11740,"ĠFluminense":11741,"taram":11742,"ĠAze":11743,"ĠporquÃª":11744,".â":11745,"92":11746,"Ġsanto":11747,"Ġinsegu":11748,"Ġconvidado":11749,"merce":11750,"Ġlaranja":11751,"ĠcontarÃ¡":11752,"ĠRu":11753,"Ã©tricas":11754,"ricidade":11755,"PSDB":11756,"Ġtap":11757,"Ġinesquec":11758,"ĠalgodÃ£o":11759,"ĠfiÃ©is":11760,"Ġbast":11761,"ĠQuÃŃmica":11762,"Sa":11763,"URSO":11764,"ĠCafÃ©":11765,"ĠREG":11766,"Ġ58":11767,"Ġcompletou":11768,"imentar":11769,"ĠPSDB":11770,"ĠConstruÃ§Ã£o":11771,"Eles":11772,"Ġmit":11773,"ĠtesÃ£o":11774,"Ġconso":11775,"Ġdesespera":11776,"Ġexempl":11777,"inze":11778,"ĠmovimentaÃ§Ã£o":11779,"ĠLoja":11780,"ĠremoÃ§Ã£o":11781,"ĠexibiÃ§Ã£o":11782,"Muitas":11783,"Ġmer":11784,"Ġfum":11785,"Ġjogando":11786,"Ġregulamento":11787,"ĠClassificaÃ§Ã£o":11788,"Ġapoi":11789,"ĠsÃ³cios":11790,"Ġprovocar":11791,"ĠfarmacÃªut":11792,"isciplinar":11793,"Ġcompost":11794,"ĠCaldeiras":11795,"Ġparalis":11796,"func":11797,"ĠGold":11798,"Ġsolidariedade":11799,"ÃĩÃĥo":11800,"Ġajudando":11801,"rimentos":11802,"ertado":11803,"ĠproteÃŃnas":11804,"Ġcolocados":11805,"ĠÃģl":11806,"ĠÃ¡cido":11807,"ÃĥÂµ":11808,"visor":11809,"ĠparÃ¢metros":11810,"essora":11811,"QUI":11812,"Ġblocos":11813,"Ġsop":11814,"Ġcontatos":11815,"ĠGere":11816,"Ġassinal":11817,"ĠFilosofia":11818,"kg":11819,"Ġpilotos":11820,"Ġcitado":11821,"ifico":11822,"Ġenvolver":11823,"Ġdescobriu":11824,"Ġatinge":11825,"ŀ¤":11826,"Ġtatu":11827,"ĠProjetos":11828,"Ġrecebi":11829,"Ġalimentares":11830,"Ġselecionados":11831,"ĠgrÃ¡ficos":11832,"Ġharmon":11833,"Dia":11834,"rez":11835,"ĠMud":11836,"ĠRui":11837,"Ã§ao":11838,"Ġgratuitos":11839,"ĠCONS":11840,"ĠSalÃ£o":11841,"ĠobrigatÃ³ria":11842,"IVA":11843,"Ġperguntou":11844,"ĠCC":11845,"ĠEnte":11846,"Ġpret":11847,"Ġtransportes":11848,"Ġsentia":11849,"Ġverdadeiramente":11850,"ĠABC":11851,"ÃĥÂª":11852,"Ġvoce":11853,"Ġrebel":11854,"Ġtimes":11855,"Ġback":11856,"ĠBRASIL":11857,"Ġteus":11858,"ashington":11859,"ĠTop":11860,"ĠFÃ¡bio":11861,"Ġtratados":11862,"Ġbolso":11863,"ĠGeografia":11864,"Ġeuropeus":11865,"ocas":11866,"ĠalumÃŃnio":11867,"Ġ51":11868,"ĠjuÃŃzo":11869,"Ġjanelas":11870,"Ġaust":11871,"ilaÃ§Ã£o":11872,"ecida":11873,"Ġ54":11874,"Ã©ricas":11875,"ĠCinema":11876,"Ġved":11877,"Ġgostos":11878,"cÃ³p":11879,"ĠCenter":11880,"ĠHip":11881,"Ġacrescentou":11882,"Ġfruta":11883,"Ġsobreviv":11884,"Ġtransmitir":11885,"Ġdesconf":11886,"att":11887,"Ġferiado":11888,"ĠConsum":11889,"ĠInternational":11890,"ĠElÃ©trica":11891,"ĠAne":11892,"Ġfundada":11893,"Atualmente":11894,"Ġvariam":11895,"Ġencomenda":11896,"igh":11897,"Ġrazo":11898,"ÃŃdeos":11899,"ĠreforÃ§o":11900,"ĠMonteiro":11901,"Ġconhecia":11902,"Ġimpro":11903,"VIS":11904,"adim":11905,"ĠIguaÃ§u":11906,"riaÃ§Ã£o":11907,"Ġnegativa":11908,"ĠNÃŃvel":11909,"Ġfilt":11910,"Ġmontanhas":11911,"Ġatmosfera":11912,"ĠBarcelona":11913,"Home":11914,"ĠCadas":11915,"Ġresponsabilidades":11916,"ashion":11917,"Ġpneus":11918,"Ġnucle":11919,"Ġnoiva":11920,"ĠestÃŃm":11921,"Ġentregues":11922,"ÃŃsmo":11923,"Ġdescans":11924,"ENS":11925,"ĠcertificaÃ§Ã£o":11926,"ĠMichael":11927,"ĠMS":11928,"Ġregistrados":11929,"ĠcÃ¢meras":11930,"Ġcachorro":11931,"sApp":11932,"Ġtextura":11933,"etano":11934,"Ġgira":11935,"ĠGet":11936,"ntese":11937,"Ġfibras":11938,"Ġabastecimento":11939,"Ġoce":11940,"ĠCard":11941,"Ġaldeia":11942,"Ġhipo":11943,"ĠInstru":11944,"Ø§":11945,"quet":11946,"Ġdevendo":11947,"Ġemagrecer":11948,"Fi":11949,"upe":11950,"ĠInterno":11951,"Ġmotores":11952,"Ġdepoimento":11953,"harel":11954,"inamento":11955,"Ġacabei":11956,"Ġreconhece":11957,"Ġimenso":11958,"ÃŃculo":11959,"Ġnascer":11960,"astre":11961,"Ġdirigentes":11962,"ĠTRA":11963,"Ġcomportamentos":11964,"Ġhomos":11965,"Ġcontrad":11966,"Ġcompromete":11967,"Ġvosso":11968,"artup":11969,"Ġparto":11970,"Ġ56":11971,"ENTOS":11972,"Ġacesse":11973,"ĠLeonardo":11974,"!âĢĿ":11975,"vide":11976,"Ġdelicioso":11977,"ĠAngola":11978,"Ġatuando":11979,"Ġbeijo":11980,"ĠPDF":11981,"Alguns":11982,"Ġdemora":11983,"ĠYouTube":11984,"ĠMetropol":11985,"reiros":11986,"ĠCoop":11987,"ĠCheg":11988,"ĠSent":11989,"Ġpesc":11990,"ĠDiana":11991,"Ġparou":11992,"ĠÃ³pt":11993,"Ġarrepend":11994,"Ġpreenchimento":11995,"Ġcoroa":11996,"jados":11997,"Ġvossa":11998,"ificador":11999,"ĠWi":12000,"ĠAustrÃ¡lia":12001,"atch":12002,"Ġcardio":12003,"Ġrelato":12004,"Ġquantas":12005,"86":12006,"94":12007,"reas":12008,"ĠÃĤ":12009,"tona":12010,"ĠMiss":12011,"Ġconselhos":12012,"Ġ800":12013,"ĠChrist":12014,"Ġprestados":12015,"ĠPedag":12016,"Ġliteral":12017,"Ġcelebrar":12018,"Ġsilenc":12019,"ĠMadr":12020,"Ã³rnia":12021,"Val":12022,"ĠDJ":12023,"Ġcalorias":12024,"ĠevangÃ©l":12025,"Ġoficinas":12026,"ĠFed":12027,"Ġcujos":12028,"ĠHolanda":12029,"inato":12030,"iem":12031,"ĠmÃºsicos":12032,"Ġocupa":12033,"cismo":12034,"ĠTocant":12035,"Ġdispens":12036,"Ġduplo":12037,"ĠCientÃŃfica":12038,"ÃĶ":12039,"Ġtinta":12040,"avor":12041,"Ġloira":12042,"ĠmatrÃŃcula":12043,"sung":12044,"orados":12045,"idÃ¡ria":12046,"ĠlegÃŃt":12047,"Ġeducacional":12048,"Ġganhando":12049,"ary":12050,"ĠInÃ¡cio":12051,"ĠconstituiÃ§Ã£o":12052,"Ġsmartphone":12053,"ĠCro":12054,"Ġempur":12055,"ĠTec":12056,"Ġpensam":12057,"nica":12058,"ĠDeve":12059,"ĠMario":12060,"Ġvendido":12061,"ĠCNPJ":12062,"ĠArquitetura":12063,"Ġfabricantes":12064,"Ġdesat":12065,"obra":12066,"Ġfila":12067,"Ġcomponente":12068,"ĠcardÃ¡p":12069,"ĠrelÃ³gio":12070,"estou":12071,"Ġreligioso":12072,"Ġhorizont":12073,"Ġrevelar":12074,"ĠHonoris":12075,"Ġida":12076,"ĠdoaÃ§Ã£o":12077,"ĠOfic":12078,"teriores":12079,"Ġsurgem":12080,"Ġcaminhar":12081,"cou":12082,"iosamente":12083,"Ġcapit":12084,"Todas":12085,"Ġbilh":12086,"Ġespont":12087,"Ġrelatos":12088,"Ġutilizador":12089,"urados":12090,"Ġcurs":12091,"ĠInv":12092,"Fal":12093,"vocÃª":12094,"ĠSar":12095,"Ġarranc":12096,"Ġtornaram":12097,"Ġgarantiu":12098,"ĠreforÃ§ar":12099,"Ã´mico":12100,"ĠexigÃªncia":12101,"Ġefetiva":12102,"ĠBÃ¡sica":12103,"!\"":12104,"sp":12105,"Ġdoente":12106,"ĠKing":12107,"Ġneve":12108,"Ġcub":12109,"ĠJames":12110,"Ġgostava":12111,"ÃĥÂµes":12112,"Ġvimos":12113,"ivais":12114,"ÃŃculos":12115,"Ġdesejam":12116,"Ġsapatos":12117,"ĠEmb":12118,"Ġconfeccion":12119,"Ġerot":12120,"Ġaz":12121,"Ġfria":12122,"Ã¡sticas":12123,"ĠeconÃ´micos":12124,"ĠLibert":12125,"ecas":12126,"unicaÃ§Ãµes":12127,"velas":12128,"Ġcabel":12129,"ĠavanÃ§ar":12130,"Ġeventuais":12131,"Ġencerramento":12132,"ĠFigura":12133,"ĠarrecadaÃ§Ã£o":12134,"Ġbriga":12135,"ICAS":12136,"ĠOscar":12137,"Ã¢neas":12138,"Pode":12139,"magens":12140,"Ġabuso":12141,"Ã³dulos":12142,"ĠChica":12143,"Ġquantos":12144,"Ġvestidos":12145,"Ġorientar":12146,"IZAÃĩÃĥO":12147,"ĠApl":12148,"ĠestÃ¡vel":12149,"ĠfÃ¡ceis":12150,"Ġcivis":12151,"Ġrios":12152,"ĠCOR":12153,"ĠPela":12154,"Ġparentes":12155,"Ġlimpar":12156,"Ġdesembarg":12157,"ni":12158,"tel":12159,"ĠFundamental":12160,"Ġgastronomia":12161,"ily":12162,"Ġacar":12163,"Ġmonst":12164,"sequ":12165,"Ġconcelho":12166,"Ġapresentaram":12167,"Ġterceiriz":12168,"ĠConceiÃ§Ã£o":12169,"ĠGlobal":12170,"Ġdedo":12171,"ancia":12172,"Ġhomossex":12173,"DOS":12174,"Ġdesenvolveu":12175,"Ġinscritos":12176,"lesi":12177,"Ġlarga":12178,"Ġaconch":12179,"ĠCT":12180,"Ġincentivar":12181,"Ma":12182,"jada":12183,"ĠmÃ©rito":12184,"Ġperif":12185,"Ġconfia":12186,"Ġmanteiga":12187,"Ġtreinos":12188,"Existem":12189,"Ġanunciar":12190,"ĠFun":12191,"ĠUso":12192,"Ġdisponibiliza":12193,"Ġestadia":12194,"brasil":12195,"Ġsuco":12196,"ĠinstÃ¢ncia":12197,"Ġmecanismo":12198,"ĠMoto":12199,"wares":12200,"Â«":12201,"Ġgor":12202,"Ġfilos":12203,"Ġeuropeu":12204,"erte":12205,"ĠBrit":12206,"Ġram":12207,"Ġiremos":12208,"rÃ¡ul":12209,"Nosso":12210,"COM":12211,"iÃ§Ã£este":12212,"ĠcotaÃ§Ã£o":12213,"ĠMoura":12214,"izz":12215,"esses":12216,"Ġcobre":12217,"Ġvisitante":12218,"%).":12219,"Lo":12220,"Ġdesv":12221,"Ġacervo":12222,"Ġbares":12223,"ĠconfiguraÃ§Ãµes":12224,"Ġsubiu":12225,"Ġindependentes":12226,"Ġdesist":12227,"cioc":12228,"ĠRonaldo":12229,"54":12230,"iadores":12231,"Ġmama":12232,"ĠgÃ©n":12233,"84":12234,"itness":12235,"ĠacÃ§Ã£o":12236,"ĠmetÃ¡l":12237,"Ġgalera":12238,"Pois":12239,"inÃ¡rias":12240,"ÃŃculas":12241,"Portanto":12242,"Ġmun":12243,"ĠOne":12244,"ĠAparec":12245,"PorÃ©m":12246,"Ġmagia":12247,"Ġauxil":12248,"Ġnotic":12249,"Ġdeterminadas":12250,"ÃŃritos":12251,"Ġcomplexidade":12252,"ĠindispensÃ¡vel":12253,"jor":12254,"kes":12255,"ĠBeb":12256,"Ġconcess":12257,"ĠVel":12258,"ĠAfonso":12259,"\",\"":12260,"ĠtÃ©rmino":12261,"72":12262,"alho":12263,"ĠAeroporto":12264,"ÃŃnea":12265,"Ãºmero":12266,"ĠAlt":12267,"ĠConst":12268,"piraÃ§Ã£o":12269,"ĠLegislativo":12270,"Ġmanda":12271,"ĠindÃºstrias":12272,"ĠApartamento":12273,"Ġgasto":12274,"Ġinscrever":12275,"Ġpsico":12276,"Ġpato":12277,"Ġsut":12278,"imb":12279,"ĠrÃŃg":12280,"ĠraÃŃzes":12281,"testo":12282,"Marc":12283,"etizaÃ§Ã£o":12284,"Ġconhecemos":12285,"Ġconsumir":12286,"Ġbrancos":12287,"Ġpromoc":12288,"icou":12289,"guÃ©m":12290,"Ġeterna":12291,"Ġapaixonada":12292,"Ġracioc":12293,"ĠafirmaÃ§Ã£o":12294,"Ġsons":12295,"Ġrepetir":12296,"hy":12297,"educ":12298,"Ġprima":12299,"Ġpadre":12300,"ĠlÃ¢mp":12301,"ĠFis":12302,"ĠFred":12303,"Ġiniciais":12304,"Ġexigir":12305,"ĠindenizaÃ§Ã£o":12306,"JA":12307,"ĠlÃ¡g":12308,"Ġjuntas":12309,"ĠHaddad":12310,"Ġtram":12311,"Ġoff":12312,"Ġpercebi":12313,"Proc":12314,"Ġplacar":12315,"Ġlag":12316,"ĠCarolina":12317,"Ġvariadas":12318,"Ġrecorrer":12319,"Ġ96":12320,"gridade":12321,"ĠSB":12322,"Ġvazio":12323,"ĠedifÃŃcios":12324,"ĠÃªn":12325,"Ġraiz":12326,"ĠCOMP":12327,"quel":12328,"ĠMicro":12329,"Ġino":12330,"yllab":12331,"EA":12332,"isf":12333,"icletas":12334,"sob":12335,"Ġater":12336,"rosa":12337,"Ġoriu":12338,"âĢĿ.âĢľ":12339,"ĠsofÃ¡":12340,"Ġrecomendado":12341,"yllabus":12342,"Boa":12343,"Ġcomete":12344,"Ġinvestigar":12345,"Ġvoltada":12346,"Ġenviou":12347,"Pal":12348,"Ġpartilha":12349,"ĠartÃŃstica":12350,"ĠlicitaÃ§Ã£o":12351,"ĠterapÃªut":12352,"Ġamostra":12353,"Inc":12354,"ĠmÃ³dulo":12355,"ĠSert":12356,"ĠOt":12357,"Ġ1995":12358,"Ġaprovados":12359,"ĠFranco":12360,"Ġelaborado":12361,"cada":12362,"Ġborra":12363,"ĠDicas":12364,"Prof":12365,"ĠocasiÃµes":12366,"alos":12367,"Ġpegou":12368,"Ġestarem":12369,"Ġviab":12370,"ĠGoiÃ¢nia":12371,"ĠÎ":12372,"tua":12373,"ĠacadÃªmico":12374,"elecomunicaÃ§Ãµes":12375,"Pra":12376,"entor":12377,"Ġconhecem":12378,"ravam":12379,"acau":12380,"ĠEconÃ´mica":12381,"ĠVenez":12382,"Ah":12383,"ĠNum":12384,"Ġpermitiu":12385,"Ã¨":12386,"ĠBi":12387,"Ġhel":12388,"Ã³sio":12389,"ĠcoraÃ§Ãµes":12390,"Ġsert":12391,"ĠDeclara":12392,"Ġbeneficiar":12393,"ĠCalifÃ³rnia":12394,"Ou":12395,"Ġgatos":12396,"Ġincomod":12397,"ĠPriv":12398,"Ġfracas":12399,"Ġcola":12400,"itt":12401,"Ġenvolvem":12402,"Ġroubo":12403,"cap":12404,"estado":12405,"Ġdefendeu":12406,"ĠMadrid":12407,"Ġfebre":12408,"ĠCoraÃ§Ã£o":12409,"ĠAlagoas":12410,"ĠCristina":12411,"Ġumidade":12412,"Ġdecidi":12413,"Ġminerais":12414,"ĠSuas":12415,"ĠPerson":12416,"ndrome":12417,"cica":12418,"umento":12419,"ĠSaud":12420,"Ġdaquilo":12421,"ĠSetor":12422,"ose":12423,"ulante":12424,"erando":12425,"Ġterre":12426,"ĠParc":12427,"ĠclÃ¡ssica":12428,"Ġcontinente":12429,"ĠautÃªnt":12430,"ĠRibeirÃ£o":12431,"Ġfibra":12432,"PER":12433,"bolismo":12434,"Ġseletivo":12435,"Ġpoderosa":12436,"Ġefetivamente":12437,"elamento":12438,"ĠBrÃ¡s":12439,"ĠCozinha":12440,"ĠAtravÃ©s":12441,"Ã³licas":12442,"Ġreligiosos":12443,"Ġvcs":12444,"SerÃ¡":12445,"ipes":12446,"Ġdisto":12447,"Ġtoques":12448,"Ġdebaixo":12449,"ĠLiteratura":12450,"ĠArena":12451,"atina":12452,"versa":12453,"Ġdiretores":12454,"Ġpossibilita":12455,"ĠJuventude":12456,"Ġcopo":12457,"ecret":12458,"Ġsimb":12459,"Ġministra":12460,"Ġcontrolo":12461,"ĠcontemporÃ¢nea":12462,"ĠSomente":12463,"ĠDiz":12464,"cerca":12465,"Ġbomba":12466,"Ġacompanhada":12467,"Ġganhos":12468,"asta":12469,"ĠTri":12470,"Ġraiva":12471,"Ġsoluc":12472,"Ġadorei":12473,"Ġlitoral":12474,"ĠBatal":12475,"ericÃ³rdia":12476,"Ġquantidades":12477,"ĠLtda":12478,"ĠMess":12479,"ĠEDUCAÃĩÃĥO":12480,"ĠLED":12481,"Ġdiscos":12482,"ĠbebÃªs":12483,"izadora":12484,"ĠGuara":12485,"2007":12486,"Ġmesas":12487,"Ġproceder":12488,"Ġresidencial":12489,"Obrig":12490,"79":12491,"Sab":12492,"ĠaÃ©rea":12493,"Ġoeste":12494,"irl":12495,"Ġobviamente":12496,"Ġfantasia":12497,"Ġelaborar":12498,"ertou":12499,"Ġconquistas":12500,"ĠBeach":12501,"ĠWhatsApp":12502,"Ãºr":12503,"Ġcerve":12504,"ĠnÃºcleo":12505,"ĠIp":12506,"Ġconfere":12507,"iller":12508,"ĠHy":12509,"ÃĩO":12510,"ĠPromoÃ§Ã£o":12511,"Ġtente":12512,"ĠnaÃ§Ãµes":12513,"Ġades":12514,"ĠsobrevivÃªncia":12515,"ĠprejuÃŃzos":12516,"Ġnuvens":12517,"ah":12518,"Ġinev":12519,"Ġaborda":12520,"Ġligadas":12521,"Ġperspectivas":12522,"Ġdesnecess":12523,"Ġcumpre":12524,"my":12525,"indade":12526,"Ġvistos":12527,"Ġfavoritos":12528,"Ã¡log":12529,"istia":12530,"ĠilÃŃc":12531,"ĠEmpreend":12532,"cast":12533,"Ġoficina":12534,"Ġmorais":12535,"tive":12536,"ĠAÃ§Ãµes":12537,"usos":12538,"Ġquadrados":12539,"ĠfaÃ§am":12540,"ĠFlorida":12541,"Ã¡ut":12542,"ĠCorr":12543,"Ġjudeus":12544,"Ġfuncionam":12545,"Ġviram":12546,"Ġaproximar":12547,"ĠPinheiro":12548,"Ġintegrante":12549,"ĠdenÃºncias":12550,"ĠBombeiros":12551,"Ã©f":12552,"Ġcombinar":12553,"Ġindicada":12554,"Ġcompromissos":12555,"ĠÃ¢ng":12556,"ĠcÃŃr":12557,"Ġ72":12558,"ĠÃªnfase":12559,"entup":12560,"ĠRenda":12561,"Ġbancada":12562,"ĠRou":12563,"Ġmanejo":12564,"ĠeconÃ´micas":12565,"Ġhigiene":12566,"Ġgato":12567,"Ġvisibilidade":12568,"ĠExerc":12569,"Ġrespeitar":12570,"Ġlargura":12571,"igma":12572,"ĠUR":12573,"Ġfundador":12574,"ĠMaior":12575,"Ġformam":12576,"FER":12577,"Ped":12578,"ody":12579,"ĠNatureza":12580,"Ġhard":12581,"ĠESTA":12582,"ETO":12583,"ĠLac":12584,"Ġracional":12585,"Ġfacebook":12586,"Ġideais":12587,"ĠMay":12588,"Ġcancelamento":12589,"ĠApresentaÃ§Ã£o":12590,"Ġbordo":12591,"Ġretornar":12592,"Ġactividades":12593,"ĠMass":12594,"Ġregularmente":12595,"ĠChicago":12596,"QUE":12597,"ĠherÃ³i":12598,"ĠantecedÃªncia":12599,"ÃŃncia":12600,"ĠDantas":12601,"set":12602,"ronze":12603,"lusive":12604,"Ġviveu":12605,"Ġjoga":12606,"MIN":12607,"Ġregistrou":12608,"Ġluzes":12609,"Ġdiagnost":12610,"Ġapreend":12611,"ĠhorÃ¡ria":12612,"ĠpreocupaÃ§Ãµes":12613,"ĠOriente":12614,"Ġressalta":12615,"ĠvariÃ¡veis":12616,"53":12617,"ĠdevoluÃ§Ã£o":12618,"ĠPais":12619,"ĠAtividades":12620,"Ġregulam":12621,"Ġremover":12622,"ĠcombustÃŃveis":12623,"ĠReb":12624,"Ġaves":12625,"Ġprevidenc":12626,"Ġcompanheiros":12627,"Ġesconder":12628,"ĠameaÃ§as":12629,"ism":12630,"over":12631,"ĠturÃŃsticos":12632,"Ġpsicologia":12633,"ĠdanÃ§ar":12634,"Ã¡us":12635,"ĠMartin":12636,"ĠSuÃŃÃ§a":12637,"BAL":12638,"eo":12639,"Ġusei":12640,"âĢ¦)":12641,"Ã´mica":12642,"pod":12643,"Ġrecord":12644,"bral":12645,"ntegra":12646,"ĠimportaÃ§Ã£o":12647,"Ġ1994":12648,"quando":12649,"Ġcuid":12650,"ientemente":12651,"Ġalegre":12652,"ĠMunicÃŃpios":12653,"Ġimpressionante":12654,"FA":12655,"Ġvil":12656,"ĠelÃ©tricos":12657,"ĠRelatÃ³rio":12658,"Ġlongas":12659,"PMDB":12660,"Ġdial":12661,"ĠÃ³culos":12662,"DUÃĩÃĥO":12663,"Ġembalagens":12664,"ĠPeso":12665,"uk":12666,"ĠCÃ¢mbio":12667,"fac":12668,"Ġresum":12669,"Ġparticipante":12670,"Ġpassava":12671,"Ġsecretaria":12672,"Ġpreced":12673,"encont":12674,"now":12675,"Ġmontante":12676,"Ġartesanato":12677,"inense":12678,"nco":12679,"ĠAssu":12680,"Ġdurabilidade":12681,"obiliÃ¡ria":12682,"ridos":12683,"erias":12684,"quil":12685,"ĠComplem":12686,"Ġdisputar":12687,"Porque":12688,"ĠINSTITU":12689,"Ġdaquelas":12690,"ROS":12691,"TC":12692,"Ġtorre":12693,"alista":12694,"Ġconclus":12695,"ĠInfelizmente":12696,"uarte":12697,"Ġescolheu":12698,"Ġidades":12699,"Ġrein":12700,"Ġmergul":12701,"ĠMand":12702,"Ġactual":12703,"Ġagric":12704,"Ġaventuras":12705,"Ġarom":12706,"portos":12707,"Ġvolante":12708,"paraÃ§Ã£o":12709,"ĠTotal":12710,"Ġgames":12711,"ĠDas":12712,"ĠTorn":12713,"Ġacent":12714,"ĠQuinta":12715,"Ġagilidade":12716,"ĠKit":12717,"recimento":12718,"Ġjudiciais":12719,"Ġvitaminas":12720,"TES":12721,"pus":12722,"Ġ1000":12723,"ĠAlimentaÃ§Ã£o":12724,"Ġcobrar":12725,"ĠDivers":12726,"ĠTanto":12727,"etiva":12728,"Ġadiante":12729,"Ġris":12730,"Ġofens":12731,"Leia":12732,"Ġcriminosos":12733,"Ã³b":12734,"Ġvaler":12735,"Ġpromovendo":12736,"Ġmercadorias":12737,"ĠCAS":12738,"ĠWashington":12739,"Ġdeixado":12740,"Ġrelativos":12741,"Ġmotoristas":12742,"ĠDemonst":12743,"Ġcosm":12744,"pag":12745,"ĠTiago":12746,"Ġouvidos":12747,"Ġrecomenda":12748,"Ġpecul":12749,"ĠPSD":12750,"Ġincont":12751,"ĠChico":12752,"Ġquentes":12753,"atado":12754,"ĠViv":12755,"Ġsalto":12756,"Ġresolve":12757,"Ġvegetais":12758,"ĠFC":12759,"Ġmaus":12760,"ĠNews":12761,"ĠApres":12762,"Ġestag":12763,"ĠIgu":12764,"Ġformando":12765,"Ġcrescendo":12766,"Ġpio":12767,"ips":12768,"Ġ53":12769,"ĠIntelig":12770,"Ġaprovou":12771,"Ġdestruir":12772,"ĠEstud":12773,"ĠCompet":12774,"lom":12775,"Ġilhas":12776,"ĠFiz":12777,"Ġindign":12778,"ĠExem":12779,"raqu":12780,"Ġprofer":12781,"Ġconseguia":12782,"Ġnormais":12783,"Ġcontribuinte":12784,"Ġencontradas":12785,"Ġcorrigir":12786,"Ġamador":12787,"Ã©ritos":12788,"Ġquebrar":12789,"Ġchuvas":12790,"ifÃŃcio":12791,"Ġbox":12792,"Ã³quia":12793,"Ġdefinidos":12794,"ĠavaliaÃ§Ãµes":12795,"Ġprestig":12796,"Muitos":12797,"Lu":12798,"Ġsimilares":12799,"Ġgabinete":12800,"57":12801,"eitos":12802,"Ġfuturas":12803,"Ġarquitet":12804,"Ġfacilita":12805,"Ġamei":12806,"Ġverdes":12807,"Ġregisto":12808,"Ġoperacionais":12809,"Ġatualidade":12810,"Ġsaco":12811,"Ġsurgimento":12812,"ĠÃ³bvio":12813,"Ins":12814,"mentaÃ§Ã£o":12815,"ĠSus":12816,"egro":12817,"ĠPÃºblicas":12818,"sim":12819,"Ġblus":12820,"Ġrecorde":12821,"Ġcargas":12822,"Ġdocente":12823,"?\"":12824,"Ġvinda":12825,"Ġpic":12826,"Ġlua":12827,"ĠEspir":12828,"ĠINSS":12829,"Trabal":12830,":âĢľ":12831,"tur":12832,"Ġfat":12833,"Ġimensa":12834,"Ġqualidades":12835,"Ġ360":12836,"Ġestatal":12837,"Ġusufru":12838,"ĠsensÃŃvel":12839,"trans":12840,"Ġanunciado":12841,"ĠJovem":12842,"Ġnavio":12843,"ĠUber":12844,"juda":12845,"ĠjuÃŃzes":12846,"Ġpacotes":12847,"ĠFerro":12848,"RN":12849,"able":12850,"Ã¢nicas":12851,"Ġsonora":12852,"ĠHuman":12853,"ĠBA":12854,"Ġtende":12855,"Ġinstant":12856,"Ġtrinta":12857,"tico":12858,"Ġgelo":12859,"usada":12860,"mails":12861,"ĠcompatÃŃvel":12862,"eijÃ£o":12863,"Ġobes":12864,"ĠâĢĵ,":12865,"itinho":12866,"Ġlutas":12867,"oli":12868,"ionamento":12869,"ĠvisÃŃvel":12870,"ĠCampe":12871,"ĠhipÃ³teses":12872,"ĠTocantins":12873,"Ġacordos":12874,"Ġmold":12875,"Ġexpressar":12876,"entura":12877,"eng":12878,"Ġavenida":12879,"ĠPrest":12880,"Ġcavalo":12881,"Ġeixo":12882,"reet":12883,"Ġaonde":12884,"ĠJean":12885,"DS":12886,"ited":12887,"Ã³sse":12888,"ĠmecÃ¢nica":12889,"Ġadaptar":12890,"ĠShow":12891,"Ġengenheiro":12892,"ĠvÃŃnculo":12893,"Ġmestrado":12894,"ĠRena":12895,"ĠTes":12896,"ĠThiago":12897,"ĠVenda":12898,"ĠCord":12899,"ĠPF":12900,"irim":12901,"Ġinternas":12902,"Ġcredibilidade":12903,"ÐµÐ":12904,"ati":12905,"ĠautÃ´n":12906,"ĠSamsung":12907,"ĠManoel":12908,"Ġtiros":12909,"ĠtÃŃnhamos":12910,"ĠverificaÃ§Ã£o":12911,"ĠSEM":12912,"Ã´nus":12913,"Ã´nicos":12914,"Ġquadrinhos":12915,"icultura":12916,"ĠTon":12917,"Ġfama":12918,"ĠPatr":12919,"pesso":12920,"Ġput":12921,"Ġcolec":12922,"Ġviaja":12923,"Ġcriador":12924,"Ġmortal":12925,"Ġaproveitamento":12926,"Ġcriativo":12927,"Ġcarbono":12928,"ĠFinal":12929,"ĠGrav":12930,"Ġrecrut":12931,"Ġraramente":12932,"ĠjurÃŃdicas":12933,"Ġescolhida":12934,"ĠÃļnico":12935,"Ġafe":12936,"ĠLO":12937,"riam":12938,"ĠExiste":12939,"ĠCapÃŃtulo":12940,"Ġtestemunho":12941,"onald":12942,"ÃŃvia":12943,"ĠPovo":12944,"ĠSÃ¡":12945,"ĠexÃ©rcito":12946,"Ġdedicada":12947,"ĠSampa":12948,"Ġsobreviver":12949,"CAN":12950,"ĠBill":12951,"adequ":12952,"52":12953,"asso":12954,"Ã§amos":12955,"ĠWe":12956,"Ġsalva":12957,"ĠinquÃ©rito":12958,"ror":12959,"ĠAut":12960,"Ġestiverem":12961,"Ġparecido":12962,"ĠICMS":12963,"ĠGarant":12964,"cre":12965,"Ġtens":12966,"Ġmargens":12967,"Ġraios":12968,"Ġpaulo":12969,"Ġsalarial":12970,"Ġaplicadas":12971,"Ġenfrenta":12972,"Ĩĳ":12973,"itio":12974,"ĠTorre":12975,"Ġchat":12976,"ĠNelson":12977,"Ġincons":12978,"Ìģ":12979,"ĠDay":12980,"Ġcriativa":12981,"ELO":12982,"ĠCoordenador":12983,"UD":12984,"ateg":12985,"ionada":12986,"ĠextinÃ§Ã£o":12987,"ĠEscrit":12988,"Ġregistrada":12989,"dec":12990,"Ġlido":12991,"Ġrelemb":12992,"Ġlocalidade":12993,"Ġlooks":12994,"Ġconcorrentes":12995,"Fil":12996,"ndade":12997,"ĠcompetiÃ§Ãµes":12998,"analto":12999,"Ġobteve":13000,"FaÃ§a":13001,"Ġvarejo":13002,"ĠSuc":13003,"ĠDim":13004,"ĠestratÃ©gico":13005,"Ġmilhas":13006,"prefeito":13007,"Ġcogn":13008,"ucar":13009,"Ġculto":13010,"view":13011,",,":13012,"Ġsuficientes":13013,"Ġreta":13014,"ĠOU":13015,"acas":13016,"Ġconcorda":13017,"ĠProced":13018,"Ã¡rqu":13019,"Ġcredenc":13020,"ĠTrabalhadores":13021,"ĠMer":13022,"garve":13023,"Ġcriadas":13024,"ĠcaminhÃ£o":13025,"ĠConsultoria":13026,"Ġwith":13027,"eli":13028,"ĠMateus":13029,"vedo":13030,"Ġ57":13031,"Ġsali":13032,"MB":13033,"tÃ³ria":13034,"Ġdestinada":13035,"ĠavanÃ§os":13036,"Ġindicados":13037,"Ġparticipam":13038,"Ġvestir":13039,"Ġvigente":13040,"Legendado":13041,"Ġcomendo":13042,"posiÃ§Ãµes":13043,"Ã³loga":13044,"Form":13045,"foi":13046,"Ġcore":13047,"Ġapag":13048,"ĠrestriÃ§Ãµes":13049,"Ġverdadeiros":13050,"Ġcriminal":13051,"Ġarrast":13052,"Ġpano":13053,"Ġtreinar":13054,"ĠencontrarÃ¡":13055,"ĠsatÃ©l":13056,"ĠobstÃ¡culos":13057,"ĠfixaÃ§Ã£o":13058,"Ġgoz":13059,"ule":13060,"Ġirei":13061,"Ġcontinuou":13062,"ĠcardÃ¡pio":13063,"Ġprocurador":13064,"ĠculinÃ¡ria":13065,"ĠRobert":13066,"Ġ1970":13067,"Ġitaliana":13068,"Ġalugar":13069,"Ġ2020":13070,"perfeiÃ§oamento":13071,"ĠResumo":13072,"Ġpensou":13073,"cu":13074,"ĠHome":13075,"ĠconvivÃªncia":13076,"Ġidentificado":13077,"Ġinger":13078,"ĠpermanÃªncia":13079,"Ġenviada":13080,"Ġfixa":13081,"ĠrecomendaÃ§Ãµes":13082,"Ġconduzir":13083,"Ġaconselh":13084,"Rel":13085,"yle":13086,"Ġio":13087,"LA":13088,"Sua":13089,"Ġbor":13090,"Ġintu":13091,"ĠComputaÃ§Ã£o":13092,"mem":13093,"Ġcasca":13094,"Ġsociedades":13095,"Ġapoia":13096,"ĠsecretÃ¡ria":13097,"ĠexportaÃ§Ã£o":13098,"Ġcostume":13099,"ourmet":13100,"Ġselv":13101,"ĠGarcia":13102,"Ġprotocolo":13103,"Liv":13104,"Ġdegrad":13105,"stitucional":13106,"ĠlideranÃ§as":13107,"Ġtransparente":13108,"Ġinespera":13109,"ocaÃ§Ã£o":13110,"Ġbob":13111,"Ġdescend":13112,"ĠLanÃ§":13113,"Ġparques":13114,"Ġjuris":13115,"ĠmemÃ³rias":13116,"ĠPROC":13117,"arquia":13118,"anismo":13119,"Ġprivados":13120,"rituras":13121,"ols":13122,"Ġfechada":13123,"Ġcultivo":13124,"Ġconcedido":13125,"ĠCrianÃ§as":13126,"ĠgeogrÃ¡f":13127,"icular":13128,"Ġ(âĢľ":13129,"Ġcord":13130,"Ġmatriz":13131,"Ġhomolog":13132,"Ġeventualmente":13133,"ĠFrank":13134,"cindÃŃvel":13135,"ffet":13136,"Ġconsultas":13137,"Ġinserir":13138,"Sinopse":13139,"cor":13140,"ĠDet":13141,"Ġsemelh":13142,"ĠcaÃ§a":13143,"Ġdivulgados":13144,"ĠSud":13145,"Ġprontos":13146,"atividade":13147,"Ġcausando":13148,"Ã³digos":13149,"ĠautomÃ¡tico":13150,"ĠnutriÃ§Ã£o":13151,"ĠMata":13152,"Ġenergias":13153,"ĠMariana":13154,"ray":13155,"ĠestÃ¡vamos":13156,"Ġvalorizar":13157,"Ġempreendedores":13158,"agner":13159,"ĠJava":13160,"Ġefec":13161,"Ġindicam":13162,"ĠGovernador":13163,"ĠCos":13164,"Ġanualmente":13165,"Ġcamis":13166,"Ġprecoce":13167,"Ġafastamento":13168,"Ġafastar":13169,"Ġpreparo":13170,"BN":13171,"Seu":13172,"Ġmira":13173,"Ġcolhe":13174,"Ġfeed":13175,"2006":13176,"ĠHelena":13177,"87":13178,"Ġestabelecidos":13179,"ĠtecnolÃ³gica":13180,"ayout":13181,"ĠremÃ©dio":13182,"Ġsk":13183,"Ġpesca":13184,"ĠFinanÃ§as":13185,"Ġabsoluto":13186,"Ġcarregar":13187,"Ġgestor":13188,"rific":13189,"ĠMaster":13190,"Ġinterm":13191,"Ġseguiu":13192,"ĠWest":13193,"Ġautorais":13194,"ĠBelÃ©m":13195,"Ġchap":13196,"isÃ©s":13197,"ĠÃ¡s":13198,"viar":13199,"ÃģT":13200,"ĠCH":13201,"ĠpremiaÃ§Ã£o":13202,"orque":13203,"Ġleste":13204,"ecemos":13205,"Ġdividido":13206,"Ġnariz":13207,"Ġdespertar":13208,"AA":13209,"ĠDir":13210,"Ġcontabilidade":13211,"ĠInicial":13212,"Ġintegridade":13213,"Ġworksho":13214,"Ġconverter":13215,"ĠSergipe":13216,"Ġsenho":13217,"inou":13218,"ĠBorges":13219,"ĠVelho":13220,"commerce":13221,"Ġdedicar":13222,"ĠVenezuela":13223,"Ġtou":13224,"ĠSin":13225,"Ġhost":13226,"ĠPonte":13227,"ĠVictor":13228,"Ġgravidade":13229,"ĠBanc":13230,"Ġperio":13231,"ĠVargas":13232,"Ġdiria":13233,"Ġaro":13234,"Ġsmartphones":13235,"Ġtambem":13236,"Ġcitar":13237,"ĠFazer":13238,"ĠIS":13239,"rame":13240,"Ã©ss":13241,"Ġexternos":13242,"Ġlimitado":13243,"Ġachou":13244,"Ġpesquisador":13245,"guem":13246,"ĠVegas":13247,"ĠHab":13248,"Ġ59":13249,"ĠINTER":13250,"ĠbilhÃ£o":13251,"ĠPrÃ©":13252,"ĠreclamaÃ§Ãµes":13253,"itenc":13254,"TAN":13255,"ĠeliminaÃ§Ã£o":13256,"ÃļBL":13257,"ĠAch":13258,"ĠRedes":13259,"arel":13260,"Ġfalo":13261,"ĠMello":13262,"Ġproximidade":13263,"ĠproporÃ§Ã£o":13264,"ĠPodemos":13265,"ĠMUN":13266,"Ġdestaques":13267,"Ġprovoca":13268,"ĠLua":13269,"Ġacompanhando":13270,"ĠInstalaÃ§Ã£o":13271,"Ġgentil":13272,"onente":13273,"ĠsuÃŃtes":13274,"estro":13275,"apas":13276,"alize":13277,"Ã¡bil":13278,"ĠbancÃ¡rio":13279,"ĠGeorge":13280,"Ġdesculpas":13281,"ĠlÃŃnguas":13282,"ĠFiquei":13283,"ipa":13284,"Ġlaterais":13285,"ĠfantÃ¡stico":13286,"Ġhavendo":13287,"ĠSk":13288,"rie":13289,"Ġconcorrer":13290,"Ġcolon":13291,"right":13292,"ĠexposiÃ§Ãµes":13293,"itÃ¡":13294,"ĠQuais":13295,"Ġpesado":13296,"ĠlimÃ£o":13297,"Ġsoldados":13298,"osÃ©":13299,"aduras":13300,"ĠalianÃ§a":13301,"IRA":13302,"Ġfuga":13303,"Ġincl":13304,"Ġfuncionalidades":13305,"Ġsuspeitos":13306,"ĠMiranda":13307,"put":13308,"hon":13309,"Ġcarrinho":13310,"Ġinglesa":13311,"Ġempol":13312,"ĠinauguraÃ§Ã£o":13313,"Ġsantos":13314,"alhÃ£es":13315,"Ġvirtuais":13316,"Ġhome":13317,"orama":13318,"Ġchorar":13319,"Ġsigla":13320,"EE":13321,"Ġtip":13322,"Ġaborto":13323,"Ġconsent":13324,"Ġsabores":13325,"Ġturb":13326,"Ġmensais":13327,"Ġpossibilitar":13328,"Ġsiga":13329,"erior":13330,"Ġok":13331,"Ġvenho":13332,"ĠSUS":13333,"ĠTribut":13334,"Ġinterag":13335,"ĠdocumentÃ¡rio":13336,"Ġaudio":13337,"Ġcadeiras":13338,"TP":13339,"Ġargent":13340,"Ġunir":13341,"Ġchegamos":13342,"ĠPower":13343,"Aqu":13344,"Ġdolor":13345,"Ġlago":13346,"Ġestip":13347,"ĠEstaÃ§Ã£o":13348,"Ġtamanhos":13349,"ling":13350,"ĠCondomÃŃnio":13351,"Ġmonet":13352,"eirinha":13353,"ĠANP":13354,"Ġaconte":13355,"Ġenvolvido":13356,"Ġreligiosas":13357,"ĠONG":13358,"regar":13359,"Ġsaudade":13360,"Ġpetista":13361,"Ġreflete":13362,"osse":13363,"ĠCarol":13364,"Ġchapa":13365,"any":13366,"Ġcoberta":13367,"Ġdiplom":13368,"Ġocupar":13369,"ĠmediÃ§Ã£o":13370,"conf":13371,"Ġfechou":13372,"And":13373,"ĠBei":13374,"ĠUM":13375,"oriamente":13376,"Ġtransformou":13377,"Ġnotarizada":13378,"Fin":13379,"Ġdivina":13380,"Ġrestantes":13381,"Ġsignificativo":13382,"ĠConvenÃ§Ã£o":13383,"Ñĥ":13384,"ĠDed":13385,"ĠLy":13386,"ĠGran":13387,"Ġdescrever":13388,"Ġensaios":13389,"82":13390,"Ġpi":13391,"ĠDentro":13392,"ĠBig":13393,"ĠBet":13394,"Ġdesag":13395,"Ġquerido":13396,"ĠGeraldo":13397,"Ġpreventiva":13398,"usalÃ©m":13399,"ĠclÃ¡us":13400,"Ġconfirma":13401,"Ġsoft":13402,"Ġcarbo":13403,"Ġpersonalizado":13404,"Ġfrat":13405,"ĠRO":13406,"entei":13407,"Ġnote":13408,"utu":13409,"presso":13410,"Ġincorre":13411,"ĠBrasileiros":13412,"Ġvasta":13413,"ĠColeÃ§Ã£o":13414,"Ġreservado":13415,"ĠLaboratÃ³rio":13416,"Curso":13417,"Ã³so":13418,"ĠViana":13419,"isprud":13420,"Ġtv":13421,"todo":13422,"Ġcorrup":13423,"ĠavÃ³":13424,"Ġtrop":13425,"Ġfortalecimento":13426,"Ġbloqueio":13427,"viso":13428,"ressar":13429,"Ġlucros":13430,"Ġdivertida":13431,"Ġproibida":13432,"ĠDIRE":13433,"ĠOdont":13434,"Ġtirou":13435,"Ġestabelecidas":13436,"ĠbancÃ¡ria":13437,"enciatura":13438,"Ġvacina":13439,"ĠvariÃ¡vel":13440,"ĠPubl":13441,"Ġasso":13442,"ĠDuarte":13443,"Ġatrib":13444,"Ġlibert":13445,"ĠSabe":13446,"nome":13447,"ĠdÃ³lar":13448,"ĠTÃªm":13449,"Ġbateu":13450,"ĠBandeira":13451,"Ã¶":13452,"div":13453,"Ġempenho":13454,"Ne":13455,"elado":13456,"Ġaltitude":13457,"Ġapostas":13458,"Ġrodovi":13459,"mico":13460,"ĠCax":13461,"ocacia":13462,"ĠDon":13463,"Ġatualizar":13464,"IND":13465,"ĠCidadania":13466,"ĠCiv":13467,"Ġvendedor":13468,"ĠManutenÃ§Ã£o":13469,"anhou":13470,"Ġplanejar":13471,"Ġsegredos":13472,"Ġoper":13473,"Ġmeados":13474,"Ġsentiu":13475,"Tags":13476,"sapp":13477,"estima":13478,"IAS":13479,"Ġjulgado":13480,"ĠMendo":13481,"Ġgrand":13482,"ORES":13483,"Ġcharme":13484,"Ġvim":13485,"ĠapÃ³st":13486,"Ġconheci":13487,"ĠautomÃ³veis":13488,"ĠCaetano":13489,"Ġeconomizar":13490,"Ġtravess":13491,"sÃ³":13492,"Ġfiltro":13493,"Ġembaix":13494,"Ġenviados":13495,"ĠacadÃªmica":13496,"ĠcontÃŃnuo":13497,"Ġmorena":13498,"Ġchoque":13499,"ĠBotafogo":13500,"portaÃ§Ãµes":13501,"Ġ67":13502,"ĠPeru":13503,"ĠespecializaÃ§Ã£o":13504,"ĠÃģsia":13505,"Ġentram":13506,"ĠMoraes":13507,"ĠDelegacia":13508,"CAR":13509,"ĠcapÃŃtulos":13510,"Ġdesenvolvendo":13511,"ĠNey":13512,"Ġzo":13513,"stein":13514,"Ġsuplemento":13515,"ZA":13516,"ÃŃcula":13517,"ĠPires":13518,"ĠREC":13519,"ĠOAB":13520,"Ġemprest":13521,"ĠPopular":13522,"Ġreajuste":13523,"ionados":13524,"Ġmarco":13525,"Ġadministrador":13526,"ĠSimp":13527,"Ġdiminui":13528,"itismo":13529,"ĠinÃ©d":13530,"Ġasc":13531,"Ġrecip":13532,"ĠperdÃ£o":13533,"Ġpreparados":13534,"ĠterraÃ§o":13535,"ĠMagalhÃ£es":13536,"Paulo":13537,"Ġprost":13538,"Ġqualificados":13539,"Ġclicando":13540,"formaÃ§Ã£o":13541,"Ġconseguindo":13542,"idi":13543,"Ġveter":13544,"Ġcondutor":13545,"Ġaproxima":13546,"ĠregulamentaÃ§Ã£o":13547,"amor":13548,"ĠAlice":13549,"Ġpoema":13550,"Trans":13551,"ĠBrazil":13552,"Ġempregador":13553,"ĠTrÃ¢nsito":13554,"Confira":13555,"Ġtestemunhas":13556,"Lemb":13557,"ĠintenÃ§Ãµes":13558,"ĠpedaÃ§o":13559,"Ġatendendo":13560,"ĠfotÃ³grafo":13561,"ĠbactÃ©rias":13562,"ĠCI":13563,"ĠCad":13564,"Ġpalha":13565,"ĠvÃ¡lida":13566,"ĠDisponÃŃvel":13567,"gmail":13568,"iÃ¡veis":13569,"Ġdivis":13570,"Ġlimitada":13571,"Ġclassificados":13572,"Ġdesfile":13573,"Ġimplementar":13574,"ĠCartÃ£o":13575,"Ġsurpreendente":13576,"aral":13577,"Ġabund":13578,"ĠÃºnicos":13579,"ĠarmÃ¡rios":13580,"ĠLagoa":13581,"Vol":13582,"Ġmega":13583,"Ġalho":13584,"ĠBaixar":13585,"¸ı":13586,"Ġovo":13587,"ĠDNA":13588,"Ġautomo":13589,"Ã´mbia":13590,"ĠÃ³timas":13591,"ĠBiologia":13592,"arta":13593,"poss":13594,"Ġsaem":13595,"Ġ700":13596,"endeu":13597,"Ġcansa":13598,"ĠInfra":13599,"Ġpublica":13600,"ĠtradiÃ§Ãµes":13601,"Ġpreferir":13602,"ensos":13603,"Ġrelaxar":13604,"ĠprojeÃ§Ã£o":13605,"Ġrent":13606,"ĠRegina":13607,"ĠPeÃ§as":13608,"ĠCabral":13609,":-":13610,"orc":13611,"Conforme":13612,"Ġinteligentes":13613,"ĠAdvogados":13614,"Ġcapitais":13615,"utou":13616,"ĠGuard":13617,"Ġclaras":13618,"pra":13619,"Ġpassamos":13620,"Ġsopa":13621,"Ġobservado":13622,"arada":13623,"ĠadversÃ¡rios":13624,"ĠvoluntÃ¡rios":13625,"ĠReuniÃ£o":13626,"angu":13627,"Ġhecta":13628,"Ġrid":13629,"Ġcoordenadora":13630,"vado":13631,"Ġgri":13632,"ĠGast":13633,"ianismo":13634,"logista":13635,"Ġdivertir":13636,"ĠConsumidor":13637,"Ġlance":13638,"Ġrab":13639,"Ġbarulho":13640,"ĠPÃ¡scoa":13641,"Ġplug":13642,"ĠEconÃ´mico":13643,"rid":13644,"ath":13645,"Ġpopul":13646,"Ġtentam":13647,"ĠUruguai":13648,"Ġexa":13649,"ĠcolÃ©gio":13650,"ĠproduÃ§Ãµes":13651,"Ġcompreende":13652,"ĠESC":13653,"Ġdesistir":13654,"Ġnestas":13655,"arenta":13656,"Ġagred":13657,"Ġoperar":13658,"Ġfortemente":13659,"Ġencontre":13660,"espero":13661,"orando":13662,"Ġconvida":13663,"icam":13664,"hehe":13665,"Ġevita":13666,"urec":13667,"Ġinfluencia":13668,"ĠvÃ´":13669,"post":13670,"Ġestimativa":13671,"uters":13672,"Ġdevida":13673,"Ġcompetitividade":13674,"Ġchaves":13675,"Ġflexibilidade":13676,"Ġsentar":13677,"Ġlen":13678,"ibre":13679,"Ġobtido":13680,"Vale":13681,"nca":13682,"ĠJorn":13683,"Ġtelefones":13684,"xi":13685,"ĠPok":13686,"ANO":13687,"Ġmentira":13688,"ĠagrÃŃcola":13689,"Ġficha":13690,"Ġperfis":13691,"Ġfornecedor":13692,"Americ":13693,"ĠMesa":13694,"ĠRich":13695,"Ġaliados":13696,"Ġdiverg":13697,"Ġcomandante":13698,"Ġsindicato":13699,"Ġdou":13700,"Ġestil":13701,"plica":13702,"ĠcomunhÃ£o":13703,"Ġassistente":13704,"ĠTestamento":13705,"Ġtim":13706,"lata":13707,"Deus":13708,"html":13709,"MENTO":13710,"Ġquinto":13711,"Ġrespectivas":13712,"inde":13713,"Ġtava":13714,"ition":13715,"ĠâĢĭ":13716,"Ġrode":13717,"ĠestratÃ©gica":13718,"Ġmacho":13719,"ĠBranca":13720,"ĠJerusalÃ©m":13721,"ĠVaz":13722,"ĠescÃ¢nd":13723,"assa":13724,"Ġconcordo":13725,"ï¸ı":13726,"eradas":13727,"Ġtemplo":13728,"ĠEstÃ¡dio":13729,"ĠControl":13730,"Ġsand":13731,"ĠquÃ£o":13732,"Ġprotesto":13733,"Ġpartilhar":13734,"Ãºmula":13735,"Ġpsiqu":13736,"Ġtriun":13737,"Ġnecessitam":13738,"ĠEnfim":13739,"Ġpercebeu":13740,"ĠAdministrativo":13741,"Ġentrando":13742,"Ġfaziam":13743,"Ġteorias":13744,"iami":13745,"Ġdeterminou":13746,"ĠauditÃ³rio":13747,"Ġdeuses":13748,"ipaÃ§Ã£o":13749,"ĠAlta":13750,"ĠDireÃ§Ã£o":13751,"Ġcapacidades":13752,"Ġexclusivos":13753,"ĠLuciano":13754,"Ġacrescenta":13755,"Ġdensidade":13756,"Ġfina":13757,"atizaÃ§Ã£o":13758,"ĠLav":13759,"ĠÃītica":13760,"Ã¡bado":13761,"Ġdesigner":13762,"pass":13763,"arÃ©m":13764,"ĠUniverso":13765,"icados":13766,"itmos":13767,"Ġesfera":13768,"Ġjun":13769,"ĠcaÃ§":13770,"Ġmodernas":13771,"Ġimpe":13772,"ibi":13773,"Ġvoltas":13774,"Ãºmulo":13775,"Ġfraco":13776,"prim":13777,"idata":13778,"feras":13779,"inux":13780,"ĠCamar":13781,"ĠmoÃ§a":13782,"ĠavanÃ§ado":13783,"ĠCust":13784,"Ġdesres":13785,"ANA":13786,"Ġsindical":13787,"eas":13788,"Ġbil":13789,"Ġdoses":13790,"ĠplenÃ¡rio":13791,"ĠMoisÃ©s":13792,"Ġfamosas":13793,"Ġgarrafa":13794,"ym":13795,"ĠAlm":13796,"Ġevid":13797,"Ã©trico":13798,"Ġtrigo":13799,"\")":13800,"ĠSens":13801,"ĠBab":13802,"ĠLer":13803,"ĠJr":13804,"Ġgostosas":13805,"Ġpaisagens":13806,"ï¿½ï¿½":13807,"Ġmassagem":13808,"Ġdistintas":13809,"romb":13810,"Ġempreendimentos":13811,"ĠPolÃŃticas":13812,"Ġcreio":13813,"Ġgarotas":13814,"ft":13815,"Ġespeta":13816,"Ġpapo":13817,"Ġapontam":13818,"Ġvisualizar":13819,"Ġextremo":13820,"rasse":13821,"ĠpontuaÃ§Ã£o":13822,"Ġcristal":13823,"Ġfinalizar":13824,"redor":13825,"Ġhabitual":13826,"Ġenvelhecimento":13827,"ĠDar":13828,"ĠrecomendaÃ§Ã£o":13829,"rÃŃ":13830,"ĠDF":13831,"ĠIM":13832,"Ġpresta":13833,"ĠAnuncidado":13834,"xas":13835,"oud":13836,"Ġacal":13837,"Ġtentativas":13838,"ĠTransportes":13839,"Ġprejudicar":13840,"urre":13841,"ĠUniversal":13842,"Ġparcelas":13843,"Ġordens":13844,"Ġencaminhado":13845,"ĠlÃ¡grimas":13846,"Ġcarboid":13847,"pis":13848,"Ġza":13849,"ĠreaÃ§Ãµes":13850,"ĠtransaÃ§Ã£o":13851,"Ġentendeu":13852,"iques":13853,"ĠexclusÃ£o":13854,"ĠDavi":13855,"bu":13856,"ello":13857,"ĠCant":13858,"ĠSeg":13859,"Ġentendo":13860,"Ġlembrando":13861,"Ġfrango":13862,"ĠCaracter":13863,"Ġ62":13864,"Ġfavorito":13865,"Ġcozinhar":13866,"ĠTorres":13867,"pi":13868,"tima":13869,"Ġfixo":13870,"Aos":13871,"ange":13872,"Ġalco":13873,"ĠVid":13874,"Ġ1992":13875,"Ġdiferenciado":13876,"Ġfuncionalidade":13877,"Ġmasculina":13878,"ĠLondrina":13879,"ĠAmericana":13880,"ĠAlgarve":13881,"Ġtrechos":13882,"Ġcontex":13883,"ĠEmpresarial":13884,"itz":13885,"ĠprÃ©dios":13886,"ĠGrÃ¡f":13887,"Ġconsulte":13888,"Ã¢neos":13889,"Ã¡logos":13890,"aterais":13891,"vete":13892,"ĠautomÃ¡tica":13893,"Ġselo":13894,"Ġincrem":13895,"Ġrainha":13896,"ĠKa":13897,"Ġmobiliz":13898,"Ġapreciar":13899,"Ġhouv":13900,"ĠHam":13901,"Ġfaltar":13902,"Ġflora":13903,"ĠpÃ©ss":13904,"ĠBanh":13905,"ĠindicaÃ§Ãµes":13906,"Ġaprende":13907,"Ġganham":13908,"Ġtorcedores":13909,"ĠdoaÃ§Ãµes":13910,"ĠUb":13911,"Ġboleto":13912,"ĠAbre":13913,"Ġmultas":13914,"Ġdecep":13915,"ĠfinanÃ§as":13916,"Ġficado":13917,"Ġembut":13918,"Ġexigem":13919,"retas":13920,"Ġenormes":13921,"Ġmodos":13922,"Ġexternas":13923,"Ġcontribuindo":13924,"Ġpecados":13925,"sen":13926,"italizaÃ§Ã£o":13927,"Ġfrequente":13928,"ĠRhian":13929,"81":13930,"Desta":13931,"peÃ§Ã£o":13932,"Ġenvolvidas":13933,"ĠmÃŃnimos":13934,"Ġnascido":13935,
[...]
